{"vocabulary":["es</w> and</w> the</w> ","ether","er's</w> ","cal","emma</w> ","</w> myself","distribution</w> of</w> ","coach","distant</w> ","</w> dor","whom","</w> here","pretty</w> soon","fac","spo","ties</w> ","</w> a</w> man</w> ","e.</w> ‘","heard</w> of</w> ","</w> after","there</w> were</w> ","office</w> ","</w> see,</w> ","business</w> ","volum","quaint","</w> to</w> him","nature","edd","</w> shall","eer","thing,</w> ","aunt</w> ","</w> must</w> ","ing.</w> “","ed</w> an</w> ","fell","village</w> ","whales</w> ","</w> destroy</w> ",".</w> i</w> went</w> ","num","ing</w> himself</w> ","tray","the</w> s","sac","ures","it?”</w> “","from</w> her</w> ","order","easy</w> ","wast","</w> among","off</w> the</w> ","quis","ff","lying</w> ","conviction","ing</w> through","beyond</w> ","</w> writing</w> ","tween","umst","ole","could</w> have</w> ","imitation",",</w> and</w> to</w> ","ittle,</w> ","ing</w> an</w> ","ed</w> to</w> see</w> ","necessary</w> to</w> ","forth</w> in</w> ","</w> pull","arist","in</w> this</w> ","variety</w> of</w> ","</w> head","ture","a</w> great","</w> after</w> the</w> ","</w> your</w> s","</w> blue</w> ","lord,</w> ","itor","*</w> ","ahab","therefore","]","which","er</w> of</w> the</w> ","cost</w> ",",\"","yourself","occ","marianne</w> ","desir","ood</w> ","fellow","</w> ascii","oc","format","</w> can","narrow","ud","their</w> ","usband</w> ","</w> concern","imple","1.","that</w> she</w> had</w> ","</w> how","board","assoc","to</w> find</w> ","unhappy</w> ","</w> off","clination","etern","ment.</w> ","young</w> lad","each","chook","sore","eric","proper","7","^","ber</w> ","du","nigg","</w> fell","use</w> and</w> ","dine</w> ","</w> ext","\"","</w> mur","whal","or,</w> ","),</w> and</w> ","i</w> said</w> ","peggott",",</w> and</w> not</w> ",";</w> and</w> then","gone</w> to</w> ","does</w> not</w> ","</w> terms</w> of</w> ","mr.</w> jagg","only</w> the</w> ","bunch","e--","illy</w> ","had","forget</w> ","see</w> ","three</w> ","prospect</w> ","ound","ial</w> ","proce","</w> dep","holy</w> ","</w> a</w> g","ength","hard","ous,</w> ","motion","prepar","bull","</w> felt</w> ","mar","play","gats","jordan","a</w> wha","ing</w> a</w> cop","ence.</w> ","kis","usband","hou","</w> square","anthony's</w> ","all</w> her</w> ","ious</w> ","</w> strong","better","down</w> and</w> ","ific","s.</w> and</w> ","recogniz","escap","</w> asked.</w> “","</w> wonder","got</w> ",",”</w> said</w> h","head</w> ","’ve</w> been","bing","</w> cand","gutenberg","</w> who</w> had</w> ","jerusalem","av","ine-","up</w> to</w> the</w> ","</w> fr",",</w> say","dread","</w> at</w> all",",</w> on","umm","!”</w> said</w> the</w> ","impression","ing</w> h","borrow","yes.</w> ","way,</w> and</w> ","to</w> make</w> ","</w> asked</w> ","insist","execution","no.</w> ","</w> were</w> ","al","me,</w> ","recomm","ed</w> so</w> ","ll","beginn","œ","i</w> should</w> have</w> ","which</w> the</w> ","ador","</w> you</w> were</w> ","intended</w> to</w> ","bask","of</w> my</w> ","association","i'd</w> ","itself</w> ","person</w> ","ted","weather","desperate</w> ","excitement","mind</w> ","ed</w> for","</w> last","</w> inter","ery</w> ","</w> two</w> ","17","after</w> ","ity.</w> ","abb","er</w> in</w> ","dat","money</w> ","</w> interval","merely</w> ","al,</w> ","about,</w> ","along","ing</w> with</w> the</w> ","for</w> her</w> ","ot</w> ","ine</w> and</w> ","in</w> your","phr","lorn","reas","wretched</w> ","clean","</w> did","quietly</w> ","anx","</w> thir","of</w> his</w> ","plat","riot","er.</w> ","that</w> his</w> ","hid","nest</w> ","where","undertak","presently</w> ","ed</w> around</w> ","s,</w> who</w> ","darcy</w> ","ages,</w> ","every</w> time</w> ","back","t</w> of</w> the</w> ","’ve</w> ","</w> do</w> not</w> ","come</w> ","desper","ourselves</w> ","impli","seem","les</w> ","lemn","</w> could</w> ","</w> ste","dge</w> ","oft</w> ","paus","</w> of</w> the</w> ","ts</w> ","venge","quare","information</w> about</w> ","</w> with</w> her</w> ",".”</w> “no","heard","up</w> with","tur","in</w> the</w> world","furniture","</w> too",",</w> if</w> he</w> ","wink","now</w> the</w> ","</w> active</w> ","change</w> ","thrown",",</w> un","brick","seemed</w> to</w> be</w> ","ought</w> to</w> ","dora","hem","bead","nat","energ","</w> old</w> ","uzz","negro</w> ","ally</w> ","widest</w> ","1.e.1","'ll","50","down,</w> ",";</w> not</w> ","even</w> if</w> ","</w> loc","unt</w> ","ers</w> were</w> ","board</w> ","honor","pan","sorry</w> ","in</w> s","</w> while","vin","is,</w> ","</w> electronic","etch","bottom","it?","warn’t</w> ","kneel","us</w> to</w> ",".</w> while</w> ","replacement</w> or</w> re","</w> up</w> and</w> ","</w> as</w> long</w> as</w> ","ing</w> down","stamp","out</w> his</w> ","ö","pale</w> ","lin","ared</w> to</w> ","made</w> of</w> ","y_","journe","pav","elec","</w> where</w> he</w> ",".</w> she</w> had</w> ","fare","shake</w> ","lady","</w> deck","quiri","yr","ought</w> ","</w> lon","rac","before</w> the</w> ","age</w> to</w> ","doctor","misfortun","s.</w> she</w> ","through</w> the</w> ","danger","enthusi","has</w> not</w> ","modern","now,</w> and</w> ","is</w> there","idea</w> of</w> ","as</w> much","safe</w> ","t,</w> but</w> ","set</w> ","others</w> ","in’","</w> seemed</w> ","ha","finish","suggest","head</w> and</w> ","ind,</w> ","ult","lydi","cry</w> ","iture","relig","ty</w> ","what</w> do</w> you","put","?’</w> i","know</w> the</w> ","distribution","our","door","ome","except</w> ","marri","weston","otherwise</w> ","loo","</w> colonel",",”","retch","scorn","</w> this</w> ebook","young</w> man","</w> spir","dog","intention","online</w> at</w> www.gutenberg.org","</w> began</w> to</w> ","arrived</w> ","made</w> me</w> ","burst","small</w> ","</w> thre","alone.</w> ","convinc","oot</w> ","</w> miss</w> havisham","</w> into</w> the</w> ","addres","i</w> must</w> ","that's</w> ","as</w> though","see</w> the</w> ","up-stair","made</w> no</w> ","</w> with</w> my</w> ","early</w> ","when</w> they</w> ","dear","teen",";</w> how","counten","name.</w> ","a</w> man</w> of</w> ","what","hood</w> ","him,</w> ","lieu","ipp","spec",":</w> ","attend","ed</w> up</w> and</w> ","ebook","line</w> ","so</w> far","spoken","haviour","threat","</w> they</w> are","everything","may","</w> say,</w> ","ur","dor","eager</w> ","</w> literary</w> ","antic","histor","author","work</w> of</w> ","</w> be</w> ","</w> which</w> ","anticip","s</w> up",".</w> chapter</w> ","a</w> strong","knitt","usual","done,</w> ","mention","ed</w> into</w> the</w> ","condition","built</w> ","cab","comfor","depend</w> ","</w> met</w> ","cul","</w> ap","ketown","</w> gl","for</w> a</w> m","power</w> to</w> ","making</w> ","finger","evening,</w> ","isk","ular","</w> country</w> ","gloria</w> ","esc","end","franc","jump","nocent","water,</w> ","itution","ichael","not</w> the</w> ","ig","me.</w> ","succes","or</w> other","</w> a</w> po","t</w> to</w> ","--and</w> ","that</w> i</w> have</w> ","</w> th","feature","es.</w> ","-house","admire",".</w> at</w> the</w> ","those</w> ","dic","utter","consol","ru","even","ed</w> in</w> a","</w> tear","buri","anyhow","hook","over","</w> coat","because</w> the</w> ","arm","strange</w> ","excuse</w> ","es.</w> “","resolv","veil","arab","ed</w> up","dirty</w> ","trav","that</w> he</w> was</w> ","s?”</w> “","more</w> than</w> ","d,</w> and</w> ","room",",”</w> replied</w> the</w> ","gang","in'"," ","eckman","their</w> own","ederal","</w> by</w> ","caramel","ing</w> him","ed</w> through","lux","to</w> give</w> ","life","erg","full","ing</w> as</w> ","uncertain","ww","ing</w> at</w> the</w> ","ing</w> them","appointed</w> ","might</w> have</w> ","wop","</w> breakfast","human","ey</w> ","said,</w> “","mountain","told</w> him","</w> turn","inted</w> ","ue,</w> ","mississipp","visitor","also","strik","embarrass","induc",".</w> we</w> were</w> ","ild,</w> ","limited</w> ","it</w> is</w> a</w> ","an</w> instant</w> ","</w> have</w> ","sel","see</w> you","ing</w> that","</w> belong","</w> there</w> was</w> a</w> ","how","</w> if</w> ","it</w> to</w> ","des","given</w> ","ideas</w> ","floor","ourc","strain","if</w> ","enough</w> to</w> ","while,</w> ","</w> take</w> ",",</w> and</w> her</w> ",",’</w> said</w> my</w> aunt,</w> ","</w> hon","ception","carp","ed,</w> and</w> ","dom","contain","</w> acces","ild</w> ","cheerful","ess","hot","five</w> ","lie</w> ",",</w> i</w> am","</w> a</w> moment</w> ","wet</w> ","remain","</w> no","ystem","fly",";</w> and</w> the</w> ","evidence</w> ","ble</w> ","ent</w> to</w> ","</w> literary</w> archive</w> foundation","ory</w> ","s</w> it</w> ","if</w> they</w> ","</w> louis","_)","—”","civ","ed.</w> she</w> ","</w> mariann","</w> sick","phrase</w> ","snow","sed</w> the</w> ","~","blood</w> ","</w> continued</w> ","a</w> man</w> ","otel","ki","</w> thousand</w> ","cont","bli","lock","dollar","contemp","constant</w> ","ration","--not</w> ","bi","</w> peg","fight","each</w> ",".’</w> ","ex","increas","in</w> the</w> united</w> states</w> ","aff",",”</w> said</w> i,</w> “","we</w> have</w> ","stuff","angel","uri","arms</w> ","</w> length",";</w> ","he</w> ","painful","e,</w> or","bridg","a</w> great</w> deal","wonder","s.”","annoy",".”</w> “he</w> ","</w> cl","t,</w> ","to</w> be</w> ","tle</w> ","begun</w> to</w> ","</w> and</w> his</w> ","useful","nevertheless,</w> ","sup","at</w> first","</w> to</w> take</w> ","</w> with</w> these</w> ","behind</w> ","ff</w> ","discre","plex","ited</w> to</w> ","ses</w> ","i</w> c","</w> waiting</w> ","heart,</w> ","ment</w> of</w> the</w> ","president</w> ","fatig","80",",”</w> return","true,</w> ","</w> beh","chick","lower</w> ",",”</w> rejoin","waiter","</w> seen</w> ","woodhouse","ed</w> like</w> ",",--","hang","</w> to</w> be</w> ","s</w> of</w> his</w> ","lit</w> ","sister</w> ","here,</w> ","were</w> not</w> ","ouch","impres","gentleman</w> ","opportun","struction","le.</w> ","it</w> as</w> ","myster","our</w> ","outh","can’t</w> ","it</w> was</w> the</w> ","habit","shel","word,</w> ","tain","wish</w> to</w> ","</w> on","upon</w> the</w> ","pack",".</w> however","you</w> don’t</w> ","ations</w> to</w> ","it,</w> but</w> ","young</w> gentleman","change</w> of</w> ","fic","</w> what</w> the</w> ","</w> bro","ed</w> it,</w> ","it!","quarrel","ually</w> ","clearly</w> ","tow","</w> priv","near","?</w> you","it</w> is</w> ","slept</w> ","harthou","upon</w> her</w> ","part</w> of</w> this</w> ","rent</w> ","conversation","united</w> states</w> ","declin","having</w> a","missed</w> ","w","prevent","ing</w> away","e.</w> it</w> ","so</w> much","scarcely</w> ","</w> on</w> my</w> ","of</w> a</w> ","mid","we</w> cannot</w> ","so.</w> ","ed</w> to</w> have</w> ","eld</w> ","widow",",’</w> said</w> i,</w> ‘","nether","!’</w> said</w> mr.</w> ","wine</w> ","now</w> ","doubt</w> ","pend","gradgrind","?”</w> asked</w> ","</w> behind</w> ","age</w> of</w> ",".\"</w> ","eyes,</w> ","_</w> ","in</w> the</w> united</w> stat","peep","pronounc","</w> a</w> moment","ob","led</w> ","</w> dr","er</w> was</w> ","march","see,</w> ","which</w> he</w> ",",”</w> she</w> ","suspect","ers</w> of</w> ",",</w> since</w> ","ai","leam","</w> thought</w> ","ready</w> ","point</w> ","sider</w> ","had</w> not</w> been","</w> has</w> been",",”</w> i</w> said","or.</w> ","</w> gover","</w> gat","gn","liber","ath","half-","oul","arr","earnest","match","enc","</w> can’t</w> ","</w> no</w> more","</w> that</w> it</w> was</w> ","consideration","ham","ouble</w> ","im","</w> found</w> ","ord</w> ","feeling</w> ","chi","black","it</w> up","rim","self,</w> ","was</w> so</w> ","ing</w> or","in</w> a</w> few","connect",",</w> which","ared,</w> ","in</w> all</w> ","began</w> to</w> ","pant","glad</w> to</w> see</w> ","progres","with</w> a</w> p","distr","sight</w> ","avail","up</w> my</w> ","ither","serve</w> ","the</w> next</w> ","united</w> stat","ing</w> some</w> ","on</w> this</w> ","obst","grate","i</w> said","</w> water","disappoint","huck",".</w> i</w> don’t</w> ","ying</w> ","ed--","repli","</w> was</w> ","do</w> you",",</w> of</w> ","fa","ilt</w> ","attered</w> ","atient</w> ","of</w> her</w> ","there</w> was</w> a</w> ","icular","s</w> had</w> ","nel","ress</w> ","tick","ed</w> him","stryver","a</w> sec","stubb","</w> mist","</w> stead","folk","</w> down</w> the</w> ","th,</w> ","pi","ical","ing</w> some","commission","anti",".</w> his</w> ","ited</w> ",",</w> there","skir","'ve</w> got</w> ","lesson","ed</w> by</w> a</w> ","ol","ed</w> there","ing</w> what","ate</w> the</w> ","here.</w> ","judge</w> ","she</w> could</w> ","glimp","</w> property</w> ","both</w> sid","am</w> i","black</w> ","torted</w> ","desert</w> ","cart","sake</w> ","1.</w> ","</w> sp","us</w> ","</w> agre","</w> of</w> his</w> ","toler","</w> comm","ench","ray","et</w> ","ving</w> ","sat</w> ","did</w> not</w> ","country,</w> ","quir","ite</w> of</w> ","prov","</w> became</w> ","government</w> ","event","mrs.</w> sparsit,</w> ","ingly,</w> ","ident","er</w> is</w> ","mighty</w> ","newspap","ass","bo","quain","!”","dream","</w> had</w> ","</w> pock","mus","ole</w> ","him</w> to</w> ","replacement</w> ","consider","ior","in</w> an</w> ","ing</w> off</w> ","jun","press","course</w> of</w> ","wealth","bring</w> ","lonely</w> ","</w> flow","ing</w> all</w> the</w> ","exter","tt</w> ","rous","plain","ittle</w> ","considerable</w> ","</w> beg","</w> de","eat","more</w> than","take</w> the</w> ","</w> project</w> gutenberg™</w> electronic</w> work","town","hell","</w> fur","sha","you</w> _","path","less.</w> ","ment</w> of</w> ","</w> somebody</w> ","accept","</w> cor","sherlock</w> holm","havi","eek","grew","pati","</w> it</w> was</w> ","inging</w> ","</w> half</w> an</w> hour","coffe","that</w> has</w> ","luci","cop","</w> remember","ence</w> and</w> ","!\"</w> \"","congres","rif","soon</w> as</w> ","meth","a</w> fine</w> ","iently</w> ","[illustration:</w> “",".</w> when</w> the</w> ",";</w> you","imm","secre","wak","hur","pas","party</w> ","spread</w> ","agreeable</w> ","going</w> to</w> ","itali","for</w> me</w> to</w> ","advis","have",".</w> we</w> have</w> ","years,</w> ","</w> ago</w> ","shook","experi","cow","tho","air","inch","resolved</w> to</w> ","perch","</w> every</w> ","al</w> s","brea",",’</w> i","amp","greatly</w> ",",</w> but</w> it</w> ","</w> times,</w> ","</w> americ","ing</w> up</w> and</w> ","</w> he’d</w> ","</w> foo","a</w> long","ng","</w> most</w> ","you</w> ","about</w> the</w> ","to</w> his</w> ","amel","4","</w> hour","itu","expression","vag","lar","indeed,</w> ","prise</w> ","secret","said</w> to</w> ","</w> love</w> ","lip","all</w> ","her</w> s",".</w> it</w> is</w> ","</w> lov","able</w> and</w> ","ceil","i</w> have</w> been","!”</w> he</w> ","seen</w> ","next</w> day","possibil","e.</w> it</w> was</w> ","’","umb","ed</w> over</w> ","pal","pur","wif","ify</w> ","hysical","</w> him,</w> and</w> ","no</w> longer</w> ","e.</w> but</w> ","had</w> a</w> ","use</w> of</w> the</w> ","</w> str",",</w> or</w> any</w> ","</w> of</w> ","</w> to</w> keep","back</w> to</w> the</w> ",".</w> now,</w> ","abrup",":</w> but</w> ","</w> times</w> ","give</w> me</w> ","contri","left</w> ","peak","i</w> could</w> not</w> ","hill","her</w> father","road</w> ","pilot","profess","</w> tow",",</w> some</w> ","</w> mov","her</w> sister","</w> for</w> her","!</w> what","found</w> it</w> ","ice,</w> ","worn","</w> side</w> of</w> the</w> ","gro","on</w> which","make</w> ","</w> tr","dozen",",</w> you</w> must</w> ","rel","y</w> to</w> ","station","steal","ele","sad</w> ","driscoll","gh","consist","local","reput","bob","he</w> said</w> ","tradd","</w> good</w> ","ed</w> in","from</w> that","if</w> we</w> ","feet</w> ","fresh","s,</w> ","ting</w> the</w> ","op","ine</w> ","gaz","wall","ed</w> into</w> ","deliver",".</w> she</w> ","i</w> saw","awk","</w> agree</w> to</w> ","finished</w> ","th</w> ","they</w> were</w> ","article</w> ","easily</w> ","several</w> ","</w> day</w> ","when</w> ","</w> to</w> her","gard","kni","comple","</w> are","human</w> ","any</w> other","body","himself,</w> ","why,</w> ","venerable</w> ","voy","ater","ities,</w> ","noon","witch","forty-","i</w> mean","</w> a</w> b","_—","fam","one-","ocean","never</w> been","</w> difficul","queequeg","ing</w> the</w> ","ceiv","much</w> ",",</w> this</w> ","xim","road","</w> time</w> ","ed</w> in</w> the</w> ",";</w> ‘","with</w> such","proph","les</w> and</w> ","gentleman","</w> surpris","tax",",</w> and</w> was</w> ","pound","professor","life</w> and</w> ","comp","broad","i</w> had</w> ","ency</w> ","to</w> see</w> ","</w> long","rist","knightle","inger","a</w> new","y;</w> and</w> ","’r</w> dav","confirm","red</w> and</w> ","</w> her</w> father","</w> mrs.</w> ","</w> not</w> ","</w> post","</w> house","sowerber","my</w> mother","coff","raf","speech","glid","ump","</w> interrup","wo","watch","s--","apart","position","agon","</w> play","as</w> much</w> as</w> ","uck","0","my","morning.</w> ","haul","on</w> one</w> ","an</w> ac","silk","</w> diffic",",—","den","</w> electronic</w> work","frank","terms</w> of</w> this</w> agre","mr.</w> elton","eath","pet","ourn","</w> descri",",</w> looking</w> ","quirement","ub","scen","the</w> whole</w> ","</w> we</w> ","</w> from</w> ","parlour","shad","</w> to</w> see</w> ","harriet</w> ","flat","—a</w> ","pho","</w> a</w> gent","making</w> a","jur","jagg","ject</w> gutenberg","house,</w> ","refresh","</w> corn","griev","up</w> his</w> ","surround","benne","resent","a</w> hor","</w> asleep","for</w> me,</w> ","</w> us</w> ","mrs.</w> weston","ed</w> in</w> his</w> ","decided</w> ","ed","you.</w> ","omach","hesitat","?”</w> he</w> ","standing</w> ","rode</w> ","quire","</w> suffer","we</w> was</w> ","co","night","confin","wash","you</w> can","tea","says</w> ","traddle","es</w> ","repeat","</w> into</w> a</w> ","city,</w> ","sub","<","absol","thousand","s</w> to</w> the</w> ","polic",".org","thick","minut","wild","s’","</w> provid","killed</w> ","</w> quite</w> ","that</w> this</w> ","rank","have</w> a</w> ","beautiful","remind","copy</w> ","steady</w> ","</w> conf","</w> i</w> have</w> ","sy","usion","why</w> ","cut</w> ","known","</w> last</w> ","start</w> ","</w> days</w> ","an</w> individual","</w> already</w> ","but</w> a</w> ","</w> absol","as</w> his</w> ","cav","city","get</w> ","faith","</w> he</w> would</w> ","awn",".</w> it’s</w> ",".”</w> ","</w> we</w> have</w> ","leaves</w> ","!</w> my</w> ","</w> send</w> ","iness</w> ","good-by","po","uel","</w> land","simply</w> ","state</w> ","officers</w> ","numerous</w> ","sik","es","this</w> agreement","silver</w> ","hood,</w> ","you</w> know","now,</w> ","</w> and</w> un","out</w> of</w> the</w> ","clo","a</w> ","capable</w> of</w> ","quite</w> ","</w> me.</w> ","porch","donkey",",</w> you","dressed</w> ","at</w> all","aughter",".</w> if</w> ","maybe</w> ","stry","answered,</w> ","sacred</w> ","</w> cr","</w> done</w> ","itt","acy</w> ","ses.</w> ","a--","tri","in</w> a</w> very</w> ","ous,</w> and</w> ","admitt","believe</w> ","had</w> the</w> ","associated</w> with</w> the</w> ","stric","und","to</w> know","corn","...","seiz","occasion","ower","name</w> was</w> ","</w> for</w> you","</w> of</w> their","never</w> saw","</w> home</w> ","ardon","by-","middle</w> of</w> the</w> ","wind</w> ","i</w> got</w> ","peril","undred","they</w> had</w> ","nephew",".”</w> “how","</w> bear","trust","s.</w> it</w> ","smi","for</w> their","boys</w> ","instinc","diver","from</w> his</w> ","ance,</w> ","e</w> was</w> ","dragg","recommend","also</w> ","</w> man</w> ","gets</w> ","ell","when</w> she</w> ","lief</w> ","</w> further","inclination","inquire","toward</w> the</w> ","sorrow","much</w> more","partly</w> ","she’s</w> ","</w> should</w> ","to-night","it</w> be</w> ","that</w> no</w> ","</w> draw","neigh","express","lly</w> ","need</w> ","mississippi","?’","being</w> the</w> ","mc","gleam","clothe","</w> her</w> own","----------------","at","erv","at</w> the</w> same</w> time</w> ","singular","suppos","</w> her,</w> ","exp","i</w> believe</w> ","problem","phys","eyes,</w> and</w> ","in</w> their</w> ","mow","recover","that</w> is</w> ","one</w> of</w> those</w> ","mother","mile","preced","nobody</w> ","vey",",</w> even","bal","legislat",":</w> \"","firm","step","</w> star","bel","eavy</w> ","ed.</w> he</w> ","curtain","a</w> l","polish","orted</w> ","pardon","er</w> s","sl","when</w> you","</w> took","it</w> was","disclaim","ourselv","</w> references</w> to</w> ","that</w> s","gummid","mas’r</w> dav","stock",",</w> was</w> ","know</w> that","en</w> ","?”","ent</w> of</w> ",".”",",\"</w> she</w> ","far</w> from","light</w> of</w> ","i</w> shall</w> be</w> ","became</w> ","nest","each</w> other","</w> afterward",".</w> after</w> ","departure","</w> when</w> you","</w> camp","as</w> good</w> ","</w> trust</w> ","procession","that</w> p","ago</w> ","</w> hop","we</w> went</w> ","</w> for","fund","fire","command","a</w> little","anc","</w> other","under","</w> some</w> ","he,</w> ",",”</w> the</w> ",",</w> and</w> my</w> ",",</w> i’ll","s.”</w> ",";</w> that","pow","sweet</w> ","loom",",</w> and</w> said</w> ","</w> pas","in</w> the</w> united</w> states,</w> ","begin","www","</w> hate</w> ","serv","ing</w> it</w> ","ectual","eldest</w> ","peri","there</w> are","orm","rather","uture","ts,</w> ","vill","murdstone</w> ","nose</w> ","be,</w> ","hand,</w> and</w> ","what</w> they</w> ","cr",".’</w> ‘","quiet</w> ","thorough","third","</w> up","nigger","avoid","graceful","allen","must</w> be</w> ",",</w> and</w> a</w> ","started</w> ","boats</w> ","</w> have","ferrar","</w> of","gg","that</w> they</w> ","</w> pa","</w> moment</w> ","buy</w> ","neverthe","large</w> ","manuel","my</w> aunt</w> ","surprise</w> ","</w> once</w> ","utenberg","pris","studi","six","cre","proper</w> ","afford","produce</w> ","brit","</w> fort","ing.</w> ‘","hard</w> ","vily</w> ","i</w> can’t</w> ","</w> out</w> ","hor","point</w> of</w> ","ednes","risk","</w> hold</w> ","</w> is</w> a</w> ","sequ","ond</w> ","sn","stop","ance,</w> and</w> ","ay</w> ","£","</w> fir","art","iting</w> ","</w> was","in</w> these</w> ","organ","lizz","</w> free</w> ","lie","</w> away</w> ","met</w> ","stir","rote</w> ","</w> i</w> should</w> ",",”</w> bill</w> said.</w> “",".</w> in</w> ","chain","may</w> ","tion</w> of</w> ",".</w> but</w> he</w> ","</w> about</w> the</w> ","exceed","</w> harriet</w> ","</w> danc","</w> to</w> his</w> ","lorry,</w> ","ity</w> of</w> ","ed,</w> ‘","anni","plent","the</w> small","fing","they</w> are","ed</w> out</w> ","red,</w> ","ead","empt</w> ","ed</w> as</w> ","ly.</w> “","a</w> lo","pot","itut","i</w> feel","equal","out</w> the</w> ","thern","when</w> it</w> ","cru","ed</w> upon</w> ","long-","person</w> or</w> ","others.</w> ","joe</w> ","lady</w> cather","premi","this</w> ","pain","spirit","in</w> sh","?</w> what","wait","cry","do</w> you</w> ","it</w> has</w> ","</w> project</w> gutenberg","clos","kitchen","retain","</w> people</w> ","trem","running</w> ","</w> cri","bare","</w> mind","send",",</w> that","wid","ty</w> of</w> ","live</w> ","resembl","you</w> see</w> ","aston","</w> had</w> a</w> ","i.</w> ‘","with</w> its</w> ","</w> sever",";</w> which","stee","negro","go</w> on","pacific","not</w> protected</w> by</w> ","</w> my</w> aunt</w> ","you</w> must</w> ","</w> prec","ett","18","roof</w> ","our</w> own","number</w> of</w> ","push","s.</w> \"","ed</w> by</w> ","track","teach","heap","enormous</w> ","cous","—“","that</w> the</w> ","dropp","sense</w> ","</w> could</w> be</w> ","moreover","distinguish","such</w> a</w> p","pleas","rose","½","effect","must</w> ","court</w> ","com","princ","</w> would</w> ","hen","crack","stand</w> ","at</w> my</w> ","slipp","ed</w> of</w> ","idea","thrust</w> ","ra","a</w> month","letters</w> ","</w> what</w> you","inently</w> ","gone","ed</w> in</w> paragraph</w> ","pr","cough","email","chuck","und</w> ","es,</w> and</w> the</w> ","carefully</w> ","dd","ed</w> on","fetch","</w> in</w> my</w> ","uthor","clothes</w> ","ar","do</w> ","</w> heard</w> of</w> ","yes","i","!</w> ha","amiable</w> ","let</w> us</w> ","let</w> me</w> ","catch","</w> present</w> ","while","’ll</w> ","make</w> the</w> ","</w> always</w> ","away</w> ","</w> wi","s.</w> i","pill","</w> dest","vul","defar","beginning</w> to</w> ","forward</w> ","mrs.</w> gummid","contribu","chool","on</w> my</w> ","sweet","irc","anim","sist","leis","eck","ments</w> of</w> ","hes","ed</w> up</w> the</w> ","kiss</w> ","ild","</w> differ","whis","</w> doctor",",</w> i</w> had</w> ","ring","mas","saf","delic","fashion","ed</w> over</w> the</w> ","</w> heart","</w> him.</w> ","right</w> of</w> replacement</w> or</w> re",".</w> “but</w> ","</w> she</w> was</w> ","ed</w> to</w> be</w> ","i</w> had</w> been","evid","mured</w> ","</w> mann","live","clusion","elv","iss","explain","ives</w> ",".”</w> “what","an</w> air</w> of</w> ","!’</w> ‘","red",".</w> but,</w> ","drive</w> ","american","arri","ard","further","</w> read</w> ","dark</w> ","ix","look</w> at</w> the</w> ","flow","weight</w> ","</w> proper","superior","ed,</w> with",",’</w> said</w> mr.</w> ","</w> hast","ear","ide</w> ","able</w> of</w> ","perceiv","donations</w> from","quit","selv","is</w> not</w> ","s.”</w> “","ury</w> ","well-","of</w> these</w> ","instant","</w> when</w> she</w> ","absur","sp","devot","is","wise</w> ","sure</w> you","mr.</w> ","</w> clear","</w> ill","give</w> him","impossible","ability,</w> ",",</w> and</w> that","ah","rench","riv","home,</w> ","honest","ing</w> ab","went</w> to</w> ","americ","twenty</w> ","peculiar","sunday</w> ","try","</w> as</w> ","complish","guard","ori","whether","sed,</w> ","lick","”","contr","pool","sav","abe","twist","bri",".</w> that","leave</w> ","</w> forc","lantern","christ","unic","far","abo","club","breakfast</w> ","aye,</w> ","es,</w> ","iment","distingu","smell","fourth","e.</w> she</w> ","eliz","vari","emple","best","</w> moved</w> ","never</w> have</w> ","su","nex","no,</w> ","passage</w> ","</w> start","</w> hope,</w> ","olit","ising</w> ","nothing","breath","pistol","fle","direction",".”</w> “and</w> ","terror","st","it</w> would</w> be</w> ","nav","le.</w> “","</w> window","on</w> the</w> ","bodi","prid","emotion","minute</w> ","plank","mouth","grand","</w> out</w> of</w> the</w> ","oar","er.</w> “","performan","i</w> found</w> ","”</w> and</w> ","for</w> one</w> ","aid","there,</w> and</w> ","collect","</w> wh","bun","!”</w> cried</w> ","</w> ma","</w> was</w> very</w> ","viv","dinner</w> ","inu","mark","supposed</w> ","-box","an</w> un","e?","bounderby","aily</w> ",",</w> on</w> the</w> ","on.</w> ","such</w> as</w> ","</w> acquaintance</w> ","</w> satis","ate</w> of</w> ","</w> so</w> ","ed</w> back","ed</w> at</w> the</w> ",",’</w> said</w> i","now</w> i","se,</w> and</w> ","a</w> minut","s;</w> and</w> ",".</w> “what","prom","settled</w> ","</w> there</w> is</w> ","</w> called</w> ",",</w> and</w> it</w> ","were</w> the</w> ","upp","her</w> ","wait</w> ","eral",",</w> but</w> ","</w> a</w> ","</w> ten","uch","gar",".</w> h","mell","—for","</w> trad","</w> ho","oubl","--------------------------------","ute</w> ","</w> want</w> ","ph","smith","'m","mort","die</w> ","</w> me</w> ","pat","es</w> of</w> the</w> ","you’ll","row","box","repl","</w> can</w> do</w> ","sively</w> ","should",",”</w> returned</w> ","eal","!\"","will</w> you","fur","ine,</w> ","dance</w> ","move</w> ","wheel","water","iated</w> ","y.</w> she</w> ","copper","powerful","</w> your</w> p","paris","s</w> ","con","</w> back","project</w> gutenberg</w> literary</w> archive</w> foundation","gether","temp","matter","</w> me</w> to</w> ","</w> ago","societ","oph","confusion","</w> cried</w> the</w> ","went</w> out</w> ","itness</w> ","horror","attend</w> ","</w> refer","ragged</w> ","looked</w> at</w> the</w> ","</w> lay</w> ","table</w> ","raft</w> ","</w> co","i</w> do</w> ","excitement</w> ","of</w> cour","could</w> see</w> ","</w> for</w> some</w> ","sure","s_",",</w> at","highly</w> ","former</w> ","egyp","</w> and</w> then","troub","kick","put</w> his</w> ","ect</w> ","anyone</w> ","y.”</w> “","master","_that","for</w> me</w> ","here</w> ","en","mistaken","table","beat","exact","ountain","</w> because</w> ","</w> share","my</w> aunt,</w> ","could</w> not</w> have</w> ","field","</w> term","</w> steerforth","s</w> on","een</w> ","</w> sc","colour","rear","</w> to</w> me,</w> ","they</w> all","elder","esh",":</w> “","onder</w> ","</w> tak","made</w> it</w> ","was","</w> follow","nif","graph","</w> trademark","since</w> the</w> ","kind</w> ","bank","careful","visible</w> ","</w> heart</w> ","pequ","ener","that</w> there</w> was</w> ","card</w> ","ness,</w> ","few","à","not</w> a</w> ","</w> must</w> have</w> ","one","draw","e,</w> ","remark","latter","when</w> it</w> was</w> ","</w> cover","ean","wife</w> ","borne</w> ","hour","or</w> in","estell","</w> that</w> was</w> ","friend</w> ","summer","ted</w> the</w> ","s</w> in</w> a","last</w> night","f-","rising</w> ","i</w> thought</w> ","seen","there</w> was</w> no</w> ","generally</w> ","spot</w> ","sieur","suspicion",".</w> m","intell","when</w> he</w> ","fear","surpris","sir","cler","yram","ital","</w> repe","nak","</w> new","one’s</w> ","mad</w> ","stern","whose</w> ","warm","ken","out,</w> ","</w> pro","way</w> of</w> ","midd","k","morrow","found","hours</w> ","city</w> ","band","argument","come",",</w> and</w> i","picion","pray",",’</w> said</w> ","ared</w> ","money","unn","pass</w> ","or</w> of</w> ","door,</w> ","before</w> his</w> ","need","</w> ca","passeng","ament","ce","i</w> know","name","to</w> me","i</w> say</w> ","ly,</w> “","a</w> matter</w> of</w> ","sen","was</w> the</w> ","y;</w> but</w> ","steerforth","i</w> never","dian","soften","</w> with</w> you","y,</w> and</w> ","copyright</w> ","chang","the</w> sun","one</w> day</w> ",",</w> and</w> how","compan","</w> at</w> ","good","</w> cap","</w> gre","silent</w> ",".”</w> “well","paper","chillip","had,</w> ","ing</w> w","iter","cas","rest</w> of</w> the</w> ","?\"</w> she</w> ","appearance</w> of</w> ","every</w> day","admi","y’s</w> ","with</w> s","ו","work","mov","vel","pleasant</w> ","towards</w> ","sem","ate</w> and</w> ","bed,</w> ","you'll","mind,</w> ","</w> on</w> his</w> ","</w> som","e</w> of</w> a</w> ","</w> can</w> be</w> ","ᶜ","</w> what","</w> would</w> have</w> been","edom","yell","how</w> it</w> ","go</w> ","place,</w> ","</w> so</w> much","</w> like</w> ","and-","?</w> i","a</w> small","bosom","let</w> it</w> ","dan","pli","</w> fore","eman","is</w> to</w> ","twenty-five</w> ","with</w> which","harri","pect","laugh","randall","</w> can</w> you","’s</w> ","),</w> you","being</w> ","ument","tire","avo","it;","forty</w> ","pa","sam","fav","the</w> doctor","house","iz","</w> lin","agnes,</w> ","ed</w> upon","plainly</w> ","</w> stor","consequ","tradition","we</w> must</w> ","atmos","ject</w> ","just</w> ","which</w> she</w> ","off,</w> ","</w> look","ise</w> ",".</w> well,</w> ","elo",")","chiefly</w> ","united</w> ","compos","eff","</w> agree</w> ","to</w> the</w> ","alth","</w> sin","carri",";</w> yet</w> ","aun","onic","to</w> take</w> ","e,</w> he</w> ","lief",",</w> that</w> he</w> ","s,</w> and</w> ","!</w> oh,</w> ","almost</w> ","lines","</w> a</w> large</w> ","description","</w> sat</w> ","10","</w> when</w> the</w> ","</w> sha","delightful","ing</w> ","reg","immediat","terr","--but</w> ","name,</w> ","naturally</w> ","an</w> ex","</w> discover","ious,</w> ","ost</w> ","well,</w> ","or</w> two</w> ","in</w> a</w> s","well</w> as</w> ","</w> of</w> them","what</w> she</w> ","swell","transp","stephen","pg","whit","ers</w> ","posed</w> ","del","third</w> ","handker","waiting</w> ","i</w> want</w> to</w> ","waistcoat","</w> my</w> own","</w> thank","manner","</w> you</w> ","love,</w> ","s</w> a</w> ","more</w> ","</w> my","day,</w> and</w> ","excur","</w> all</w> the</w> ","gone,</w> ","</w> many</w> ","proportion","congrat",",”</w> jack","which</w> i","ing</w> in</w> his</w> ","chan","us</w> of</w> ","shin","romer","and","imagination","</w> thr","ridic","yard</w> ","hension","from</w> this</w> ","ease","while</w> the</w> ","took</w> ","</w> we","consci","lov","</w> and</w> a</w> ","ed</w> that",",</w> and</w> he</w> ","</w> their</w> ","..","manag","before</w> i","meant","confid","hand,</w> ","silver","bennet","dem","ine.</w> ","noble","he</w> is</w> ","</w> remark","</w> close</w> ","fe","zen","undoub","</w> der","satisfaction","et</w> and</w> ","mysterious</w> ","ong","</w> i</w> knew","ought</w> to</w> have</w> ","sip","ate,</w> and</w> ","legal</w> fe","sim","admiration","ote</w> ","eries</w> of</w> ","</w> admir","announc","</w> gone</w> ","that</w> is","ock","ric","?’</w> ","</w> inform","consider</w> ","encoun","invari","to</w> have</w> ","</w> or</w> two</w> ",",</w> and</w> had</w> ",",</w> and</w> they</w> ","cession","wouldn't</w> ","about</w> him","ing</w> about</w> the</w> ","s—","lake</w> ","ju","leather","</w> dire","roof","</w> pursu","</w> a</w> t","</w> received</w> the</w> work","ently</w> ","wear",".”</w> “well,</w> ",",</w> is</w> ","captain","centre","ively</w> ",".</w> i</w> know","par","ed</w> her</w> ","it</w> is","comm","quired</w> ","rick","er</w> than</w> the</w> ","better</w> ","inn","</w> conv","</w> pres","costs</w> and</w> expenses,</w> including</w> legal</w> fe","</w> away","subject","can</w> be</w> ","guard</w> ","ing</w> st","</w> him</w> ",".</w> not</w> ","</w> with</w> him","round</w> ","he</w> could</w> ","reason","cried</w> ","”—","</w> afraid</w> ","what's</w> ","stuck",",</w> ma’am","</w> all</w> that","</w> therefore","</w> didn’t</w> ","'t","2.</w> ","posses","i</w> say",".</w> “",".</w> but</w> the</w> ","</w> histor",",)","that</w> they</w> were</w> ","</w> we</w> are","sever","with</w> her</w> ","alic","ces","foot</w> ","seldom","_that_","join","persuad","abel",",</w> ","looks</w> ","_you_","</w> dom","s.</w> it</w> was</w> ","ollar","</w> street","cons","my</w> friend","</w> it","oun","rail","short","makes</w> ","destin","their","oli","weak","embr","ak","lott","dawn","afraid</w> ","boy","_,</w> ","that</w> my</w> ","enter","jac","ors</w> ","seated</w> ","</w> two</w> or</w> three</w> ","perplex","ag","foundation’s</w> ","</w> weak","day","even</w> ","</w> a</w> sh","measure","</w> has</w> ","fortune</w> ","</w> at</w> his</w> ","ument</w> ","</w> hur","ned</w> ","e’s</w> ","jor","af","curren","difference</w> ","indulg","ro","gat","s;</w> but</w> ","ed</w> without</w> ","dest","aim","or</w> ","le</w> of</w> the</w> ","y</w> was</w> ","orror","</w> don’t</w> ","ed</w> a</w> little</w> ","reading</w> ","refund</w> ","ing—",",”</w> said</w> he,</w> “","ed</w> our","load","rog","myself","in</w> love</w> ","es</w> of</w> ","receiv","order</w> ","ladies</w> ","itation","</w> alice</w> ","wrapp","ark","ordin","lessly</w> ","</w> would</w> not</w> ","</w> comes</w> ","s</w> the</w> ","in</w> their","reached</w> the</w> ","avoid</w> ","was</w> not</w> ","flatter","</w> hang","down","</w> med","top","oral","s</w> at</w> ","edge</w> of</w> the</w> ","that</w> it</w> was</w> ","minutes</w> ","ane","servic","intim","craz","frag","</w> www","</w> sorr","yes,</w> ",".]","anybody</w> ","chos","it;</w> and</w> ","said,</w> ‘","hunter","used</w> to</w> be</w> ","ghost","vanish","imen","ou","better</w> than","?</w> but</w> ","ounder","aside</w> ","</w> happen","arp","ness</w> to</w> ","</w> w","</w> young","orrow","</w> know","frank</w> churchill","</w> paragraph","forman","in</w> those</w> ","on</w> ","replied</w> ","vious</w> ","explan","?”</w> “no","—”</w> “","pol","anger","atter</w> ","moment","</w> l","</w> of</w> my</w> ","duke</w> ","</w> del","alf-","en’t</w> ","obliged</w> to</w> ","</w> hand</w> ","ing.</w> i","</w> written</w> ","shop","</w> under","aut","perfect</w> ","uniform","</w> hom","bil","paragraph","ove</w> ","rap","ult</w> ","number","it</w> all","going</w> on","extreme</w> ","s</w> by</w> ","in</w> the</w> ","</w> such</w> an</w> ","that</w> it</w> ","usk","morn","majest","by</w> a</w> ",",</w> and</w> we</w> ","lodg","just</w> as</w> ","ford","equip","looked</w> at</w> ","duty</w> ","ortal","ent</w> ","dining-room","gentlemen","ver","</w> it.</w> ","</w> fire","wich","sikes</w> ","inter","afterwards</w> ","ption",";</w> nor","un","ism","the</w> same</w> ","</w> mean</w> ","been","conclud","dinn","compre","ec","expected</w> ","owerber","remember","lat","“","side,</w> ","have</w> been</w> ","a</w> couple</w> of</w> ","member","bas","</w> at</w> last</w> ","protect","no</w> doub","</w> aw","ο","</w> though","imilar","cell","set</w> forth</w> in</w> paragraph</w> ","ards</w> ","</w> first</w> ","</w> i</w> am","end</w> of</w> ","ic","short</w> ","prud","</w> wear",":—","blank","</w> my</w> mother","uno","crit","iest</w> ","project</w> gutenberg</w> ebook","</w> whatever</w> ","22","none</w> ","kind","’s</w> s","ooth","stick","unfortunate</w> ","</w> suggest","put</w> the</w> ","glance</w> ","ess</w> ","meat","_her",".</w> the</w> ","moving</w> ","ull","status</w> ","him",";</w> he</w> ","</w> these</w> ","</w> plac","utting</w> ","str","</w> prov","in</w> any</w> way</w> ","approach","o'clock","advanc","lived</w> ","ellow","a</w> week","button","!—","to</w> mr.</w> ","must</w> have</w> ","</w> said","of</w> this</w> ","less","uggl","nothing</w> more","!--","would</w> have</w> been","talk","ship","empl","crim","</w> reg","</w> had","directed</w> ","ire","rare",",</w> i</w> was</w> ","6","err","wander","mong","event</w> ","she</w> is</w> ","les","ed</w> to</w> his</w> ","there's</w> ","samuel","dearest</w> ","es</w> had</w> ","8","rest","shak","surpri","</w> way","haw","chief","</w> from</w> his</w> ","sof",".</w> “i","then,</w> ","brother","performanc","—the</w> ","aught","</w> until","ed</w> up,</w> ","ance</w> of</w> ","espec","now</w> and</w> then","passengers</w> ","e.","distributed</w> ","quee","matter</w> ","</w> worth","ii.</w> ","feel","es--","a</w> gentleman","common</w> ","so</w> he</w> ","ard,</w> ","er</w> in</w> the</w> ","deal","dres","</w> hard","a</w> lot</w> of</w> ","ang","fron",";</w> and</w> ","i'll","opportunity</w> of</w> ","betse","to</w> him","influ",",</w> includ","day</w> before","regular","</w> perhaps</w> ","ine","commenc","opened</w> ","a</w> moment","distres","girl",".'</w> '","mars</w> ",",</w> to</w> be</w> ","tim","i,</w> ","vague</w> ","coketown","fever","truly</w> ","terms</w> of</w> this</w> agreement",".</w> it</w> ","ing</w> down</w> the</w> ","we</w> got</w> ","etition","mrs.</w> elton","small","her</w> h","eight","stopp","lest</w> ","bulk","colonel","</w> wish</w> to</w> ","charge</w> ","</w> doc","genu","ous</w> and</w> ","</w> car","-in-law","s</w> in","shap","iterary</w> ","mann","omen","eleph","time</w> of</w> ","travell","thought</w> it</w> ","</w> girl","own</w> ","scar","</w> for</w> the</w> ","+","y,</w> “","hurri","si","crowd</w> ","storm","reckon","burg","il","</w> gr","le-","time,</w> ",".</w> there",".\"</w> he</w> ","when</w> i</w> was</w> ","eld","appeared","led</w> the</w> ","way.</w> ","</w> for</w> him","kins</w> ","melancholy</w> ","ind</w> ","heat","collar","name</w> of</w> ","ets</w> ","</w> a</w> lo","french","on</w> your","</w> spo","handkerchief","ret","copy,</w> ","</w> m","y—","_is_",";</w> and</w> he</w> ","afraid</w> of</w> ","</w> about</w> ","circumstances</w> ","revol","n’t","</w> plea","in,</w> and</w> ","come</w> and</w> ",",”</w> he</w> said","court","er</w> and</w> ","ing-","ese</w> ","</w> p","</w> dear","accomplish","eers</w> ","</w> mind</w> ","prev","siv",".</w> they</w> ","artic","man.</w> ","natural</w> ","dain","</w> than</w> ","she","—","ead</w> ","upon</w> his</w> ","</w> fanc","a</w> d","hope</w> of</w> ","</w> gu","i</w> beg","gloom","ately</w> ","gray</w> ","poin","ed.</w> i","an</w> app","hide</w> ","ed</w> with</w> ","</w> ch","</w> say</w> ","agree</w> ","ouri","to</w> get</w> ","ugg","able","utely</w> ","bore",";</w> while</w> ",".—","ashion","lies</w> ","owl","stonish","rest</w> of</w> ","it</w> warn’t</w> ","trap","</w> hy","employe","y</w> and</w> ","y.</w> “","come</w> on","ool",",”</w> said</w> i","?--","!”</w> and</w> ","or</w> the</w> ","information</w> about</w> the</w> ","</w> i</w> had</w> ","great</w> ","cep","</w> something</w> ","repeated</w> ","length","piece</w> of</w> ","marianne,</w> ","attr","he's</w> ","delay","ing</w> on</w> ","</w> to</w> think","joe,</w> ","doz","</w> believe</w> ","jest","i</w> don't</w> ",",</w> as</w> if</w> ","bless</w> ","les.</w> ","beach","woman</w> ","new</w> ",",</w> but</w> the</w> ","is</w> a</w> ","ais","test","eternal","</w> walked</w> ","tr","itive</w> ","future","collection","addition","extremely</w> ","from</w> her","joy","did</w> he</w> ","any</w> work","le</w> was</w> ","oup","drif","</w> in</w> her</w> ","</w> began","</w> could</w> have</w> ","</w> book","glanc","peech","</w> such</w> a","’n","ily</w> ","london",";</w> so</w> ","he</w> would</w> ","doubt","_","</w> there</w> are","hair","bourn","</w> strange</w> ","rough","berg","repe","</w> if</w> you","ip","les,</w> ","per","oler","</w> haven","right</w> to</w> ","entreat","!”</w> she</w> ","flask","</w> is","volunteer","keleton","or</w> not","zurito</w> ","one</w> ","</w> little</w> ","</w> mar","after</w> the</w> ","good</w> ","</w> af","bs","unted</w> ","back</w> of</w> the</w> ","that.</w> ","began","</w> from</w> the</w> ",",</w> and,</w> ","for</w> them","t.</w> ","yn","absolutely</w> ","t,</w> the</w> ","oliver,</w> ","in</w> them","distinct</w> ","down</w> in</w> the</w> ","ous",",</w> my</w> dear","still</w> more","servant","</w> majest","dec","miss","old</w> ","'t</w> ","</w> dollar","project</w> gutenberg™</w> electronic</w> work","</w> pain","</w> sus","commod","mall</w> ","to</w> a</w> ","pom","kn","sibil","added</w> ","ways</w> ","ness</w> of</w> the</w> ","mud","ba","clam","”</w> ","some</w> of</w> the</w> ","</w> in</w> which","exces",",</w> and</w> with","</w> john","</w> enough</w> to</w> ","return","uriah","ed</w> to</w> find</w> ","ling","imag","alway","e,</w> the</w> ","immed","jonah","aded</w> ","cern","sud","vessel","ake,</w> ","defective</w> ","in</w> which","</w> such</w> ","it—","?'</w> '","ice-","if</w> he</w> ","view","neighbor","cabin","</w> wha","rop","ed</w> her","od","could</w> be</w> ","ans","side,</w> and</w> ","i</w> were</w> ","</w> account</w> of</w> ","inal","did</w> you","too,</w> ","be</w> ","</w> time,</w> ","actually</w> ","in</w> her","it","could</w> not</w> ","combin","ut</w> ","check","</w> must","came</w> to</w> the</w> ","sty","</w> laugh","</w> ac","sharp","pri","below","invitation","</w> ple","i</w> f","s:</w> “","exception","deck","would</w> be</w> ","ever</w> seen","lid","my</w> aunt","strong","</w> happines","nut","become</w> ","“‘","oppos","</w> large</w> ","te</w> ","</w> lad",",”</w> said</w> she,</w> “","o","island","strike</w> ","every</w> thing</w> ","}","sin","-room","lunch","million","</w> conn","any","ef</w> ","grav","display","odd","followed</w> ","thunder",";</w> but</w> she</w> ","</w> stay</w> ","busines","simple</w> ","between</w> them","</w> to</w> her</w> ","equally</w> ","pres","edly</w> ","dam","drunk","education","ts</w> of</w> ","ty.</w> ","receip","ings,</w> and</w> ",".</w> he</w> has</w> ","</w> he</w> had</w> been","happines","</w> tom","next</w> day</w> ","excited</w> ","</w> crow","</w> i</w> can","never</w> see</w> ","desired</w> ","conceiv","ma’am","</w> her</w> ","forgotten","jaw","ition","sigh","season","list</w> ","onc","</w> tran","law","e;","stud",".”</w> we</w> ","off","completely</w> ","sufficient</w> ","tongu","igneur","</w> that</w> they</w> ","ing</w> away</w> ","whatever</w> ","istr","no</w> long","about","receive</w> ",",</w> my</w> ","not</w> only</w> ","says:</w> “","quarter","dign","th</w> of</w> ","ceive</w> ","endeavoured</w> ","and</w> there","down</w> on</w> the</w> ","death",".</w> no</w> ","</w> him</w> to</w> ",",</w> indeed,</w> ","es—","prepared</w> ","years.</w> ","</w> whose</w> ","</w> will</w> ","y.</w> he</w> ","to</w> be","ardit","william","er</w> of</w> the</w> project</w> gutenberg™</w> trademark","life</w> ","</w> comp","utter</w> ","</w> pow","looking</w> at",",</w> sir","suddenly</w> ","oy","an</w> inter","</w> whit","thumb","inquiri","to</w> them","slow","i</w> do","uten","har","handsome</w> ","ing</w> after","dread</w> ","</w> stock","estim",",</w> except</w> ","ed.</w> it</w> was</w> ","assur","incident","</w> a</w> while</w> ","with</w> an</w> ","'s</w> ","</w> dem","ried</w> ","and</w> the</w> ","ink","non","…","ance","spend</w> ","craf","mess","che","ed</w> that</w> ","</w> world","eyebrow","expl","</w> her","j","</w> dark","voice</w> ","that</w> would</w> ","steel","research","deserv","sight","a</w> ch",",</w> how","dix","at</w> last","</w> consci","liz","bedroom","from</w> my</w> ","some</w> ","ant</w> ","ation</w> of</w> ","anthon","ome</w> ",",</w> in</w> the</w> ","ain’t</w> ","</w> a</w> st","distinc","and</w> his</w> ","mission","spe","s’s</w> ","bury</w> ","atch","es</w> are","reveal","ed</w> me,</w> ","lift</w> ","bus","es</w> and</w> ","e,</w> “","secon",",\"</w> said</w> ","ness.</w> ","convic","custom","remain</w> ","vell",".</w> he</w> ","nevad","</w> come</w> ","sense</w> of</w> ","</w> month","</w> por","ing</w> among","s!</w> ","n","associat","meas","ings</w> of</w> the</w> ","</w> cer","project</w> gutenberg™</w> trademark",",’</w> he</w> ","willough","pocket","treat","tang","const","ential","</w> time</w> to</w> ","schem","he</w> was</w> not</w> ","bend","this</w> ebook","bath",",</w> after</w> ","</w> too</w> ","ort","ly</w> and</w> ","</w> we</w> had</w> ","the</w> m","port","blood","aint</w> ","</w> a</w> few","grap","exceedingly</w> ","</w> a</w> gre","a</w> w","″","allow","oured</w> ",";</w> “and</w> ",",’</w> ","vad","hat","faces</w> ","ed,</w> as</w> ","went</w> to</w> the</w> ","</w> dis","lour","only</w> one</w> ","aught</w> ","ed</w> with","children","5","</w> manner","glow","atic","</w> donations</w> ","ulp","my</w> dear</w> ","ence</w> of</w> the</w> ","against</w> the</w> ","ies","last","sex","grow","</w> full","union","straight","asc","time.</w> ","aunt,</w> ","child,</w> ","ection</w> ","‘","mo","ust</w> ","stat","who","ings,</w> ","</w> don","search","from</w> any</w> ","</w> lost</w> ","</w> thus</w> ","stopped</w> ","blacksmith","es,</w> and</w> ","precious</w> ","umble","it</w> in</w> ","derivative</w> ","iece</w> of</w> ","</w> giv","partial","public","bother","me","ris","broke</w> ","i</w> wouldn’t</w> ",",</w> as</w> he</w> ","god","rev","7.</w> ","s,</w> was</w> ","</w> myself</w> ","selves</w> ",",</w> and</w> the</w> ","add","ed</w> them","jane</w> ","vi","far</w> as</w> ","irl","case</w> ","slight","</w> all","do</w> not</w> ","already</w> ","</w> again</w> ","quick","-like</w> ","s</w> in</w> compliance</w> ","please","ref","lord</w> ","eful","the</w> wall","ee","towards</w> the</w> ","ye</w> ","don’t</w> you","age</w> and</w> ","us</w> and</w> ","a</w> t","certainly</w> ","acious</w> ","evil","</w> broke</w> ","available</w> ","sion","only</w> be</w> ","</w> sorry</w> ","endous</w> ","</w> drew","ated</w> ","epar","lew","check</w> the</w> ","</w> is</w> the</w> ","robber","sor","of</w> her","fat","icture","burning</w> ","entr","mine</w> ","bounderby</w> ","mel","ancholy</w> ","</w> creating</w> ","ing</w> in","her,</w> and</w> ","marriage</w> ","attain",",</w> who</w> was</w> ","exclaimed</w> ","hu","instantly</w> ",".</w> miss</w> ","exc","ul","project</w> gutenberg™</w> electronic</w> works</w> ","s.\"</w> \"",",</w> en","faint","turned</w> ","guid","handsom","</w> the","def","s</w> to</w> be</w> ","husband","le</w> ","respectable</w> ",",</w> too","an’t</w> ","i</w> should</w> ","ay","</w> in","moved</w> ","</w> american","past","word","afé","to-morrow","mi","educ","spok","30","screw","no</w> ","leep",".’","bed</w> ","iev","ing</w> at</w> ","),</w> ","copyright</w> law","arrival","atter","</w> alter","breast","-head","e.</w> he</w> ","oub","ence","ved</w> ","wood</w> ","solemn","her</w> to</w> ","aren","nap","place.</w> ","</w> ben","earth","wanted</w> ","</w> a</w> str","thank</w> you","above</w> the</w> ","that</w> made</w> ","fund</w> of</w> ","new","ly,</w> ","n’t</w> ","ed</w> us</w> ","you</w> are","</w> figure","reflec","</w> soldi","george</w> ","vest","hat</w> ","coo",",</w> i</w> am</w> sure","lately</w> ","</w> seat","its</w> own","might</w> ","various</w> ","to</w> look","happ","ment,</w> and</w> ","alm","able,</w> and</w> ","-in-","themselv","</w> deal","look</w> at","exactly</w> ","irr","</w> couldn’t</w> ","orts</w> of</w> ","it.”</w> “","--------","at</w> the</w> same</w> ","enem","thoroughly</w> ","ction","</w> party</w> ","</w> hear","</w> then","trademark","</w> miles</w> ","ater,</w> ","pequod</w> ","liter","blue</w> ","couldn’t</w> ","ing</w> a</w> little</w> ","tract","possible","ened</w> ","et</w> of</w> ","</w> marianne</w> ","ates</w> ","t","dispos",".</w> i</w> thought</w> ","</w> spirits</w> ","clas","point","furn","answ","miles</w> ","peggotty,</w> ","nal","if</w> you","altogether","arrang","afore","likely</w> to</w> ","fectly</w> ","in.</w> ","believ","in</w> a</w> little</w> ","destruction","i</w> w","the</w> project</w> gutenberg™","ulated</w> ","</w> assoc","</w> wilson","</w> where</w> the</w> ","start","barr","anted</w> ","</w> t","as</w> we</w> ","outer</w> ","</w> one</w> ","ut","bright</w> ","young</w> woman","</w> its</w> ","ation,</w> ","rill","tried</w> to</w> ","t’","attention</w> to</w> ","fect","edition","lou","</w> in</w> a</w> c","yph","rox","but</w> the</w> ","s,</w> ‘","</w> for</w> it","snatch","them,</w> ","s.</w> ","</w> to","larg","ed</w> together","considered</w> ","daily</w> ","in</w> h","ies,</w> ","uneas","lo","</w> who","igh","looking</w> up","inv","</w> mind,</w> ","dri","myself</w> ","s</w> me</w> ","ident</w> ","ry,</w> ","ventured</w> ","etr","colonel</w> brandon","ens","s</w> and</w> the</w> ","erve</w> ","pose.</w> ","uncle","ith","disposition","empty</w> ","you</w> are</w> not</w> ","took","</w> work","ence</w> of</w> ","send</w> ","reck","s</w> like</w> ","while</w> he</w> ","russi","don’t</w> ","ive</w> ","able</w> to</w> ","high","</w> get</w> ","ousand","</w> mill","at</w> s","rust","flag","audi","</w> den","hurt</w> ","but</w> he</w> ","s</w> of</w> a</w> ","rose,</w> ","t</w> of</w> ","have</w> ","ity</w> and</w> ","shire","ia</w> ","daughter</w> ","in</w> accordance</w> ","</w> strength","non-","violently</w> ","started</w> to</w> ","em’",",</w> as</w> she</w> ","love</w> ","</w> orlean","ing</w> a</w> ",",</w> who</w> ","mrs.</w> jenn","saying,</w> ","uter</w> ","population","happy</w> to</w> ","scrup","ances</w> ","moon","when</w> we</w> ","when</w> i</w> ","sive</w> ","rom","æ","a</w> and</w> ","polit","</w> could</w> not</w> ","stone</w> ","s.</w> they</w> ","scri","note</w> ","sense","ated</w> the</w> ","lively</w> ","ry</w> ","a</w> single</w> ","beam","ers,</w> and</w> ","ople","scr","regard","come</w> in","assistance</w> ","with</w> all</w> the</w> ","a</w> word",",</w> as</w> ","ing</w> at","spirits</w> ","ave</w> ","bl","mariann","lorry</w> ","indi","bos","ely.</w> ","execut","pre","jug","refer",".”</w> “oh","ç","with</w> great","orrup","shut</w> ","effect</w> ","cross","he</w> has</w> ","chem","</w> cour","</w> ph","s,</w> which","</w> the</w> same</w> ","eager","</w> dog","life,</w> ","bir","ferred</w> ","ew","ac","hand</w> ","to</w> the</w> project</w> gutenberg</w> literary</w> archive</w> foundation","</w> public","</w> grow","to</w> speak","sand","</w> a</w> gl","caus","urious</w> ","cluding</w> ","again</w> ","rush","citizen","conceal","fem","house,</w> and</w> ","post</w> ","us,</w> ","murdst","ord","following</w> ","to</w> come</w> ","jok","brush","y's</w> ","cause</w> ","want</w> ","</w> men","it;</w> but</w> ","hundred</w> and</w> ","provid","convers","</w> picture","that</w> he</w> would</w> ","piti","ח","thir","ov","es.</w> i","lady,</w> ","as","leav","’r","remember</w> ",";</w> it</w> ","</w> wind","</w> dick","</w> there</w> was</w> no</w> ","there</w> was</w> ","is</w> this</w> ","gone</w> ","here’s</w> ","that</w> one</w> ","ed,</w> ","protest","strongly</w> ","clerg",".\"","asked</w> me</w> ","ison","to</w> tell","</w> says:</w> “","burst</w> ","month","fal","</w> place</w> ","lor","ros","a</w> high","no</w> longer","</w> his</w> own","ed;</w> but</w> ","der","scribe</w> ",",</w> it</w> was</w> ","donate.</w> ","including</w> ","anxiety</w> ","bab","after","gent","lives</w> ","it,</w> and</w> ","face</w> ","emmick","awful","</w> churchill","let","</w> gave</w> ","smoke</w> ","ing</w> with</w> his</w> ","</w> associat","old</w> gentleman","lim","e;</w> and</w> ","_i","quant","</w> william","fami","suppose</w> ","#","mis","funeral","immen","of</w> their","shaking</w> his</w> ","lay</w> ","cathedr","ing</w> it</w> to</w> ","cros","sent","ely</w> ","imp","</w> to</w> me","nothing</w> but</w> ","chamber","i</w> never</w> ","al</w> and</w> ","beg","lav","ive</w> foundation","ple","ically</w> ","trad","ngth","hol","</w> towards</w> ","i’ve</w> ","</w> lu","ed</w> me</w> ","job","sing</w> ","trying</w> to</w> ","in</w> its</w> ","it.</w> he</w> ","kitt","oulder","offer","</w> sat","horse","he</w> had</w> ","ken</w> ","compassion","picture","rack","rew","ry","brow","cely</w> ","ree</w> ","</w> herself</w> ","</w> deep","days</w> ","jord","rejoin",".</w> there</w> is</w> ","keep","gott","caught</w> ","ing</w> on",".\"</w> the</w> ","indow","amen","</w> tre","lieve</w> ","bid</w> ","ame</w> ","cordance</w> ","can't</w> ","encil","follow","</w> alone</w> ","y;</w> ","er,</w> ","wig","found</w> at</w> the</w> ","when</w> i</w> had</w> ","eld,</w> ","attachment</w> ","island</w> ","</w> this</w> ","case","tse","ϰ","such</w> a</w> s","i</w> made</w> ","upper","plung","country.</w> ","vers","fin","youth","ing</w> with","always</w> ","not</w> protected</w> by</w> u.s.</w> ","upon</w> her","a</w> woman","for</w> a</w> ","much</w> as</w> ","t</w> ","bear","dear</w> ","blind","</w> bad</w> ","equ","carried</w> ","wil","maid","</w> i","to</w> whom","ies.</w> ","ς","wis","dashwood</w> ","just</w> now","something</w> ","window","in</w> that","s</w> as</w> ","block","est</w> ","origin","</w> bed","bad</w> ","on</w> earth","/","it</w> ","</w> tell","te","render","licen",".jpg</w> (","age","sman","lan","time</w> ",".”</w> so</w> ","some</w> one</w> ","use</w> of</w> ","az","ah!","a's</w> ","s.--","immediately</w> ","you</w> to</w> ","in</w> ac","suit</w> ","breakfast","appearance</w> ","</w> wor","eav","</w> hand","</w> a</w> man","sat</w> down","as</w> they</w> ","fl","egg","glad","talk</w> about</w> ","during</w> ","fort","shock","ain","tex","at</w> onc","use</w> to</w> ","nervous</w> ","met","legis","</w> to</w> go</w> ","looked</w> at","whatever","bust","ired</w> ",".\"</w> \"","light","a</w> moment</w> ","lead","liqu","</w> a</w> great</w> deal","</w> whether","body.</w> ","as</w> if</w> ","lower","wha","rep","notwith","store","magnific","rigg","eg","night</w> and</w> ","going</w> ","their</w> s","every</w> ","ancho","leton",",</w> i</w> saw","christian",".”</w> “oh,</w> ","people</w> ","came</w> in","ef","equipment.</w> ","king","s</w> for","wilder","</w> state</w> of</w> ","ort</w> ","</w> glori","eam","eption","shook</w> his</w> ","other</w> ","any</w> more","ing</w> that</w> ","inc","</w> inst","</w> c","cloth","</w> stop","crupp","to-","a</w> was</w> ","couldn't</w> ","toward</w> ","man,</w> ","ing</w> it,</w> ","are</w> not</w> ","</w> merely</w> ","a</w> year","</w> as</w> soon</w> as</w> ","dig","madame</w> defar","expression</w> of</w> ","mass","arily</w> ","wa","prisoner","plend","ed</w> from</w> his</w> ",".</w> it</w> was</w> ","!”</w> said</w> ","pract","on,</w> and</w> ","</w> honour","</w> he</w> was</w> ","major","ther","isper","ing</w> you","monk","steamboat","</w> didn't</w> ","----","gr","ich","</w> does</w> ","when","ince</w> ","</w> ebook","music","posed","cleared</w> ","but","cannot</w> ","kind</w> of</w> ","i</w> would</w> ","ighty</w> ","ferr","for</w> i","her</w> head</w> ","se</w> and</w> ","</w> looked</w> ","</w> delic","</w> to-morrow","hn","smile","seen</w> the</w> ","ect","that","communic","clud","u.","e?”</w> “","urb","lose</w> ","married</w> ","gather","let</w> ","this</w> was</w> ","i</w> knew","you</w> and</w> ","s</w> that</w> were</w> ","wife,</w> ","n't</w> ","ified</w> ","estella","ound</w> ","ences</w> ","satisf","</w> happ","ing,</w> i","</w> to</w> this</w> ","</w> f",".</w> i</w> had</w> ","ed</w> for</w> the</w> ","barkis",",</w> nor","what</w> was</w> ","located</w> ","ment</w> and</w> ","ly</w> with","bottle</w> ","alread","le</w> and</w> ","ing</w> to</w> ","that</w> i</w> had</w> ","ason","at</w> once</w> ","-ho","in</w> a</w> ","</w> of</w> her","</w> both","ser","river</w> ","</w> while</w> ","ing</w> to</w> his</w> ","</w> reach","o,</w> ","temper","</w> he</w> could</w> ","er</w> than","level","trans","breast</w> ","</w> god","arrying</w> ","cost","represent","jan","alarm","</w> that</w> i","fre","it</w> will</w> be</w> ","napole","</w> di","extre","turned</w> to</w> ","ing</w> up</w> the</w> ","!</w> the</w> ","noah",",</w> he</w> had</w> ","</w> said</w> ","breez","</w> a</w> lot</w> of</w> ","</w> are</w> you","bul","le","boy,</w> ","trees</w> ","content","decl","growing</w> ","ient","ii","thusi","leave</w> the</w> ","!</w> “","s</w> and</w> expenses,</w> including</w> legal</w> fe","of</w> the</w> ","flu","</w> mon","struc","</w> fam","taken</w> ","ly</w> to</w> ","marry</w> ",";</w> “","ug","ing</w> my</w> ","what</w> is</w> ","domestic","would</w> you","voyage</w> ","by","</w> what</w> ","ities</w> of</w> ","ik","</w> go",".</w> after","12","gged</w> ","make</w> it</w> ","your</w> sister","resolution","e.</w> \"","iti","a</w> dozen","</w> into</w> ","d","ght","where</w> the</w> ","along</w> the</w> ","</w> don’t</w> know","finger</w> ","ection","gall",";","cat","y?”</w> “","</w> of</w> her</w> ","ends</w> ","the</w> sam","ing</w> again","</w> des","could</w> not</w> be</w> ","hist","</w> above</w> ","s</w> than","distribut","and</w> ","born","what</w> he</w> ","ities</w> ",".</w> “i’m","</w> comple","acros","lack",",’</w> she</w> ","destroy","well</w> ","famil","atis","broken","relief</w> ","?</w> “","--a</w> ","</w> which</w> the</w> ","bright","john","back</w> to</w> ","e</w> of</w> my</w> ","bre","by</w> this</w> time</w> ","less</w> ","over</w> ","ing.</w> ","bark","ge,</w> ","in</w> our","electronic","shadow","wake</w> ","portion","that</w> ","-stair","levi","uc","states</w> ","out</w> of</w> ","id</w> the</w> ","ust","countr","probably</w> ","there.</w> ","</w> when</w> ","</w> and</w> dis","heard</w> ","</w> it</w> ","ing</w> on</w> the</w> ","</w> white</w> ","jpg</w> (","another","but,</w> ","tern","heart</w> ","</w> will</w> be</w> ","dir","tall","had</w> ","bingley</w> ","self-","occasionally</w> ",",\"</w> he</w> said</w> ","enough</w> for","the</w> way</w> ","echo","</w> treat","connection","wer","</w> our","ing</w> to</w> be</w> ","</w> sk","imple</w> ","ce</w> of</w> ","shark","</w> that</w> he</w> was</w> ","light</w> ","donations</w> to</w> the</w> project</w> gutenberg</w> literary</w> archive</w> foundation","</w> accep","demand","stay","myself,</w> ","i</w> reckon","lik","gu","?”</w> ask","'d</w> ",".</w> she</w> was</w> ","bro","remaining</w> ","</w> this,</w> ","hand","</w> or</w> ","</w> watch","ater</w> ","immense</w> ","during</w> the</w> ","ing</w> into</w> ","ind","keen","viol","nodd","in</w> to</w> ","</w> gent","of</w> ","ed</w> down","blo","ush",",</w> and</w> she</w> ","a</w> thousand</w> ","!”</w> “","knowledg","year","ly.</w> ","</w> pur","ation.</w> ","sell","her</w> own","chin","out,</w> and</w> ","wine-","with</w> him","ing</w> her","</w> tradd","new</w> ebook","sul","walked</w> ","heel","straight</w> ","ore","answer","pair","ant</w> and</w> ","flam",".</w> a</w> ","wilson","years</w> old","ight</w> ","thered</w> ","</w> husband","</w> a</w> woman","encounter","pleasure</w> of</w> ","fad","stoop",",</w> in","wick","say</w> ","out","tain</w> ","e;</w> ","attempt</w> to</w> ","for</w> her","bart","noise","</w> an</w> ","c","</w> part</w> of</w> the</w> ","with</w> ","remo","</w> why,</w> ","ful","</w> com","ed.</w> “","fancy</w> ","</w> convinc","</w> harri","creature","encour","harriet","jane</w> fairfax","ed</w> along","obsc","may</w> be</w> ","?\"</w> \"","bread","project</w> gutenberg-tm","bout</w> ","isabell","sought</w> ","'ll</w> be</w> ","occupi","at</w> www.gutenberg.org","able</w> ","conver","bought</w> ","rise</w> ","ept</w> ","charm",".</w> how","calcul","loc","</w> ref","it</w> with","</w> cros","wickham","abor","back,</w> ","</w> tur","in</w> it,</w> ","</w> certain</w> ","peac",",</w> after","received</w> ","compliance</w> ","houses</w> ","</w> col","do</w> you</w> think","</w> _","first</w> ","er</w> to</w> ","rib","ad</w> ","div","set</w> forth</w> in</w> ","ceed","know</w> ","</w> i</w> ","y,</w> but</w> ","former","iliz","adventure","</w> fortun","soc","stranger","full</w> of</w> ","true</w> ","fond</w> ","them,</w> and</w> ","</w> hands</w> ","oted</w> ","in,</w> ","</w> few","once","circumstanc","se","</w> seven","</w> me,</w> and</w> ","indeed","</w> in</w> a</w> ","chest","ing</w> to</w> the</w> ","</w> hundred</w> and</w> ","company","compl","i</w> do</w> not</w> ","time,</w> and</w> ","by</w> any</w> ","ilar","or</w> b","gutenberg.org","material","poured</w> ","sufficiently</w> ","</w> friend",".”</w> “but</w> ","version",",</w> for</w> ","no</w> other","ost","oak","</w> with</w> them","knife</w> ","ty","ity,</w> ","</w> countr","pros","worth","brett</w> ","</w> seem","ity</w> of</w> the</w> ","ing.</w> the</w> ","propos","</w> sup","</w> who</w> ","</w> will</w> not</w> ","agged</w> ","i</w> don’t</w> know","ations</w> ","project</w> gutenberg™</w> work","</w> me","</w> slow","apparently</w> ","tap","</w> intell","det","import","mu","</w> point",";</w> and</w> she</w> ","abs","</w> row","remov","i</w> wonder","insp","character","et,</w> and</w> ","the","cele","compass","char","</w> hist","speak","spen","ê","who</w> ","eu","ing</w> over</w> ","anch","though</w> ","yield","nor",".</w> you</w> must</w> ","</w> on</w> ","leviathan","--\"</w> \"","it's</w> ","she</w> would</w> ","</w> i</w> saw","oblig","there</w> ","</w> fellow","thousand</w> ",",”</w> i</w> said.</w> “","over</w> his</w> ","sed","ectual</w> property</w> ","ent","place</w> where</w> ","permitt","gor","called</w> ","an</w> ","ide","secure","obe","by</w> and</w> ",".”</w> “i","beginning</w> of</w> ","they’re","as</w> to</w> ","across</w> ","</w> states</w> ","dur","</w> su","</w> well","glas","birth","bit</w> ","stup","</w> cohn","%","runn","</w> a-","yesterday","son’s</w> ","a</w> few","</w> a</w> look","--</w> '","ck",".</w> yet</w> ","one</w> or</w> two</w> ","get</w> the</w> ","rud","on</w> their","secret</w> ","</w> \"",",</w> no</w> ","</w> mr.</w> micawber","late</w> ","people,</w> ","a</w> girl","</w> inde","thing</w> about</w> ","aud","</w> poor","too</w> ","name</w> ","ning</w> ","any</w> one</w> ","ancient</w> ","tru","a</w> st","countenance</w> ","lenes","bottom</w> of</w> the</w> ","once</w> more","i</w> wish","</w> allow","under</w> ","d,</w> ","buck","brett","within</w> ","in</w> general","louis","</w> taken",";</w> and</w> so</w> ","with</w> this</w> ","for</w> ever","ing,</w> perform",",\"</w> she</w> said</w> ","luc","aged</w> ","</w> you,</w> ","of</w> it</w> ","</w> stat","athan","opinion</w> of</w> ","dust</w> ","mock","church",";</w> but</w> he</w> ","fi","nearly</w> ","versation","act</w> ","what</w> i","havisham",",</w> as</w> if</w> he</w> ","caution","nes",",</w> with</w> a","</w> stay","</w> acc","not</w> protected</w> by</w> u.s.</w> copyright</w> law","infer","roman","it.</w> “","ga","necessarily</w> ","or</w> distributing</w> ","god,</w> ","war",".</w> then</w> he</w> ","brown","200","carriage</w> ",".”</w> “",",</w> like</w> ","</w> breath","to</w> re","such</w> ","ratt","’am","watson","steps</w> ","i</w> did","by</w> no</w> means</w> ","cham","act</w> of</w> ","geon","exam","side","</w> a</w> thousand</w> ","until</w> he</w> ",",’</w> said</w> mr.</w> micawber","ate</w> ","shall</w> i","</w> shop","manner</w> of</w> ","</w> dropp","</w> cannot</w> be</w> ","anything,</w> ","endeav","risen","it</w> is</w> very</w> ","lean","where</w> he</w> ","</w> upon</w> ","deliber","oh!</w> ","ed,</w> but</w> ","friends,</w> ","eri","orizon","wops","iff","sm","maintain","degre","of</w> them",",</w> until","s</w> so</w> ","?”</w> “yes","foo","on’t</w> ","mart","men</w> ","hart","closed</w> ","em’ly</w> ","teen</w> ","voice,</w> ","that,</w> ","mean</w> ","rement","form","hear","lorr","arg","oper","</w> glanc","</w> interest</w> ","curious</w> ",",</w> miss</w> ","oment","spot","around</w> the</w> ","upon</w> him","</w> guess</w> ","nineteen","require","letter",".”</w> and</w> ","ouldn’t</w> ","vir","</w> pleasure","’t","all</w> s","him</w> the</w> ","bread</w> ","rem","</w> fill","a</w> h","scap",",</w> “and</w> ","copyright</w> holder","stain","ander","bumble","head,</w> ","endeavour","a</w> mon","90","privileg","leaving</w> ","rig","mak","distributing</w> ","branch","giving</w> ","cruel","in</w> vain","</w> act","who</w> was</w> ","right</w> of</w> ","too","venture","i</w> dare","boil","e</w> the</w> ","i</w> can</w> ","east</w> ","drag","fellow-","for</w> your","esture","applic","accur","prevent</w> ","ever</w> been","all</w> about</w> ","dropped</w> ","street","somebody</w> ","oppres","a</w> p","spect","it</w> were</w> ","umph","indian","</w> which</w> they</w> ","ed,</w> the</w> ","ward","</w> against</w> the</w> ","downstair","</w> show","family,</w> ","grim","s</w> to</w> ","like</w> to</w> ","pull","driver","jane,</w> ","or</w> two","threaten","ingle</w> ","bb","</w> friend</w> ","et.</w> ","look","is</w> so</w> ","</w> door","solid</w> ","chapter</w> xx","mail","mut","pudd'n","yer</w> ","question","wat","too</w> much","does","would</w> have</w> ","conce","vall","went","tured</w> ","know","</w> bow","gatsby</w> ","</w> sho","iet","ed</w> this</w> ","gniz","</w> spoke</w> ","</w> see</w> ","</w> pay</w> ",",</w> in</w> a","!</w> how","papers</w> ","blaz","</w> a</w> little</w> ","it</w> may</w> ","down,</w> and</w> ","boast","read","from","day,</w> ","ability</w> of</w> ","disturb","to</w> the</w> full","must","as</w> well</w> as</w> ","</w> pr","ley</w> ","an</w> a","’s,</w> and</w> ","</w> all</w> right","arms,</w> ","supper","of-","to</w> receive</w> ","ould,</w> ","int","orry</w> ","ations,</w> ","side.</w> ","ed.”</w> “","s</w> for</w> ","pap","s</w> of</w> my</w> ","my</w> father","y","resul","ination","regre","</w> stair","attempt</w> ","ze</w> ","exclaim","should</w> be</w> ","_him","ing</w> through</w> the</w> ","lost</w> ","abil","a</w> sort</w> of</w> ","went</w> on","if</w> i</w> had</w> ","t-","</w> through</w> the</w> ","glass</w> ","all</w> that","i</w> am","ances,</w> ","guardian","di","us,</w> and</w> ","ce,</w> ","young</w> ","thinking</w> ","don't</w> ","a</w> man","date</w> ","coat","hungr","that</w> he</w> ","super","jenn","up</w> the</w> ","ution","the</w> w","looking</w> at</w> the</w> ","hundred","gre","by</w> his</w> ","siss","ortun",",</w> and</w> ","elve</w> ",",</w> without</w> ","it</w> had</w> been","on</w> to</w> ","ed</w> from</w> the</w> ","james</w> ","peleg","ulous</w> ","plenty</w> of</w> ","that</w> i</w> ","introduc","forward","creat","used</w> ","in</w> all","hot</w> ","as</w> well","might","sed</w> ","bu","true","1","</w> we</w> were</w> ","less</w> and</w> ","</w> writ","arkans","!”</w> the</w> ","call</w> ","leap","</w> such","ustom","coming</w> to</w> ","vo","gram","l","benef","ness,</w> and</w> ","</w> bey","upstair",",</w> as</w> it</w> ",".”</w> i","conn","charlott","table,</w> ","</w> week","*</w> *</w> *</w> *</w> ","by</w> the</w> ","e.</w> i",":</w> and</w> ","grave</w> ","has</w> ","spr","victim",",’","</w> touch","an</w> aw","like,</w> ",".”</w> elizabeth","ing</w> all","set</w> forth","frequ","threw","in</w> lieu","iously</w> ","ounc","renew","defect</w> ","miserable</w> ","yesterday</w> ","agree</w> to</w> ","stared</w> ","ght</w> ",",</w> she</w> ","itself","</w> delight",",</w> what","place</w> of</w> ","lem","ally","frequently</w> ","every</w> thing","any</w> money</w> ","the</w> foundation","ing</w> from</w> the</w> ","</w> hand,</w> ","perhaps</w> ","tly,</w> ","years</w> ago","[","quainted</w> ",":</w> the</w> ","fright","finitely</w> ","</w> house</w> ","tiv","you</w> may</w> ","beauty</w> ","tit","bix","from</w> its</w> ","i</w> ","talking</w> ","fight</w> ","sible</w> ","assured</w> ","big","blem","theatre","ge</w> ","lec","like</w> the</w> ","finit","dg","your</w> s","</w> wher","</w> cont","ly,</w> \"","labour","aughter</w> ","</w> seemed</w> to</w> ","gold</w> ","would","republic","desol","trip","cream","ev","t</w> and</w> ","ch","gentle</w> ","ses</w> and</w> ","ñ","</w> a</w> m","hardly</w> ","</w> affection","additional","sympath",",”</w> repli","ople,</w> ","vain","we’ll","whale,</w> ","quart","es;","trunk","for</w> me","i</w> have</w> not</w> ","</w> said,</w> “","s</w> were</w> ","which</w> has</w> ","swim","ister","of</w> all","gam","experienc","</w> across</w> the</w> ","peter","it.</w> but</w> ",",</w> it</w> ","</w> alarm","ste","</w> as</w> he</w> ","so","</w> now","jud","i</w> felt</w> ","ben","</w> they</w> were</w> ","cus","ograph","loun","'re","ox","sher","ern","lad","</w> he","nigh","perhaps,</w> ","fitt","</w> top","ot","ed</w> on</w> the</w> ","heaven",";</w> she</w> ","it</w> out</w> ","set","</w> po","</w> mis","add</w> ","we</w> had</w> ","sail","eeth","they</w> have</w> ","his</w> eyes</w> ","ri","eighteen","git</w> ","eel","itiz","felt</w> ","nin","</w> see</w> the</w> ",",’</w> returned</w> ","in</w> a</w> p","</w> asci","tranqu","</w> advanc","au","self","!</w> you","requirement","lef","with</w> mr.</w> ","!</w> and</w> ",".’</w> “‘","out</w> ",".</w> i</w> knew","real","ive,</w> ","or</w> tw","ious","</w> hor","</w> receiv",",</w> i</w> know","ran</w> ","as</w> to</w> the</w> ","it;</w> ","we</w> ","many</w> ","</w> fa","them</w> all","dav","nick","wemmick","smil","</w> four","a</w> hundred</w> ","forc","ance</w> to</w> ","jour","plan","ext","</w> of</w> your","blu","ing.</w> he</w> ","i'","</w> mean</w> to</w> ","</w> write</w> ","accoun","fir","tast","i</w> am</w> sure","alt</w> ","</w> mast",",</w> i</w> shall","miss</w> havisham","</w> around</w> ","how</w> the</w> ","but</w> ","furnish",".</w> here</w> ","between</w> the</w> ","middleton","gradgrind,</w> ","i</w> did</w> not</w> ","apprec","behaviour","ed</w> in</w> my</w> ","everything</w> ","arry</w> ","admir","ter","there","place,</w> and</w> ","mos","seems</w> to</w> ","ies</w> of</w> the</w> ","caut","week","fact</w> ","judg","itated</w> ","we","ing</w> so</w> ","ed.</w> ‘","we</w> can","crow","oliver","</w> dream","then</w> he</w> ","agnes</w> ","</w> pip","bles","two</w> ","hung","ane</w> ","</w> as</w> she</w> ","self</w> ",".</w> you</w> are","</w> he</w> had</w> ","ious</w> and</w> ","the</w> door","knif","y.</w> ","murder","earli","ed</w> his</w> ","ase","information","—_","pp","the</w> c","boy</w> ","difficul","told</w> me</w> ","crew","give</w> ","opposite</w> ","dger","shi","ed</w> that</w> the</w> ","looked</w> ",".”</w> he</w> ","england</w> ","i</w> took","app","</w> for</w> ","</w> upon","sle","ble</w> to</w> ","</w> acquaint","on</w> a</w> s","rose</w> ","purpose</w> ","</w> lo","evening</w> ","imagin","ay</w> of</w> ","laws</w> of</w> the</w> ","old,</w> ","diction","whale’s</w> ","'ve</w> ","put</w> it</w> ","ured</w> ","i</w> have</w> ","</w> would</w> be</w> ","escape</w> ","both</w> ","s</w> from","bow","</w> state</w> ","a</w> sh","nothing</w> to</w> ","paul","ustr","flash","</w> them","a</w> g","istic","</w> black","eleven",".</w> this</w> was</w> ","gradually</w> ","s</w> that</w> ","pride</w> ","that</w> she</w> ","ted</w> to</w> ","gave</w> me</w> ","in</w> his</w> hand","</w> that</w> she</w> ","s.’</w> ‘","face.</w> ","frightened</w> ",".</w> you</w> have</w> ","sikes,</w> ","undred</w> ",",</w> for","there,</w> ","enough","</w> pleas","therefore,</w> ","ard</w> ","bound","in</w> his</w> pocket","vent","in</w> spit","</w> you</w> are","hog","light,</w> ","asleep","her.</w> ","</w> en","capital","</w> terms</w> ","mist","pose","clim","</w> repli","</w> to-","in</w> him","pass","housekeep","bod","or","modi","eye,</w> ","rich","our</w> s","poor","ed</w> for</w> ","mr.</w> weston","can","astonish","face,</w> and</w> ","</w> toward</w> ","</w> prep","field,</w> ","lawn","mrs.</w> ","least","in</w> the</w> first</w> ","</w> said.</w> “","example","else</w> ","</w> there’s</w> ","ially</w> ","pret","pil","sipp","by</w> no</w> ","</w> is</w> ","</w> took</w> the</w> ","turning</w> ","was</w> a</w> ","ance</w> and</w> ",",</w> but</w> he</w> ","jury</w> ","treated</w> ","there’s</w> ","r","kill","s?","without</w> ","summ","previous</w> ","</w> i</w> was</w> ","</w> licen","</w> whom","expos","</w> a</w> re","iment</w> ","in</w> c","in</w> ","me.</w> “","wasn’t</w> ","giv","exper","stead","persist","especially</w> ","though</w> the</w> ","to</w> the</w> other","</w> side</w> ","pir","i</w> was","serious</w> ","summer</w> ","ly-","</w> confirm","difficult","tell</w> me</w> ","provide</w> ","</w> to</w> do","ulat","</w> a</w> p","nep","</w> shall</w> be</w> ","or</w> distribu","expect</w> ","now.</w> ","at</w> one</w> ","sea,</w> ","to</w> say</w> ","i'm","</w> sure","on</w> and</w> ","</w> clos","y,</w> and</w> the</w> ","</w> dare","that</w> he</w> should</w> ","certain","command</w> ","hall","pity</w> ","if</w> it</w> ","iat","till</w> the</w> ","end</w> to</w> ","at</w> hom",",</w> and</w> you","-of-","ed</w> to</w> a</w> ","00","wife","that</w> way","discharg","person</w> or</w> ent","gate</w> ","ed;</w> ","emm","mam","bert,</w> ","of</w> him","inev","</w> minutes</w> ","bak","</w> she</w> is</w> ","ing</w> af","phrase</w> “","kindly</w> ","particularly</w> ","prove</w> ","color","host","how</w> could</w> ","at</w> h","quest","or</w> s","who</w> were</w> ","put</w> ","soldier","ouple</w> of</w> ",".,</w> ","single</w> ","</w> that</w> ","queg","les,</w> and</w> ","i</w> came</w> ","ed</w> to</w> me</w> ","sent</w> ","ed,</w> and</w> the</w> ","and,</w> as</w> ","</w> confid","friendship",",</w> inst","having</w> been","'</w> '","asion","ustri","it.</w> i","ing</w> of</w> ","mine,</w> ","s.</w> ‘","</w> a</w> f","</w> you","it</w> of</w> the</w> ","master</w> ","s!","i</w> may</w> ","ed</w> it","emma","a</w> very</w> ","usually</w> ","astic","that</w> i</w> could</w> ","cel","having","condem","scrip","</w> smo","old","dividual","a</w> man</w> who</w> ","cand","in</w> some</w> ","we</w> are","de","ent,</w> ","does</w> ","i</w> think","</w> but</w> ","scene</w> ","</w> hum","</w> sol","ence,</w> ","è","</w> may</w> be</w> ","out</w> of</w> my</w> ","design","assist</w> ","alone","animal","15","are</w> ","</w> pil","by</w> some</w> ","proof","</w> fac",".","nant","awl","that</w> were</w> ","eas","gave</w> him","concern","you</w> are</w> ","king</w> ",",”</w> cried</w> ","le’s</w> ","oment</w> ","ed—","ï","</w> www.gutenberg.org","drumm","among</w> them","of</w> any</w> ","e","morning,</w> ","know</w> how","er</w> of</w> ","term","</w> dec","ference</w> ","play</w> ","</w> stra",",</w> mr.</w> ","eer</w> ","touch","long</w> and</w> ","</w> wait","grass</w> ","chosen","of</w> our","daughter","ake.</w> ","ing</w> which","s.</w> but</w> ","</w> ad","settle</w> ","contribution","ish</w> ","an</w> to</w> ","heard</w> the</w> ","que</w> ","by</w> ","_i_","yonder","behind</w> the</w> ","appl","country</w> ","complet","an</w> as","principal","though</w> i","bench","susp",",</w> they</w> ","s.</w> the</w> ","into</w> my</w> ","necessar","however</w> ","carrying</w> ","had</w> not</w> ","</w> all</w> this</w> ","epher","chill","</w> not","nexion","</w> your","ail","ing</w> his</w> ",",”</w> replied</w> ","feet","meant</w> ","sens","quarter</w> of</w> ","oriz","val","</w> with</w> his</w> ","</w> mention","only</w> a</w> ","est","proach","edge</w> ","min","itude","punish","won't</w> ","second","</w> at","</w> as</w> much</w> as</w> ","before</w> us","unch","bat","nice</w> ","it</w> for","direc","ed</w> man","</w> in</w> her","ary</w> ","gave</w> ","dro","ed</w> a</w> s",".</w> if</w> the</w> ",";</w> but,</w> ","ously</w> ","creak","charge</w> a</w> ","tograph","</w> what</w> was</w> ","cheek","throat","itter","your</w> own","oo","years</w> ","ible</w> ","wild</w> ","bring","</w> word</w> ",",</w> \"","perm</w> wha","swear","drove</w> ","hast","for</w> this</w> ","hurried</w> ","</w> b","</w> make</w> ",",”</w> said</w> sh","is</w> ","</w> prof","</w> har","night,</w> ","since</w> ","</w> here,</w> ","circ","in</w> another","murd","s,”","--the</w> ","a’s</w> ","carton","don’t</w> be</w> ","</w> probably</w> ","</w> pe","k)","her","in</w> the</w> same</w> ","marsh","ally,</w> ","laz","sym","cepti","at</w> no</w> ","trotwood","all</w> these</w> ","dris","</w> sudden","</w> degre",";</w> but</w> ","</w> a</w> s","!\"</w> he</w> ","ret</w> ","</w> interest","least</w> ","conduc","like</w> a</w> ","before</w> he</w> ","violent</w> ","s.</w> he</w> ","ma","</w> doub","people","ouble","</w> bir","not</w> ","</w> made</w> ","she</w> has</w> ","ase</w> ","in</w> such","ouse</w> ","</w> sur","gotten","in</w> the</w> dark","</w> afr","emor","desire","a</w> of</w> ","</w> meant</w> ","</w> sub","siz","out</w> to</w> ","</w> sail","idly</w> ","cheap","</w> went</w> ","rock","mall","one</w> another","ing</w> around</w> ","</w> serv","onel","fortunate</w> ","ca","d.</w> ","rather</w> ","</w> demanded</w> ","ball","haven","upon","deriv","sed,</w> and</w> ","blew","</w> you</w> will","shout","</w> might</w> ","for","understand</w> ","open</w> ","</w> mone","rid","</w> no</w> ","</w> wa","order</w> to</w> ","2","ored</w> ","ship’s</w> ","</w> all</w> these</w> ","satis","piec","eight</w> ","arry","og","reached</w> ","sometim","took</w> up","o’","garden","among","on</w> his</w> ","</w> over","$","themselves</w> ","ary","s</w> is</w> ","</w> street</w> ","i</w> shall","meet</w> ","ground,</w> ","bor","soul","miss</w> fairfax","ad","!’</w> said</w> ","y.</w> the</w> ","cloud","to</w> her</w> ","</w> short</w> ","tumbl",".</w> “the</w> ","ing</w> back","</w> horse","s</w> of</w> the</w> ","proces","use</w> ","differ","influence</w> ","very</w> well","accompani","do","compar","utmost</w> ","except</w> for</w> the</w> ","concer",",</w> till","particular","oon","</w> to</w> my</w> ","aw","</w> among</w> the</w> ","plant","ing</w> into</w> the</w> ","e</w> of</w> his</w> ","ous</w> of</w> ","flo",",</w> in</w> ","did</w> ","er-","west","sick","greatest</w> ","wal","for</w> the</w> first</w> ","s</w> had</w> been","</w> we</w> got</w> ","wooden","or</w> c",":</w> i","bless","likewise</w> ","a</w> half</w> ","peggotty</w> ","try</w> to</w> ","acted</w> ","---","depth","1.f.3",",</w> then","words</w> ","however","ins</w> ","chas","</w> something","wr","pg</w> (","rible</w> ","x","</w> ain’t</w> ","prep","will</w> ","</w> present","asure","persu","dull","ing</w> for","</w> sid","</w> when","corner","of</w> your","</w> of</w> our","world</w> ","</w> creature",".</w> but</w> ","up</w> to</w> ","ense</w> ","</w> up</w> the</w> ","resist","hom","mod","gol","</w> with","complain","cho","’re","uter","be","woodhouse</w> ","satisfied</w> ","</w> the</w> ","dwell","find</w> ","sperm</w> wha","had</w> no</w> ","would</w> not</w> ","afterward</w> ","eyes","moder","crush","ugly</w> ","factor","</w> ga","es;</w> ","lection","</w> wish","accident","border","have</w> you</w> ","sar","money,</w> ","</w> or</w> any</w> other",",</w> by</w> ","made</w> her</w> ","</w> bet</w> ","aver","y</w> of</w> ","spenlow","on</w> her</w> ","of</w> no</w> ",",</w> some","s</w> (","wrote</w> ","ember</w> ","sunk","proved</w> ","bell","possible</w> ","visit</w> ","anyway","nur","ite</w> ","i</w> don’t</w> ","</w> see","you’re","tired</w> ","elbow","laid</w> ","succeed","works</w> ","she</w> ","</w> for</w> his</w> ","still</w> ","phrase</w> “project</w> gutenberg","water</w> ","ulate</w> ","engag","_me","longer",",”</w> he</w> said.</w> “","</w> to</w> you","gust","outr","et-","creep",";</w> “but</w> ","tree</w> ","velop","for</w> his</w> ","by’s</w> ","ban","terri","thank","</w> great","no</w> one</w> ","</w> was</w> not</w> ","</w> was</w> so</w> ","’d</w> ",".”</w> mr.</w> ","a","bey","fairly</w> ","?”</w> she</w> ","ile,</w> ","ford</w> ","me</w> ","young</w> men","meant</w> to</w> ","pudd'nhead</w> ","heep","every</w> one</w> ","forni","i</w> tell</w> you","less</w> than","s</w> with","streets</w> ","constitution","yes,</w> sir","ing,</w> “","!’</w> he</w> ","anything","</w> when</w> he</w> ","</w> with</w> her","by</w> dick","ign","restrain","?’</w> said</w> ","ill","case,</w> ","delight</w> ","</w> conversation","!\"</w> ",".</w> i</w> was</w> ","ware","age</w> of</w> the</w> ","sprang","walk","</w> of</w> this</w> ","memory</w> ","ony</w> ","</w> stretch","9","</w> cre","tran","vic","hold","away","desert","s</w> of</w> this</w> ","with</w> my</w> ","trouble","ington","voic","georg","priest","shown","</w> ahab","</w> much","unknown","turk","</w> half-","</w> bl","nec","etim","prof","spent</w> ","</w> prom","when</w> he</w> was</w> ","cannot</w> be</w> ","bove</w> ","crown","sold</w> ","most</w> ","s,</w> and</w> the</w> ","-and-","gi","one</w> of</w> these</w> ","sevent","on</w> our","imagine</w> ","ily,</w> ","</w> pap","bed","near</w> the</w> ","itten</w> ","umblechook","s,</w> but</w> ","monsieur","stay</w> ","er,</w> and</w> ","</w> const","rubb","instr","fast","two</w> men","</w> glad</w> ","mely</w> ","betray","gun","</w> read","</w> hours</w> ","herself","upper</w> ","share","over-",",</w> when</w> the</w> ","i</w> am</w> very</w> ","ial","!</w> i","that</w> of</w> ","entirely</w> ","bar","ffic","cor","over</w> to</w> ","that</w> you","mind","</w> stood</w> ","drown","ren","in</w> his</w> ","they","relat","strang","made</w> him","tip","a.</w> ","</w> just</w> ","if</w> i","ical</w> ","li",".</w> you</w> may</w> ","raise</w> ","000","!","though","boot","</w> mad","comes</w> ","account</w> ","ing</w> of</w> the</w> ","</w> wash","</w> think</w> of</w> ","nonsense","ange</w> ","thinks</w> ","worse</w> ","most</w> un","tly","</w> in</w> writing</w> ",",”</w> ","akes</w> ","dist","charley</w> ","</w> some",",</w> with","mic","present","main","most","promise</w> ","listen",",</w> however","came</w> ","</w> more</w> ","person","such</w> a","mr.</w> knightle","life,</w> and</w> ","</w> and</w> he</w> ","up</w> and</w> ","sound</w> ","with</w> any</w> ","</w> sat</w> down","antin","wanted</w> to</w> ","</w> marri","earnest</w> ","re-",",</w> i","</w> considerable</w> ","</w> all</w> li","oll","bund","complexion","e.</w> we</w> ","um","</w> returned</w> ","newsp","idd","mat","a</w> more","enjoy</w> ","zz","crunch","age,</w> ","paragraph</w> ","omas</w> ",",</w> and</w> then","than</w> the</w> ","the</w> man","that</w> i","s.</w> we</w> ",".</w> i</w> saw",",</w> of</w> the</w> ","ather","room.</w> ","wind","robert</w> ","you</w> had</w> ","please</w> ","us.</w> ","low","rang","ed</w> in</w> ","thed</w> ","</w> people","kind,</w> ","ke","and</w> then","native</w> ","mutter","both","sibly</w> ","</w> open","fore","ion","u","re","es;</w> and</w> ","ming","fingers</w> ","</w> manner</w> of</w> ","her</w> hand</w> ","indic","why</w> should</w> ","thus</w> ","eem","died</w> ","that</w> when","attack","eh","privi","means</w> ","idiot","</w> franc","dut","hi","</w> my</w> ","lesome</w> ","avour","loose</w> ","ort</w> of</w> ","tear","absor","prepare","morning","expect","comfortable</w> ","ech","</w> hair","uff</w> ",".</w> “‘","duce</w> ","dea","obtain","scription","s</w> and</w> ","cen","english","damn","</w> she","</w> se","ez","bol","lice</w> ","cig","royalty</w> ","jail","impatient</w> ","</w> with</w> ","duc","pic","once</w> ",".</w> he</w> had</w> ","compliment","distribute</w> ","entire","to</w> say","</w> him</w> and</w> ","</w> days</w> of</w> ","again,</w> and</w> ",".</w> “well","</w> school","united</w> states.</w> ","ing</w> his</w> head</w> ","</w> walk","-looking</w> ",".’</w> “","quitt","tun","come</w> back","right</w> and</w> ","</w> which</w> i","$1","profound</w> ",",</w> and</w> there","?”</w> ","</w> with</w> a</w> s","spar","doctor’s</w> ","net</w> ","sed.</w> ","</w> down","exer","danc","</w> which</w> he</w> ","care</w> of</w> ",",</w> or","elizabeth",".</w> what","do</w> you</w> know","you</w> would</w> ","judged</w> ",",</w> with</w> a</w> ","excit","ed</w> it</w> ","ation</w> ","</w> upon</w> the</w> ","</w> to</w> the</w> ","ner","hurr","hadow","</w> feel","ments</w> ","iate</w> ","ed</w> you","lof","like","fri","selfish","ister,</w> ","</w> par","for</w> it</w> was</w> ","queen","throw","’m","</w> tri","ed</w> the</w> ","!</w> ","knight","</w> hundred</w> ","could","i</w> see</w> ","it.</w> the</w> ","louisa","lish","you</w> could</w> ","becom","beh","</w> support</w> ","</w> again.</w> ","difficult</w> to</w> ","open","tw","bon",",</w> inde","?’</w> ‘","with</w> them","tears</w> ","who,</w> ",",”</w> mike</w> ","prot","register","</w> harriet","like.</w> ","own","tch","expen",",</w> when</w> i","buil","***","e,</w> but</w> ","possibility</w> of</w> ","ements</w> ","justice</w> ","roll","iful","that</w> m","rag","win","second</w> ","on't</w> ","cast","you</w> think","green","nanc","rob","es</w> you",",</w> by</w> the</w> ","urch","</w> “","subst","direct,</w> ","</w> of</w> a</w> s","</w> lou","am","elp","for</w> you","er</w> than</w> ","state</w> of</w> ","</w> pass","</w> suppose</w> ","journal","accept</w> ","s,</w> a</w> ","body,</w> ","likely</w> ",".</w> he</w> is</w> ","mone",".</w> all","again</w> and</w> ","or</w> any</w> ","</w> the</w> first</w> ","yellow","’ll</w> be</w> ","mrs.</w> micawber","for</w> a</w> moment</w> ","subject</w> ","st.</w> ","i</w> went</w> ","because</w> he</w> ","flung","t,</w> and</w> ","ing</w> from","ny</w> ","for</w> a","fo","before</w> ","</w> wanted</w> to</w> ","alas","o’clock","round</w> the</w> ","exec","even</w> the</w> ","fier","ounce</w> ","illa","res",".’</w> he</w> ","from</w> ","_he","sham","</w> project</w> gutenberg™","celebr","le,</w> ","wonder</w> ","</w> would</w> have</w> ","thought</w> of</w> ","dated</w> ","bewilder","sight</w> of</w> ","dollars</w> ","man","</w> i</w> could</w> ",".</w> i</w> have</w> ","child</w> ","unless</w> ","fram","id","resp","body’s</w> ","</w> fre","all</w> his</w> ","an</w> instant","ted</w> ","made</w> ","face</w> and</w> ","pointed</w> ","elev","her,</w> ","ger","mil","sett",".</w> chapter</w> x","sy</w> ","yes,</w> i","pe","eyes</w> ",".</w> you","el","full</w> project</w> gutenberg™</w> license</w> ","purpose","ender","jose","glitter","ies</w> ","at</w> home</w> ","star",",</w> where</w> ","</w> within</w> ","ation</w> of</w> his</w> ","sincer","i</w> did</w> ","intro","saw","bec","for</w> the</w> ","saw</w> the</w> ","</w> ham","cali","</w> a</w> person","s;</w> the</w> ","like</w> that","paying</w> ","cousin","</w> min","ler","ins","gras","s</w> he</w> ","used","way,</w> ","bounder","</w> in</w> a</w> s","gni",";</w> they</w> ","</w> wouldn’t</w> ","?</w> and</w> ","thi","paris</w> ","</w> they</w> ","knightley</w> ","fisher","usb","all</w> the</w> ","not</w> to</w> ","came</w> back","to</w> hear","ated</w> and</w> ","want</w> to</w> ","father","</w> clothe","hon",",</w> his</w> ","</w> this","</w> stri","convey","in</w> every</w> ","</w> part</w> of</w> ","qui","ing</w> in</w> the</w> ","edward</w> ","s</w> of</w> this</w> agre","rific","</w> that’s</w> ","cess","</w> you</w> know","means</w> of</w> ","only</w> ","s</w> that","eyes</w> were</w> ","but</w> not</w> ","beside</w> ","ever",",</w> whose</w> ","blush",",</w> when","etc","hand</w> and</w> ","swung","a</w> good</w> deal","never</w> ","ed.</w> \"","her</w> eyes</w> ","</w> certainly</w> ","hea","por","stream","e.”</w> “","bition","</w> manuel","s;","boys,</w> ","</w> shir","down</w> to</w> the</w> ","blame</w> ","vision","</w> page</w> ","goes</w> ","eur","those</w> who</w> ","</w> bell",";—","i</w> could</w> ","</w> was</w> the</w> ","fiv","side</w> of</w> the</w> ","1.f.","interest</w> ","go</w> to</w> ","beyond</w> the</w> ","richard</w> ","interrupted</w> ",",</w> a</w> ","indeed</w> ",",</w> i</w> should</w> ","</w> day","</w> demand","</w> again,</w> ","somewhere</w> ","</w> more","</w> right</w> ","log","dress</w> ","changed</w> ","bid",".”</w> “you","q","-","pip","eness</w> ","ittle","ouldn't</w> ","</w> yourself</w> ","round</w> and</w> ","putt","use","me.”</w> “","embrac","san","climb","</w> dam","fied</w> ","this</w> is</w> ","</w> which</w> was</w> ","ing</w> any</w> ","river","se,</w> ","termin","seat","returned</w> ","ed</w> some</w> ","yet,</w> ","as</w> you","protect</w> ","sadd",",</w> (",",</w> and</w> his</w> ","gloria","nea","gener","at</w> his</w> ","didn't</w> ","stretch","ter</w> ",",</w> as</w> a</w> ","she</w> was</w> ","gradgr","“the</w> ","night</w> ","were</w> ","ber","</w> to</w> ","ake</w> ","no,</w> no","e:","</w> words</w> ","ages</w> ","ulation","room,</w> ","ripp","harpoone","y</w> ","or</w> p","3","the</w> last</w> ","dark","gro</w> ","hands</w> ","in</w> it</w> ","or</w> l","lif","pag","bill","</w> better</w> ","</w> mean","trou","anxious</w> ","ninet","prob","it</w> of</w> ","argum",".</w> when</w> i","ood","claim","favour","</w> got</w> ","ause","ingly</w> ","came</w> to</w> ","did</w> you</w> ","</w> h","run","valle","arose</w> ","soever","</w> stopp","trac","miser",";</w> i","s</w> who</w> ","</w> cut</w> ","idea</w> ",",--</w> “","excursion","ease</w> ","delight","see",".</w> these</w> ","expedition","no</w> matter","dev","</w> does</w> not</w> ","emper","estab","persuade</w> ","</w> you</w> have</w> ","bates</w> ","in</w> the</w> midst</w> ","me</w> a</w> ","</w> going</w> ","?”</w> said</w> the</w> ","’</w> ‘","!’</w> i","triumph","st</w> ","agree","disco","thirty-","neg","inquired</w> ","ituation","</w> against</w> ",".</w> if</w> you","oman</w> ",";</w> but</w> the</w> ","it’s</w> ","edg","neur","really</w> ","itter</w> ","extraordinary</w> ","present</w> ","it</w> was</w> a</w> ","before</w> him","</w> speak","--he</w> ","later</w> ","proc","ing</w> here</w> ",",</w> that</w> she</w> ","living</w> ","by,</w> and</w> ","back</w> and</w> ","on</w> the</w> other","surely</w> ","you</w> for",".</w> in</w> the</w> ","copperfield","bold","innocent</w> ","from</w> him","</w> dav","y</w> the</w> ","similar","invest","bott","up</w> ","proof</w> ","?</w> how","-t","</w> sun","sentiment","!’</w> she</w> ","around</w> ","hy","in’t</w> ","</w> put</w> ",".</w> “you","and</w> all","inj",".</w> i’ll","you</w> have</w> ","evening","ann","ses","east","los","aunt","with</w> his</w> ","very</w> much","several","trag","!</w> i</w> am","perman","observe</w> ","for</w> some</w> ","</w> he’s</w> ","sit</w> ","swif","f</w> ","ociet","before","cover","mal","chim","</w> in</w> ","ought","discour","we</w> were</w> ","em","uni",",</w> and</w> it</w> was</w> ","understand,</w> ","y</w> of</w> the</w> ","brill","years</w> of</w> ",";</w> for","ascal","occup","immediate</w> ","</w> copy","s.—","istol","way</w> to</w> ","mr.</w> darc","raph","lifted</w> ","</w> rather","lightly</w> ","est,</w> ","putting</w> ","unt",",</w> while</w> ","s'","coun","</w> author","s,</w> we</w> ","an</w> ab","holmes,</w> ","</w> bank","ness</w> of</w> ","drawn","</w> form","car","pay","s</w> you","</w> a</w> very</w> ","volunteers</w> and</w> ","no","held</w> ","appre","learned</w> ","calm","sely</w> ","</w> located</w> ","</w> to</w> say","enes","</w> g","not</w> so</w> ","</w> a</w> short</w> ","br","</w> mouth","ying</w> to</w> ","gres","wyn","while</w> ","</w> this</w> was</w> ","rison","]</w> ","not</w> be</w> ","sun","where</w> ","ield","here</w> and</w> there","whole</w> ",",</w> that’s</w> ","</w> references</w> to</w> project</w> gutenberg","trial","fax","your</w> ","s</w> was</w> ","doesn’t</w> ","</w> spr","tric","impl","f","ible","</w> being</w> ","character</w> ","ones</w> ","an</w> ag","offic","</w> brandon","ael","national","arriv","</w> persu","sembl","if","emigr","</w> ha","</w> held</w> ","ick","expressed</w> ","anthony,</w> ","café","90</w> days</w> of</w> ","</w> care","yester","orn","</w> twenty</w> ","y.</w> ‘","ity","ed.</w> but</w> ","attempt","</w> fri","sensible</w> ","mr.</w> coll","boat</w> ","enthusiasm","</w> and</w> ","mer","</w> if</w> he</w> ","ier","e,</w> and</w> the</w> ","ing</w> how","</w> lic","gover","virgin","owns</w> a</w> ","”</w> “","ain't</w> ","for</w> a</w> moment","es,</w> but</w> ","right,</w> ","nov","</w> saw","fold","at</w> length","_me_","come</w> to</w> ","thing</w> ",".</w> ‘","suffer","ing</w> in</w> a","peggotty.</w> ‘","ause.</w> ","my</w> sister","propriet","tele","which</w> ","</w> face</w> ","sole</w> ","by</w> this</w> ","pen","</w> should</w> have</w> ","ornament","ed</w> on</w> ","hadn’t</w> ","distribu","itat","one,</w> ","spect</w> ","certainly","school","as,</w> ","acces","in’</w> ","erable</w> ","ke</w> ","paid</w> ","ibly</w> ","two</w> or</w> three</w> ","fagin","ed)","gum","horses</w> ","ade</w> ","dry</w> ","</w> won’t</w> ","reason</w> to</w> ","ing--","</w> time.</w> ","sci","ever</w> ","teeth","you</w> are</w> located</w> ","you</w> were</w> ","dey</w> ","concerning</w> ","tive</w> ","my</w> heart</w> ","as</w> he</w> ","</w> favour","went</w> ","is</w> it</w> ","affect","writ","y,</w> the</w> ","sister,</w> ","agu","wide</w> ","chimne","palac","</w> say","nam","!’</w> cried</w> ","such</w> a</w> th","ribu","udden","</w> world</w> ","ed</w> over","take</w> it</w> ","ed</w> and</w> ","?</w> he</w> ","ance</w> ","save</w> ","asser","port</w> ","pul","head</w> of</w> ","ice</w> ","besid","att","</w> warm","perform","</w> mi",",’</w> re","</w> talk","exerc","</w> holm","hither","things</w> ","eng","at</w> ","</w> per","shot</w> ","knew</w> that","</w> sav","or</w> to</w> ","voluntarily</w> ","victor","sur","little</w> ","faction","19","indul","elm","of</w> its</w> ","</w> cent","_was","hope</w> ",".</w> for","ne","able.</w> ","</w> that","spl","bumble</w> ","</w> gentle","in</w> my</w> ","business.</w> ","</w> moment","bennet</w> ","bit","</w> again,</w> and</w> ","s:","ere</w> ","itten","traddles,</w> ","</w> very</w> ","madam","ary,</w> ","ence,</w> and</w> ","spark","conc","reat","?”</w> said</w> ","uries</w> ","</w> remember</w> ","ed</w> by</w> the</w> ","idi","my</w> aunt.</w> ‘","joy</w> ","names</w> ","</w> health","</w> trav","leg","tom</w> saw","which</w> is</w> ","tion","arn","ing</w> and</w> ","ordinary</w> ","</w> cop","int</w> ","</w> as</w> if</w> ","terms</w> of</w> the</w> ","describe</w> ","'n","on</w> her","sound","inquir","legal","</w> inv","cour","bour","sitting</w> ","</w> of</w> him","</w> stand</w> ","apolog","passed</w> ","nic","â","</w> a","merch","possi","forth","family</w> ","ing.”</w> “","away,</w> ","ni","</w> want","anson","isn’t</w> ","tures","let</w> them","on</w> it</w> ","padd","</w> mr.</w> ","that’s</w> ","tra","complete</w> ","</w> loved</w> ","shir","north","</w> they","ti","spell","bridge</w> ","</w> sw",".)","count</w> ","ling,</w> ","ing</w> that</w> the</w> ","there</w> is</w> no</w> ","</w> believ","dim","</w> sir","doub","at</w> the</w> door","·","a</w> wh","where,</w> ","contact</w> ","</w> cannot</w> ","ket","rejo","ecst","</w> matter","left</w> the</w> ","olog","remembr","ing</w> over</w> the</w> ","seven","for</w> it</w> ","louis</w> ","acc","unfortun","credit</w> ","finally</w> ","ant,</w> ","chapter</w> ","boat","</w> beaut","ing,</w> the</w> ",".</w> “he</w> ","never","an</w> aff","gown","ers,</w> ","pumblechook","he</w> was</w> ","</w> a</w> min","agin","poor</w> ","ack","grac","that</w> we</w> ","not</w> been","declared</w> ","where.</w> ","things,</w> ","fond</w> of</w> ","hollow","termine</w> ","d</w> and</w> ","peg","part</w> of</w> ","the</w> first</w> ","rain","work.</w> ","bidd","between","mr","think</w> of</w> ","heavy</w> ","dinner","ven","</w> together","sid","</w> law","ses</w> of</w> ","iff</w> ","whenever</w> ","</w> ge","</w> was</w> a</w> ","world,</w> ","tter","unc","</w> thought","ations</w> of</w> ","e,</w> and</w> ",".</w> '","more</w> and</w> more","happily</w> ","middle</w> ","tore","united</w> states,</w> ","emp","come,</w> ","will</w> not</w> be</w> ","s,</w> by</w> ",".'","ing</w> herself</w> ","comb","it</w> the</w> ","done.</w> ","</w> within</w> 90</w> days</w> of</w> ","flush","a</w> s","it’s</w> a</w> ","pretty</w> ","latter</w> ","i’m","i’d</w> ","expres",".</w> and</w> ","remained</w> ",",</w> he</w> was</w> ","not</w> to</w> be</w> ","jer","ianne","vac","foundation","er",".</w> so</w> ","swallow","</w> run","in</w> short,</w> ","ing</w> their","chanc","</w> when</w> they</w> ","chapter","ed</w> with</w> his</w> ","</w> to</w> say</w> ","ly.</w> ‘","know</w> what","strous</w> ","from</w> the</w> ","ely,</w> and</w> ","?</w> the</w> ","shoulder","cross</w> ","edy</w> ","pl","thought","dash",",</w> i</w> have</w> ","</w> consequ","ject","</w> and</w> more","sea-","ing</w> such","</w> carri","</w> london","</w> a</w> most</w> ","away.</w> ","ia","weet</w> ","pt","no</w> harm","you</w> see,</w> ","kin","examin","diffic","remarkable</w> ","face.</w> “","general</w> ","in</w> and</w> ","if</w> the</w> ","request","</w> more</w> than</w> ","impos","kindness</w> ","</w> since</w> ",".</w> some</w> ","</w> herself","neck","</w> told</w> him","o</w> ","whale","</w> case","notice</w> ",";</w> and</w> when","qu","ers.</w> ","that</w> if</w> ","ement</w> ","princip","1.f","lap","talking</w> to</w> ","made</w> the</w> ","cause</w> of</w> ","pt</w> ","close</w> ","age-","old</w> man","</w> fin","protected</w> by</w> ","ing</w> something</w> ","</w> death","way</w> ","b","s</w> would</w> ","</w> app","alf</w> ","white</w> ","given",",</w> ‘","observ","lak","ped","show","</w> half</w> ","god</w> ","i</w> hope</w> ","them.</w> ","bumble,</w> ","value</w> ","upon</w> ","it</w> had</w> ","conduct</w> ","moral","fountain","realiz","ating</w> ","ers","much","out</w> and</w> ","ever</w> since</w> ","ifi","fund</w> ","ance.</w> ","</w> approach","that</w> mr.</w> ","common","committ","ow","fee</w> ","</w> grad","(c","lear","frown","head","ness</w> and</w> ","</w> paid</w> ","_.</w> ","ami","esteem","grasp",",</w> “","personal","among</w> the</w> ","bac","ough","at</w> least","go</w> and</w> ","ed</w> upon</w> the</w> ","cup","</w> sea","</w> as</w> well</w> as</w> ","pun","</w> seen",",</w> it</w> is</w> ","appeal","pent","mem","force</w> ","thought</w> ","dust","i</w> will","come.</w> ","affection","nerv","spee","</w> suddenly</w> ","</w> drink","willing</w> to</w> ","dashwood","</w> ask","well",",</w> i</w> sup","philos","the</w> very</w> ","being","not,</w> ","</w> home","g","quite</w> a</w> ","nail","not</w> have</w> ","fish","some","y--","reasonable</w> ","</w> to</w> a</w> ","ation,</w> and</w> ","ever</w> he</w> ","lix","</w> have</w> you","ash","guest","-house</w> ","then</w> i","project","hundreds</w> of</w> ","other</w> part","gardin","descend","improv","ouse","</w> as</w> to</w> ","jewel","altar","ist","sometimes</w> ","</w> a</w> sec","the</w> ","s</w> from</w> the</w> ",".</w> i</w> am","tell</w> him","peggotty","curiosity</w> ","loud","now","</w> '","outed</w> ","hotel","</w> on</w> the</w> ","e—","tender","a</w> str","twelve</w> ","attached</w> to</w> ","an</w> ap","everybody</w> ",".</w> i</w> think","ful</w> of</w> ","were,</w> ","preach","</w> might</w> have</w> ","a</w> min","hap","ings</w> of</w> ","z","west</w> ","vis","had</w> been</w> ","feelings</w> ","circumstance</w> ","bush","omin","sad","ale","s,—","story</w> ","</w> all</w> ","</w> reason","you</w> can’t</w> ","harpo","often</w> ","ee</w> ","objection","cather","</w> al","until</w> the</w> ","using</w> ","</w> his</w> ","a</w> f","ing</w> over","hum","father’s</w> ","be.</w> ","ood,</w> ","</w> mus","™","train</w> ",".”</w> the</w> ","has","able,</w> ","</w> det","taken","holder","told</w> ","agger","number</w> ","</w> about","one</w> and</w> ","</w> himself</w> ",",</w> with</w> a</w> s","</w> wood","e.</w> ","that</w> had</w> ","iant</w> ","marianne","</w> of</w> its</w> ","</w> minut",",'","traddles</w> ","whale</w> ","kid","up,</w> ","ably</w> ","you</w> can</w> ","i</w> sup","ston","earch","front</w> ","quit</w> ","my</w> dear","</w> sharp","</w> whale","3.</w> ","\"</w> \"","gif","life.</w> ","nothing</w> ","advant","</w> beautiful","account","a</w> great</w> ","grey</w> ","extra","fair","pro","</w> high","ground","gives</w> ","</w> voic","obtain</w> ","</w> can</w> i","ines","ed</w> their","•</w> you","ten","</w> enough","than</w> i","pover","attern","issu","neither","produc","soldi","should</w> ","compreh","editions</w> ","</w> what</w> i","effor","ile</w> ","ed</w> by</w> his</w> ","as</w> if</w> she</w> ","grad","</w> appe","beneath","proud</w> ","break","thre","ables</w> ","eye","ym","room</w> and</w> ","door</w> ","impati","the</w> only</w> ","itz","ashore","warrant","post","column",",</w> s","weep","asked.</w> “","little","terrible</w> ","over</w> the</w> ","arc","ents</w> ","agre","against</w> ","s,</w> or","with</w> no</w> ","a</w> hand","years,</w> and</w> ","ying</w> with</w> the</w> ","such</w> an</w> ","in</w> london","ity</w> to</w> ","indign","amore","an</w> old</w> ","quest</w> ","ten</w> ","field</w> ","address</w> ","ky</w> ","what</w> had</w> ","said",",</w> and</w> so</w> ","the</w> other","!’</w> ","agg","se-","frighten","tom","</w> man","!</w> he</w> ","out</w> in</w> the</w> ","give</w> it</w> ","ino","grief</w> ","house</w> ","you,</w> ","blam","intention</w> of</w> ","sat",".</w> he</w> was</w> ","no,</w> i","civil","lig","its</w> ","comfort","painted</w> ","in</w> a</w> low","brand","ing</w> me</w> ","weigh","seemed</w> to</w> ",",”</w> said</w> ","ing</w> this</w> ","ate.</w> ","wonderful","ely,</w> ","how</w> ","s;</w> ","the</w> best</w> ","s</w> about</w> ","pron","</w> received</w> the</w> ","</w> advant","this</w> is</w> the</w> ","dozen</w> ","private</w> ","</w> family</w> ","yourself</w> ","ent</w> and</w> ","ance</w> of</w> the</w> ","besides</w> ","rod","jar","then</w> the</w> ","</w> better","butter","jon","of","</w> gentleman","net","fanc","gri","ce</w> ","done</w> ",".</w> there</w> was</w> ","seem</w> to</w> ","believed</w> ","expenses,</w> ","cohn","uous</w> ","tong","</w> without</w> ","dition","morning</w> ","aterial","ing;</w> and</w> ","half</w> ","mon","fect</w> ","orous</w> ","attention","ing</w> a","h","justic","</w> cried</w> ","to-day","exertion","solitary</w> ","mir","(_","has</w> been","your</w> father","used</w> to</w> ","er</w> or</w> l","access</w> to</w> ","</w> copies</w> of</w> ",".</w> her</w> ","times</w> ","cle","happy</w> ","dress","e.</w> the</w> ","</w> satisfaction",".</w> this</w> ","cher","veal","</w> it</w> had</w> ",",”</w> said</w> holmes,</w> ","i</w> was</w> not</w> ","resid","answered</w> ","</w> mother","drink","cheer","history</w> ","&","uff","alone</w> ","ers</w> and</w> ","worst</w> ",",”</w> said</w> mrs.</w> ","tu","bennet,</w> ","suffic","yard","a</w> pair</w> of</w> ","rus","house</w> and</w> ","ense</w> of</w> ","</w> meet","presence</w> of</w> ","project</w> gutenberg","?—","she</w> had</w> ","</w> do","notic","inhabit","upon</w> them","boo","night.</w> ","</w> before","16","emerg","before</w> you","ed,</w> he</w> ","ale</w> ","</w> caught</w> ","ble,</w> ","’t</w> ","care","to</w> me</w> ","stepp",".</w> we</w> ","pock",",","</w> says</w> ","horse</w> ","</w> woman","look</w> at</w> ","</w> ab",".</w> they</w> were</w> ","continu","elinor","are</w> the</w> ","side</w> of</w> ","journey</w> ",",</w> when</w> he</w> ","assure","broken</w> ","wreck","for</w> that","yp","printed</w> ","</w> fear","power</w> of</w> ","starbuck","in</w> that</w> ","in</w> of</w> ","embarr","on</w> a","to</w> think","which</w> are","</w> depart","endure","as</w> i","honour","old</w> woman","pressed</w> ","es.</w> the</w> ","conv","encourag","</w> find</w> ","strength","different</w> ","ed</w> ","carry</w> ","s</w> his</w> ","it</w> seemed</w> ","ated</w> by</w> ","sne","sured</w> ","i've</w> ","and</w> you","</w> hardly</w> ","them</w> to</w> ","tom,</w> ","abeth","i</w> might</w> ","bound</w> ","belief</w> ","</w> pl","however,</w> ","mad","lett",",—and</w> ","never</w> be</w> ","being</w> a","</w> wick","per</w> ","</w> having</w> ","like</w> ","angu","establish","ves","as</w> soon</w> as</w> ","understood</w> ","side</w> ","appe","iec","—he</w> ","anything</w> about</w> ","eag","</w> ter","</w> cur","park","4.</w> ","compani","hys","agraph","once,</w> ","lights</w> ","jew,</w> ","ster</w> ","fifteen","one</w> who</w> ","wor","pursu","ghter","full</w> re","cha","to</w> sleep","blow","</w> in</w> a","age,</w> and</w> ","captain</w> ","to</w> ","fru","rope","</w> am","permission","bingle","find","plea","umble</w> ","conscious</w> ",",\"</w> ","pillar","which</w> was</w> ","e's</w> ","contrary,</w> ","wel","ed</w> against</w> ","fasc","</w> did</w> ","pour","me</w> to</w> ","accep","separ","uncle</w> ","it</w> seem","</w> fe","illustr",".”</w> she</w> ","popular","org","issipp","it</w> was</w> ","bast","discovery</w> ","</w> really</w> ","</w> town","iam","public</w> dom","</w> him","som","mast","instead</w> of</w> ","rat","winter","</w> with</w> a</w> ","led,</w> and</w> ","fortun","</w> pretty</w> ","ed</w> me</w> to</w> ","lost","ings</w> and</w> ","people</w> who</w> ","20","isn't</w> ",",</w> as</w> the</w> ","ep","de</w> ","support</w> ","ish","mere</w> ","’t,</w> ","bounderby,</w> ","assum","attracted</w> ","witnes","over</w> and</w> ","ability</w> ","ea","thoughts</w> ","they</w> ","never</w> mind</w> ","rol","day</w> ","then</w> ","gradgrind</w> ","unday</w> ","gain</w> ","conscious","’tis</w> ","es,</w> the</w> ","pocket-","a</w> wonder","boom","as</w> a</w> ","jip","sudden","</w> br","street</w> ","</w> you</w> to</w> ","busy</w> ","behind","ubber","</w> where","ation</w> to</w> ",",</w> to</w> ","col","i’ll","‘and</w> ","s,</w> she</w> ","_she","[illustration","sank",",</w> to</w> the</w> ",",’</w> said</w> i.</w> ‘","pose</w> ","bert</w> ","employ","mile</w> ","tic","estic",",</w> he</w> ","object","</w> she</w> had</w> ","</w> a</w> hundred</w> ","had</w> been","pit","way","ended</w> ","glad</w> ","patron","retired</w> ","</w> don't</w> ","grind","ed</w> away</w> ","project</w> gutenberg™","fill","course</w> ","igure",",”</w> and</w> ","steer","long,</w> ","jack","ation</w> and</w> ","rest</w> ",",”</w> said</w> mr.</w> ","practic","times,</w> ","</w> hard</w> ","ream","takes</w> ","was</w> to</w> ","itary</w> ","om","iour","elt</w> ","ross</w> ","shr","itude</w> of</w> ","said,</w> ","etting</w> ","</w> agn","at</w> present</w> ","</w> heaven","feeling","ward</w> ","qual","’n’","ould</w> ","y,</w> ","imit","d</w> of</w> ","eculiar","colored</w> ","ead</w> of</w> ","</w> more</w> than",",”</w> brett</w> ","steep","chance</w> ","amuse","oot","</w> mer","which</w> were</w> ","as</w> ","</w> of</w> these</w> ","passion","what</w> ","a</w> big","hush","</w> sound","jerus","</w> do</w> ",",</w> before","i</w> want</w> ","chap","smile</w> ",".</w> ","</w> j","erior","</w> like</w> a</w> ","</w> deser","see</w> him","ay,</w> ","write</w> ","y.</w> but</w> ","is</w> very</w> ","finally,</w> ","so</w> many</w> ","with</w> a</w> c","s</w> or","express</w> ",",</w> at</w> the</w> ","crossed</w> ","say","an","holm","s,</w> with","guil","adop",".</w> \"","yards</w> ","scrap","parties</w> ","alk","removed</w> ","sister","’s.</w> ","</w> again","itch","ings.</w> ","phi","of</w> that","copperfield,</w> ","attach","expected</w> to</w> ","getting</w> ","a</w> wor","that</w> i</w> am","</w> own","waited</w> ","a</w> good</w> ","dreadful","fail","in</w> fact,</w> ","umber","hav","archit","cess</w> to</w> ","</w> under</w> ",".</w> if</w> you</w> do</w> not</w> ","</w> mo","amaz","</w> dead</w> ","husband</w> ","ed</w> himself</w> ","oop","independ","</w> consider","</w> trem","day</w> and</w> ","butt","dismal","in</w> sil","head</w> of</w> the</w> ","robb",",</w> not</w> ","ook","desc","dang","desk","wip","rec","acquainted</w> ","rope</w> ","not</w> at</w> all","i</w> ever","ed</w> to","at</w> l","long</w> ","understand","micawber","interrup","on</w> a</w> ","burden","bild","</w> green","any</w> thing</w> ","sco",",”</w> replied</w> mr.</w> ","torn","tween</w> ","full</w> project</w> gutenberg™","laughter","ven</w> ","including</w> legal</w> fe","done","in</w> w","chapter</w> x","dead</w> ","</w> coll",":","ago","to</w> this</w> ","ram",".</w> then",",</w> or</w> the</w> ","ank","ld","prec","trouble</w> ","va","</w> father","urg","in","eagerly</w> ","noise</w> ","wood,</w> ","my</w> ","ing,</w> performing,</w> ","indis","at</w> last</w> ","</w> she</w> ","runk","said</w> he</w> ","hold</w> ","or</w> f","no</w> more","dish","</w> into</w> his</w> ","it.</w> ","fall","plac",",”</w> he</w> ","they</w> would</w> ","what</w> the</w> ","tak","</w> warn’t</w> ","</w> mike</w> ","ed</w> its</w> ",",</w> from","y-","rad","visit","knowled","i</w> could</w> have</w> ","this</w> work","lord","</w> spec","anxiet","strugg","he’s</w> ","sa","ue</w> ","with</w> me</w> ","hope","yer","error","next</w> ","ed</w> a</w> ","</w> information","lady</w> ","virg","</w> shoulder","by</w> and</w> by</w> ","jori","good-","ing;","silence</w> ","trud","circumst","it</w> would</w> ","ession","bad","</w> what</w> he</w> ","cl","ist</w> ","</w> as</w> they</w> ","noc","iann","hew","</w> hat","detail","</w> as</w> a</w> ","by</w> my</w> ","</w> only</w> ","</w> dut","</w> till","</w> shook","agnes","</w> rel","</w> frank","ise",";</w> then","</w> almost</w> ","</w> sometimes</w> ","golden","govern","toil","buried</w> ","sort","forgive</w> ","remembered</w> ","é","ed</w> at</w> ","at</w> that","sport","aid</w> ","foot",".</w> there</w> are","ed</w> to</w> ","ting","with</w> some</w> ","</w> st","</w> prob","</w> lady</w> ","ô","his</w> own","midst</w> ","</w> mak","if</w> you</w> ",",</w> or</w> ","learn","afr","p","</w> a</w> th","this","enjo","</w> want</w> to</w> ","</w> between","ork",";</w> it</w> was</w> ","adv","roar","john</w> ","cold","explanation","</w> think","ah,</w> ","that</w> it</w> is</w> ","out.</w> ","dr","pos","gay</w> ","</w> fl","oh,</w> i","then","dodg","impossible</w> ","ort,</w> ",",</w> now","take</w> a</w> ","'","een","arch","</w> step","happen","promis","wedd","one</w> of</w> the</w> ","</w> stand","includ","online</w> ","soo","ied</w> ","fer","darling","between</w> ","scream","son</w> ","</w> also</w> ","one</w> of</w> ","s</w> at</w> the</w> ","</w> to</w> me</w> ","one,</w> and</w> ","end</w> of</w> the</w> ","land</w> ","ing</w> along","fully,</w> ","oh!","afterward","ely","less,</w> ","grateful","build</w> ","ilos","s</w> on</w> ","itud","said:</w> “","</w> fall","man</w> ","pay</w> ","ready</w> to</w> ","hearted</w> ","</w> than</w> the</w> ","it</w> will","age.</w> ","es</w> were</w> ","royal","talked</w> ","a</w> bad</w> ","smo","impul","in</w> m","hear</w> the</w> ","report","chief</w> ","emma’s</w> ","himself</w> ","</w> beyond</w> ","begun","itizen","</w> a</w> cer","’ll","</w> hav","taught</w> ","propri","eable</w> ","take</w> ","try</w> ","land,</w> ","urday</w> ","you're",".</w> they</w> had</w> ","ity,</w> and</w> ","emark","ung","in-","friends</w> ","ins,</w> ","spoke</w> ","charg","shall","perfectly</w> ","clerk","abu","romero</w> ","</w> re","knowing</w> ","harm","for</w> my</w> ","thou","itude</w> ","judic","darc","</w> hold",",</w> and</w> made</w> ",".</w> i</w> shall","alone,</w> ","finite</w> ","ant","</w> nothing</w> ","great","</w> a</w> long",",</w> because</w> ","est</w> of</w> ","brownlow","foreign","=","viously</w> ","conveni","</w> three</w> ","could,</w> ","</w> hol","he’d</w> ","comply</w> ","fel","him.</w> ","pudd","tt","clin","elton","hit</w> ","</w> over</w> the</w> ","</w> near","twice</w> ","time</w> to</w> ","</w> dur","declar","tar","gl","on","eye</w> ","promot","time</w> and</w> ","</w> a</w> w","rais","flesh","past</w> ","</w> must</w> be</w> ","bert","than","pure","</w> direc","got</w> the</w> ","ility</w> ","</w> as","se</w> of</w> ","read</w> ","i</w> suppose</w> ","vagu","</w> pen","early</w> in</w> the</w> ","afternoon","s","cott","</w> bill","</w> there</w> was</w> ","count","sink","s</w> are</w> ","s</w> of</w> ","system","train","﻿","e.”</w> ","ty-","mit</w> ","visited</w> ","bum",".\"</w> she</w> ","suit","a-","span","pray</w> ","pitch","as</w> the</w> ","readable</w> ","cur","paper</w> ","quak","-ha","</w> fix",",</w> with</w> the</w> ","intend","led,</w> ","possessed</w> ","amoun","when</w> i","wretch","ised</w> ","occur","observed</w> ","by</w> that","</w> div","make</w> any</w> ","we’d</w> ","luck","else.</w> ","</w> where</w> ","by,</w> ","respond","</w> fast","master</w> copperfield","ing,</w> ","to</w> do","else,</w> ","</w> born","ed.</w> ","fine</w> ","assist","right","lac","y?","part</w> ","</w> a</w> dist","trust</w> ","lightn","pipe</w> ","</w> sil","discover","shall</w> not</w> ","</w> pri","men,</w> ","</w> all</w> my</w> ","jo","vol",",</w> you</w> know","around,</w> ","</w> along","rot","geor","sig","that</w> was</w> ","ould","shall</w> have</w> ","</w> sec","ed</w> it.</w> ","</w> fif","bag","i</w> heard</w> ","!_","say,</w> ","merc","young","s.</w> “","sleep","ed;</w> and</w> ","familiar","bur","cook","</w> afternoon","to</w> my</w> ","exhi","this,</w> ","satisfactor","so</w> ","**","on</w> board</w> ","isc","side</w> the</w> ","no</w> doubt</w> ","novel","don","pick","passing</w> ","creas","</w> see.</w> ","ran","y,</w> or",",</w> and</w> yet</w> ","</w> hope","inclin","fly</w> ","brain","every</w> body</w> ","the</w> window","entered</w> the</w> ","joe","nothing,</w> ","es.</w> if</w> ","this</w> agreement</w> ","</w> you</w> paid</w> ","how</w> do</w> you","confidence</w> ","success","</w> stre",".’</w> i","ings</w> ","dead","</w> at</w> the</w> ","to</w> go</w> ","</w> in</w> any</w> ","</w> cold</w> ","prospect","nigger</w> ","er</w> ","is</w> that","file</w> ","seven</w> ","</w> give</w> ","</w> tim","there</w> is</w> ","natur","necess","</w> five</w> ","bull-","defect","preserv","</w> well,</w> ","descri","pac","to,</w> ","ond","priv","?”</w> the</w> ","lic","appear","ed</w> he</w> ","</w> willough",",</w> i</w> ","are","swept</w> ","the</w> case</w> ","because</w> ","</w> in</w> this</w> ","</w> or","edward","wav","morning,</w> and</w> ","besides,</w> ","attitud","ld,</w> ","architect","pillow","often","</w> several","tal","cred","a</w> whole</w> ","--</w> \"","--\"",",</w> that</w> i","uriel","sil","ed</w> at","said.</w> “","libr","chapter</w> xxx","grat","ask","angry</w> ","soft</w> ","a</w> curious</w> ","</w> had</w> been","respect","it</w> and</w> ","</w> to</w> get</w> ","resolved</w> ","gently</w> ",",</w> all","blind</w> ","body</w> ","nose","round","sal","tight","for</w> a</w> few","the</w> matter","reserv","herself</w> ",",</w> which</w> was</w> ","neglec","</w> way</w> ","together","cold</w> ","oath","a</w> sudden",",</w> with</w> his</w> ","old-","ed;","power","1.e.","let</w> the</w> ","</w> through","any</w> ","</w> heard</w> ","jew","adam","fig","</w> morn","sit</w> down","bitter","good,</w> ","ho","got</w> to</w> ","gone.</w> ","aug","in</w> the</w> world</w> ","darn","it--","ed,</w> “","aken","jerr","make</w> a</w> ","new</w> orlean","ing</w> a</w> s","pread</w> ",",</w> i</w> believ","original</w> ","shore","time","pop","niec","going</w> to</w> be</w> ","tro","</w> hea","damp","cock","</w> hadn’t</w> ","sw","ise,</w> ","solicit</w> ","suff","resol","property</w> ",".</w> tom","act","copy","just","</w> perhap","ativ","</w> direction","usual</w> ","</w> wr","at</w> all</w> ","i</w> re","constantly</w> ","necessary</w> ","olitary</w> ","if</w> she</w> ","</w> to</w> have</w> ","outside</w> the</w> ","essed</w> ","mrs.</w> spar","y,</w> who</w> ","deem","asper","seren","home</w> ","</w> which","cer","gen","trotw","os","natural","ly,</w> and</w> ","meet","ic</w> ","country","•","uttered</w> ","greater</w> ","truth","ci","ed</w> about</w> ","eve</w> ","tid","service</w> ","</w> adv","itable</w> ","unable</w> to</w> ","ed</w> no</w> ","ster","jerk","inf","home","stre","ousand</w> ","ok","twenty-","in</w> d","rum","mission</w> of</w> ","churchill","that</w> he</w> is</w> ","glori","engagement","</w> she</w> would</w> ",",</w> one</w> ","notion","</w> small","ed</w> the</w> door","fr","ating</w> the</w> ","ve",",</w> we</w> ","shortly</w> ","stand","publish",",</w> the</w> ","patch","udder","dece","nific","places</w> ","ing</w> ac","</w> he</w> ","simp","st,</w> ","{","</w> d","other","ards</w> the</w> ","</w> ag","sho","manner,</w> ","letter</w> ","later","day.</w> ","five</w> hundred</w> ","lyn","or</w> re","</w> mid","end</w> ","him,</w> and</w> ","ey","</w> going</w> to</w> ","it</w> must</w> be</w> ","humour","</w> in</w> the</w> same</w> ","ier</w> ","ace</w> ","turned</w> the</w> ","</w> i</w> shall","i.</w> ","appeared</w> ","i</w> want","www.gutenberg.org","wouldn’t</w> ","sally</w> ","knowledge</w> of</w> ",".</w> there</w> were</w> ","might</w> be</w> ","being</w> so</w> ","two","access</w> ","have</w> been","hood","individual","due</w> ","ab","ian","looking</w> ","</w> women","ress","let</w> him","entiment","ian</w> ","deep","for</w> any</w> ","batt","</w> him,</w> ","ment,</w> ","on</w> that","</w> sel","pictures","profession","two</w> hundred</w> ","</w> hou","volunteers</w> ","e,</w> to</w> ","ound,</w> ","for</w> all","ignor","langu","</w> in</w> s","correc","utt","</w> gall","ancy</w> ","od</w> ","lock</w> holm","and,</w> ","ed</w> mr.</w> ","with</w> you","ass</w> ","\"</w> ","reach","afford</w> ","an’","after</w> all","electr","sus","should</w> have</w> ","spectac","manner</w> ","figure","around","roy","so,</w> ","hail","</w> twent","</w> haven’t</w> ","first","!”</w> ","riek","art</w> ","lovely</w> ","</w> shore","and</w> a</w> ","depend","something","jam","ed</w> from</w> ","ure","vex","at</w> first</w> ","gotty</w> ","</w> wer","bernice</w> ","his</w> ","i</w> can","uct","</w> in</w> his</w> ","his","judgment</w> ","clear","</w> accoun","ful</w> ","</w> her</w> s","stra","</w> mag","imply</w> ","eyes.</w> ","grand</w> ","in</w> any</w> ","jection","le,</w> and</w> ","sea","you</w> will","s</w> in</w> ","lay","ation</w> of</w> the</w> ","est</w> and</w> ",".</w> when","eather",",</w> if</w> you","square","one.</w> ","driv","difficulty</w> ","honest</w> ","lead</w> ","punch","eth","if</w> you</w> are","ame</w> defar","reco","</w> astonish","</w> myster","</w> getting</w> ","into</w> the</w> room","wi","y;","ester","ourish","would</w> ","</w> her</w> sister","</w> grav","room,</w> and</w> ","with</w> a</w> s","joseph","ations.</w> ","a</w> m",",</w> had</w> ",".</w> .</w> ","al</w> of</w> ",",</w> and</w> went</w> ","all</w> right","different","ention","</w> may","harr","develop","ve</w> ","</w> help","decision","welcome</w> ","η","ed</w> my</w> ","</w> can</w> ","devil","</w> should</w> be</w> ","across</w> the</w> ","book","charles</w> ","moment</w> ","grown","contempl","rand",".</w> we</w> had</w> ","lamp","to</w> me.</w> ","arrangement","exist","wit","dart","ed</w> him</w> to</w> ","counter","</w> remain","</w> upon</w> his</w> ","perhap","</w> luc","in</w> a","udd","left","m","e</w> of</w> ","led","ridg","gon",",000","ed</w> again","univers","got","i</w> couldn’t</w> ",",</w> in</w> my</w> ","oliver</w> ","ublish","i</w> sat","having</w> ","</w> hung","added,</w> ","ed</w> before","have</w> you","when</w> the</w> ","without</w> any</w> ","</w> a</w> week","on,</w> ","ences</w> to</w> ","you","</w> calm","both</w> of</w> ","health","</w> medium","sorr","importance</w> ","</w> us","ing</w> for</w> the</w> ","his</w> hand</w> ","to</w> be</w> the</w> ","nor</w> ","liberty</w> ","fee","</w> over</w> ","iation","</w> after</w> ","</w> happy</w> ","never</w> seen","miss</w> ","ton","ing</w> about</w> ","head,</w> and</w> ","loud</w> ","e</w> and</w> ","comfort</w> ","women","ed</w> to</w> him","yet","think","....","rott","an</w> in","es,</w> i","pital","attent","</w> (","as</w> if</w> he</w> ","somehow","provision","at</w> the</w> ","</w> appeared</w> ","what</w> do</w> you</w> mean","mach","at</w> least</w> ","fully</w> ","</w> un","being</w> s","enjoy","correspond","perf","i</w> told</w> ","thing","replac","face</w> was</w> ","directly</w> ","dep","liver","clasp","resum","</w> months</w> ","</w> rem","</w> associated</w> ","days.</w> ","e</w> to</w> ","else","ceremon","only</w> to</w> ","distance</w> ","murdstone,</w> ","--","tail","the</w> old</w> ","ker","trick","zuri","either","all</w> of</w> ","farther","</w> me,</w> ","(c)","live,</w> ","<unk>","found</w> ","</w> suc","eleg","more","ney</w> ","onstr","fact,</w> ","what</w> you","none</w> of</w> ","</w> thou","</w> a</w> l","ld</w> ","ver</w> ","?”</w> “yes,</w> ","won’t</w> ","apparen","pilgrim","ium","</w> whole</w> ","scious</w> ","very</w> ","above</w> ","centr","warn",".</w> on</w> the</w> ","s</w> in</w> the</w> ","milk","readful","returned</w> to</w> ","</w> there","imper",".</w> he</w> said</w> ","top</w> of</w> the</w> ","fallen","office,</w> ","iron","e</w> and</w> the</w> ","a</w> word</w> ","famous</w> ","ge","le</w> of</w> ","</w> that</w> the</w> ","</w> particular","individ","troubl","amm","so</w> long","lon","</w> when</w> i","</w> i</w> know",">","</w> as</w> the</w> ","charac","of</w> course</w> ",",</w> her</w> ","martin","quiet",".--","in</w> town","ed</w> themselves</w> ","fact","wagon","sk","young</w> lady</w> ","</w> reckon","anything</w> ","e!","all</w> my</w> ","whist","faint</w> ","at</w> this</w> ","men",";</w> though","instant</w> ","from</w> a","are</w> you","who</w> is</w> ","terms</w> of</w> this</w> agreement</w> ","me</w> the</w> ","again,</w> ","all","olly</w> ","satisfi","</w> tru","</w> war","narr","</w> have</w> to</w> ",".</w> i","ate","</w> person","loved</w> ","th","sion</w> of</w> ","company</w> ","love","wood","</w> soon","hundred</w> ","elop","</w> there</w> were</w> ","tor","mr.</w> dick","reproach","</w> said,</w> ","</w> flo","twent","quisite</w> ","bsite</w> ","e,</w> as</w> ","into</w> a</w> ","</w> that</w> you","uce</w> ","</w> appear","for</w> him","stem","engagement</w> ","possibly</w> ","</w> pos","</w> continu","fil","y!","neighbour","from</w> one</w> ","etimes</w> ","</w> assure</w> you",",</w> sir,</w> ","uz","thy</w> ","</w> too</w> much","girls</w> ","him</w> and</w> ","freely</w> ","her</w> husband","s</w> which","in</w> a</w> f","will","tre","*</w> *</w> ","</w> those</w> ","</w> sent</w> ","es.”</w> “","ckon","s</w> and</w> expenses,</w> ","key","never</w> had</w> ","an</w> air","</w> or</w> destroy</w> ","tted</w> ",";</w> or","card","s,</w> “","?”</w> inquired</w> ","accord","with</w> her",";</w> and,</w> ","</w> a</w> d","south","ed.</w> the</w> ","ation","took</w> it</w> ","fast</w> ","</w> sen","kitch","romantic","lion","in</w> the</w> united</w> states</w> without</w> ","plain</w> van","umbl","again","</w> in</w> its</w> ","miss</w> pros","observation","official","she,</w> ","mag","isher","arrow","gain","ister</w> ","roy</w> ","</w> looking</w> ","age</w> ","rain</w> ","thro","dis","with</w> me","another</w> ","lu","</w> mr","in</w> fron","ggest","bent</w> ","prosper","ing-room","bly</w> ","*","in</w> her</w> ","heav","ocrat","with</w> a</w> ","</w> such</w> a</w> ","race</w> ","help","</w> s","call","tty</w> ","liv",",</w> were</w> ","sack","ing</w> of</w> his</w> ","orr","s,</w> so</w> ","</w> circumst","ient</w> ","coar","</w> might</w> be</w> ","</w> able</w> to</w> ","a</w> b","ber</w> of</w> ","s,</w> i","</w> far","cast</w> ","</w> add","</w> st.</w> ","friendly</w> ","palm","the</w> most</w> ","a</w> large</w> ","ual</w> ","sir</w> john","communication","was</w> ","wrong","</w> things</w> ","dul","ing,</w> and</w> ","mor","ared","part</w> of</w> the</w> ","situation","link","</w> common","</w> husband</w> ","fun","deb","woodhouse,</w> ","reflection","ubb","nine</w> ","ished</w> ","wholly</w> ","very</w> little</w> ","tly</w> ","sh","interest","ing</w> its</w> ","</w> so,</w> ","es</w> that","umn","meal","here,</w> and</w> ","supp","began</w> ",",</w> and</w> as</w> ","curi","lipp","!\"</w> she</w> ","ground</w> ","a,</w> and</w> ","how</w> much","appoint","marjori","with</w> their","by.</w> ","oud</w> ","ruin","himself","</w> before</w> the</w> ","place</w> ","</w> of</w> that","itting</w> ","that</w> you</w> have</w> ","sider","attemp","conven","saying</w> ","in</w> one</w> ","mary</w> ","</w> determin","arett","</w> good","to</w> her","enu","seigneur","soon</w> ","</w> struck","last</w> ","mean","id</w> ","perm","rip","continue</w> ","</w> thing","dar","three</w> or</w> four","</w> forty</w> ","</w> of</w> a</w> ","</w> acros","les</w> of</w> ","until","cri","</w> they</w> had</w> ","nation","</w> dro","</w> here</w> ","ting</w> ","or</w> three</w> ","oliver’s</w> ","</w> great</w> ","this</w> time</w> ","desp","determin","</w> a</w> fri","seen</w> him","squ","</w> certain","int</w> of</w> ","igin","electronic</w> work","</w> part","address","bru","ous</w> ","cap","excell","</w> tried</w> to</w> ","</w> money</w> ","sing","of</w> course,</w> ","tin","slowly</w> ",".</w> with","we</w> all",",</w> for</w> the</w> ","here","in</w> con","</w> steam","al</w> ","ment</w> ","anth","</w> hope</w> ","ought</w> to</w> be</w> ","</w> a</w> per","mitt","utterly</w> ","part","—but</w> ","</w> away</w> from","mistak","curios","</w> sh","silent","long","t</w> the</w> ","not","</w> he</w> is</w> ","ies</w> of</w> ","</w> who</w> was</w> ","</w> came</w> ","alf","ight","</w> do</w> you","brought</w> ","et,</w> ","well,</w> i","to</w> be</w> sure","</w> looked</w> at","region","van","oose</w> ","</w> to</w> make</w> ","er</w> to</w> the</w> ","into</w> his</w> ","sc","cord","</w> distribu","ill-","</w> tax","</w> that</w> he</w> ","acknowledg","</w> claim","ing</w> up","i</w> only</w> ","s</w> for</w> the</w> ",",</w> that</w> ","gos","oh","ant</w> to</w> ","thus","et","eak","es</w> the</w> ","fro","ing</w> al","ie</w> ","s)","ing</w> s","ax","</w> so","the</w> wha","light</w> and</w> ","laws</w> ",",</w> but</w> not</w> ","in</w> lieu</w> of</w> a</w> ","aur","a</w> little</w> ",".</w> one</w> ","v",".</w> as</w> ",".</w> i</w> ","</w> round</w> ","doing</w> ","so</w> very</w> ","blessed</w> ","at</w> a","</w> sign","effort","go","smooth","liar","real</w> ","splend","</w> are</w> ","within</w> the</w> ","</w> it,</w> ","child","</w> langu","</w> disclaim","t</w> was</w> ","men</w> and</w> ","task","son","how</w> to</w> ","lid</w> ","mult","seems</w> ","gnor","</w> comfor","otion","for</w> an</w> ","</w> de</w> ","dick","</w> got</w> to</w> ","</w> comfort","ling</w> ","valu","them</w> ","ose</w> ","world",",”</w> said</w> the</w> ","ause,</w> ","._","</w> dead","referred</w> ","ble","innoc","</w> another","s,</w> as</w> ","to</w> me,</w> ","sort</w> of</w> ","ently,</w> ","wickfield","opinion","ence</w> ","but</w> one</w> ","every</w> day</w> ","haust","e-","camp",".</w> i’m","down</w> the</w> ","required</w> ","thedr","laughed</w> ","is_","it.</w> ‘","came</w> out</w> ","ain</w> ","s,</w> to</w> ","epend","coal","ye,</w> ","to</w> keep","it,</w> ","’ve</w> got</w> ","</w> steer","mounted</w> ","arriage</w> ","disgu",";</w> he</w> was</w> ","</w> whisper","that</w> there","according</w> to</w> ","oud","achel","kno","asp","coming</w> ","brid","spare","</w> it</w> is</w> ","opp","might</w> have</w> been",";</w> and</w> as</w> ","effort</w> to</w> ","</w> brother","idow","as</w> she</w> ","four",".</w> mr.</w> ","olk","hal","udi","var","such</w> a</w> ","object</w> ","said</w> ","regard</w> ","noble</w> ","</w> wall","ing","is</w> the</w> ",",</w> who</w> had</w> ","think</w> it</w> ","knows</w> ","mrs.</w> spars","divid","made</w> a</w> ","drawing-room","butch","wondered</w> ","height","half</w> an</w> hour","ated,</w> ","se</w> ","</w> told</w> ","ing</w> in</w> ",":</w> ‘","ron","virtu","theat","leisure","shell","</w> shut</w> ","ed</w> to</w> the</w> ","ator","action","fifty</w> ",".gutenberg.org","recogn","enter</w> ","it</w> in</w> the</w> ","</w> with</w> the</w> ","clock","ered</w> ","doll","result","acquaintance</w> ","</w> break","ek","se.</w> ","</w> copper","and</w> mrs.</w> ","thr","ative</w> ","baby</w> ","der</w> ","pens","urn","what</w> did</w> ","hysical</w> medium","s</w> or</w> ","alem","extrem","</w> return","—and</w> ","red</w> ","</w> why</w> ","alter","</w> creat","acquaint","quar","fool","which</w> had</w> ","rele","</w> dat","d</w> ","enn","prodig","accustom","led</w> to</w> ","concerning</w> the</w> ","me,</w> and</w> ","</w> collection","woman","urios","</w> compan","at</w> any</w> ","ed,</w> i","get","nantuck","pig","took</w> the</w> ","gathered</w> ",",”</w> bill","dais","days,</w> ","</w> was</w> to</w> ",";</w> and</w> if</w> ",",\"</w> he</w> ","y:","suggestion","ous.</w> ","inconveni","mix","limb","and</w> so</w> ","retreat","hab","emon","s</w> at","outhern","i</w> am</w> not</w> ","s,</w> he</w> ","s,</w> and</w> then",",</w> which</w> is</w> ","alice</w> ","been</w> ","anthony</w> ",".</w> now","micaw","y.”</w> ",",</w> i</w> think","it</w> is</w> not</w> ","</w> me</w> and</w> ","gett","antly</w> ","didn’t</w> ","cano","din","we’re","tell</w> you","</w> than","ision","ature","e;</w> but</w> ","house</w> of</w> ","</w> meet</w> ","donations</w> ","es</w> in</w> the</w> ","micawber</w> ","mur","to","beaut","s</w> are","e.</w> and</w> ","oud</w> of</w> ","we</w> could</w> ","</w> this</w> work","travel","ublic","e</w> of</w> the</w> ","deser","</w> peri","about</w> ","heart","ime</w> ","</w> dev","?”</w> i","who</w> had</w> ","what’s</w> ","andon","tomorrow","_was_","</w> to</w> do</w> ","softly</w> ","burn","will</w> not</w> ","</w> any</w> ","affair","recall","seemed</w> ","elin","utch","shipp","anywhere</w> ","ted,</w> ","record","these</w> ","glo","ile","</w> literary</w> arch","gold","erous</w> ","round,</w> ","every","</w> may</w> ","commerc","</w> tell</w> you","ing</w> against</w> ","emi","long</w> as</w> ","temple","fain","maur","section","erc","answer</w> ","evidently</w> ","than</w> ","</w> posses","highest</w> ","</w> so</w> many</w> ","trembl","</w> brought</w> ","a</w> spec","kne","complex","sometimes,</w> ","conf","conci","tter</w> ","wish","build","adver","same</w> ","ed</w> only</w> ","up</w> there","?",".</w> my</w> ","</w> your</w> ","can</w> ","yet</w> ","(","</w> mark","</w> their","drop","?</w> ","s-","original","spir","outw","ment","soon","’em","</w> did</w> not</w> ","ceas","belong","mr.</w> micawber","</w> aff","</w> grate","inform","to</w> you","ence</w> to</w> ","es</w> to</w> ","waist","we</w> have</w> not</w> ","’</w> ","</w> dinn","bestow","steam","u.s.</w> ","that’s</w> the</w> ","pale","of</w> course","s</w> with</w> ","τ","i</w> d","still","a</w> short</w> ","_he_","abell","complying</w> with</w> the</w> ","stri","i</w> _","at</w> him","ati","ali","</w> of</w> an</w> ","on</w> him","pleasure","ering</w> ","iety</w> of</w> ","him</w> up","whisper","your","</w> a</w> c","wise","won","was,</w> ","comprehend</w> ","stood</w> ","rece","his</w> head</w> ","four</w> ","ing</w> was</w> ","resign","</w> wil",".</w> i</w> do</w> not</w> ","rid</w> ","jim","occurred</w> ","</w> coh","ople</w> ","’s,</w> ","</w> clo","ing,</w> but</w> ","as</w> it</w> ","_you","iv","thirty</w> ","ities</w> and</w> ","stair","at</w> her</w> ","ingular","ness</w> ","s</w> came</w> ","man</w> who</w> ","inion","foolish","you</w> c","seek","ing</w> with</w> ","</w> 1.e.","!</w> but</w> ","</w> daughter","such","ying","</w> call","ride</w> ","</w> please","that</w> in","drank","till","hammer","ember","</w> r","phrase</w> “project</w> gutenberg”","eat</w> ","want","</w> set</w> ","s</w> on</w> the</w> ","</w> have</w> been","?\"</w> he</w> ","</w> wrong",",</w> though","</w> different</w> ","</w> tw","e.</w> “","fairfax","evol","?\"","smok","land","free</w> ","vig","pleasant","</w> head</w> ","i</w> cannot</w> ",".’</w> mr.</w> ","a</w> c","he","ants</w> ","business,</w> ","rever","</w> license</w> ","solic","ap","experience</w> ","brisk","</w> be","</w> sort</w> of</w> ","with</w> a</w> f","ffer","that</w> he</w> had</w> ",",</w> if</w> ","sign","easy</w> to</w> ","friend","deeply</w> ","pian","respect</w> ","all,</w> ","library</w> ","all</w> this</w> ","</w> hill","editor",".</w> 1.e.","sitt","</w> in</w> the</w> ","a,</w> ","cool","again.</w> ","legs</w> ","swe","</w> from","him</w> ","broad</w> ","an</w> inst","man’s</w> ","shar","isely</w> ","</w> sett","begg","up</w> in</w> the</w> ","ual","doc","certain</w> ","taking</w> ","ses,</w> ","with","</w> provide</w> ","i</w> s","sol","</w> y","quickly</w> ","</w> with</w> a","-tm","</w> captain","neat","</w> dist","sea</w> ","turn","</w> and</w> the</w> ","into</w> the</w> ","excellent</w> ","horn","vid","ummer","must</w> have</w> been","moun","î","discus","unk","named</w> ",";</w> the</w> ","door,</w> and</w> ","decid","ement","tos","that</w> i</w> was</w> ","s</w> of</w> her</w> ","ly</w> ","my</w> own","we</w> shall",",</w> i</w> suppose","@","chair","</w> pre","dial","</w> six","important</w> ","!'","i</w> ask","depart","ending</w> ","always</w> been","shiver","the</w> p","ate,</w> ","</w> come</w> to</w> ","aware","pequod","stor","down</w> to</w> ","up,</w> and</w> ","</w> int","could</w> ","ity</w> ","</w> still","anything</w> but</w> ","ed</w> off</w> ","her</w> mother","vast</w> ","5.</w> ","</w> will","struck","lab","to</w> do</w> ","enorm","pocket</w> ","wound","jacqu","do</w> it</w> ","underst","an</w> hour","knock","asham","iled</w> ","glov","fault","</w> sleep","</w> sn","uliar","cent","list","</w> particularly</w> ","ed-","words,</w> ","asked</w> ","will</w> be</w> ","</w> bar","</w> feet</w> ","</w> laid</w> ","slip","reliev","s,</w> the</w> ","cam","arge</w> ",";</w> his</w> ","</w> go</w> ","mill","</w> of</w> it</w> ","one</w> of</w> his</w> ","clar","collect</w> ","</w> a</w> great","harpoon","an</w> ad","wh","them","one</w> of</w> them","</w> all</w> his</w> ","shall</w> be</w> ",".</w> _","liance</w> ","under</w> his</w> ","odd</w> ",".</w> it</w> was</w> a</w> ","</w> case</w> ","agn","</w> first","incre","wore",".</w> to</w> ","fix","o'","general","intellig","</w> rest","</w> sitting</w> ","cu","seeing</w> ","possession","with</w> a","</w> low",".</w> mrs.</w> ","of</w> those</w> ","y.</w> i","with</w> the</w> ","e</w> ",",</w> so</w> ","ty,</w> ","let’s</w> ","iety</w> ","prett","monseigneur","expense</w> ","exhaust","arrant","angr","</w> circ","months</w> ","</w> soon</w> ","up","rav","ized</w> ","like</w> this","eau","</w> had</w> been</w> ","tort","found</w> the</w> ","away</w> from","treasure","</w> perfectly</w> ","</w> ex","pose,</w> ","right</w> ","by-and-","word</w> ","sum","me</w> and</w> ","interval","inde","sec","asm","its,</w> ","or</w> four","status</w> of</w> ","med","liev","pec","tell","that</w> d","anno","ed</w> myself</w> ","</w> she</w> could</w> ","ollow","officer","hop","outside</w> ","ü","</w>","</w> below","although","conclusion","</w> access</w> to</w> ","twin","looked</w> up","a</w> mere</w> ","england","ast</w> ","tan","gentle","struggl","all</w> over","y.</w> \"","ingu","oh,</w> ","key</w> ","</w> a</w> good</w> ",".</w> “and</w> ","recollection","active</w> ","coll","!’","knowledge</w> ","print","guar","hunt","</w> tell</w> me</w> ","kissed</w> ","er’s</w> ",",</w> with</w> ","ing</w> her</w> ","ly.</w> \"","illustration","night,</w> and</w> ","companion","volunt","paren","respon","into</w> ","out</w> of</w> his</w> ","</w> saf","aliz","excep","us","it</w> was</w> not</w> ","ys","oil","for</w> ","ach","i</w> was</w> ","wher","</w> a</w> h","ake","relation","</w> never</w> ","</w> out</w> of</w> ","ast","tend","sweep","signific","e_","?”</w> “","ed</w> herself</w> ","drew",",</w> dear","fit</w> ","engl","farm","knew","this</w> agre","onder","rup","1.e.9","nearest</w> ","best</w> ","t</w> of</w> his</w> ","</w> ",")</w> ","ly","ies</w> and</w> ","</w> which</w> she</w> ","i</w> didn’t</w> ","glor","</w> in</w> their","plain</w> ","kept</w> ","though</w> he</w> ","</w> company</w> ","choose</w> ","section</w> ","oke</w> ","that</w> f","augh","ili","happy,</w> ","upon</w> my</w> ","villain","</w> off</w> ","ing</w> out</w> ","continually</w> ","hos","ield</w> ","bloom","henry</w> ","reluct","habit</w> of</w> ","did","inst","new</w> york","memor","read</w> the</w> ","</w> bre","proceed",",”</w> said</w> he,</w> ","entertain","crowd","uge</w> ","nois","-p","through","a</w> most</w> ","off</w> ","air</w> of</w> ","hun","that</w> she</w> was</w> ","despair","eyes</w> and</w> ","cro","under</w> the</w> ",",</w> of</w> cour","jeal","valuable</w> ","</w> con","ed</w> away","</w> compliance</w> ","ed</w> with</w> the</w> ","</w> word","the</w> two</w> ","mourn","</w> coun",",</w> that</w> the</w> ","ed</w> from","tomb","</w> himself","song","s</w> upon","</w> makes</w> ","visham","a</w> mile</w> ","rachael","</w> york","champ","bird","</w> gener","</w> air","cut","face,</w> ","atter</w> of</w> ","</w> had</w> not</w> ","it.</w> and</w> ","expressive</w> ","thor","written","ir","contin","</w> surpri","</w> two","indem","ù","thetic","opportunity</w> ","</w> by</w> the</w> ","delicate</w> ",";</w> we</w> ","suc","was</w> very</w> ","</w> miss</w> ","</w> sm","</w> sl","</w> ship",",”</w> brett</w> said.</w> “","</w> strang","fif","</w> out","</w> plain","lips</w> ","prison","group","achael","s</w> have</w> ","oman","that</w> i</w> should</w> ","straw","ain</w> of</w> "],"merge_rules":[["t","h"],["i","n"],["th","e"],["a","n"],["e","r"],["o","u"],["o","n"],["r","e"],["a","t"],["an","d"],["</w>"," "],["e","</w> "],["s","</w> "],[",","</w> "],["d","</w> "],["t","</w> "],["the","</w> "],["y","</w> "],[".","</w> "],["o","</w> "],["e","n"],["and","</w> "],["f","</w> "],["e","d</w> "],["in","g"],["o","r"],["t","o</w> "],["a","r"],["o","f</w> "],["</w> ","h"],["</w> ","s"],["l","l"],["</w> ","a"],["</w> ","w"],["</w> ","the</w> "],["s","t"],["a","s</w> "],["i","s</w> "],["o","m"],["i","t"],["c","h"],["o","w"],["ing","</w> "],["l","e"],[",</w> ","and</w> "],["</w> ","m"],["h","a"],["y","ou"],["er","</w> "],["s","e"],["b","e"],["th","at"],["i","m"],["h","e</w> "],["w","h"],["g","h"],["i","t</w> "],["l","i"],["a","</w> "],["f","or"],["a","l"],["i","s"],["e","s"],["i","on"],["i","th"],["n","o"],["v","e</w> "],["r","i"],["l","y</w> "],["v","er"],["l","d</w> "],["r","o"],["a","s"],["b","u"],["</w> ","c"],["o","o"],["u","n"],["a","c"],["i","r"],["</w> ","d"],["l","e</w> "],["w","as</w> "],["i","c"],["</w> ","and</w> "],["e","d"],["a","d"],["a","ll"],["w","ith"],["e","s</w> "],["in","</w> "],["a","m"],["i","d"],["en","t"],["</w> ","of</w> "],["”","</w> "],["u","s"],["e",",</w> "],["u","p"],["the","r"],["e","c"],["ou","ld</w> "],["no","t</w> "],["u","r"],["</w> ","p"],["bu","t</w> "],["a","g"],["</w> ","i"],["</w> ","to</w> "],["a","y"],["i","d</w> "],["n","e"],["e","l"],["</w> ","f"],["o","s"],["er","e</w> "],["b","e</w> "],["</w> ","t"],["a","b"],["ou","t</w> "],["i","ll"],["e","m"],["t","er"],["s",",</w> "],["e","ar"],["</w> h","a"],["i","l"],["o","re"],["</w> w","as</w> "],["a","y</w> "],["a","in"],["ha","d</w> "],["</w> w","h"],["gh","t</w> "],["</w> ","in"],["h","is</w> "],["ou","n"],["n","ow"],["-","-"],["a","k"],["o","p"],["en","t</w> "],["s",".</w> "],["of</w> ","the</w> "],["’","s</w> "],["</w> h","e</w> "],["e",".</w> "],["b","y</w> "],["s","h"],["</w> ","th"],["ou","r"],["on","e</w> "],["r","om"],["q","u"],["a","p"],["</w> ","the"],["c","om"],["e","ll"],["”</w> ","“"],["</w> h","is</w> "],["a","id</w> "],["ow","n"],["oo","k"],["</w> ","g"],["</w> ","l"],["at","ion"],["re","s"],["t","r"],["</w> ","you"],["y",",</w> "],["m","y</w> "],["e","x"],["c","on"],["e","t"],["u","t"],["u","l"],["b","o"],["h","im"],["c","e</w> "],["s","he</w> "],["ver","y</w> "],["in","</w> the</w> "],["a","re"],["i","ch"],["an","</w> "],["e","p"],[";","</w> "],["gh","t"],["s","u"],["ed</w> ","to</w> "],["p","ro"],["a","w"],["o","l"],[".</w> ","“"],["o","ther"],["s","e</w> "],["the","re"],[".</w> ","i"],["on","g"],["an","y</w> "],["m","r"],["se","l"],["e","v"],["ha","ve</w> "],["th","is</w> "],["p","er"],["e","a"],["f","f"],["h","er"],["s</w> ","of</w> "],["e","t</w> "],["f","rom"],["p","l"],["s","o</w> "],["d","er"],["d","i"],["n","o</w> "],["</w> w","ith"],["</w> s","aid</w> "],["’","t</w> "],["the","y</w> "],["be","en"],["w","ere</w> "],["at","</w> "],["wh","en"],["ou","gh"],["w","e</w> "],["it","t"],["u","m"],["g","o"],[".","”</w> “"],["o","c"],[",</w> ","i"],["s","p"],["that","</w> "],["u","re"],["k","now"],["om","e</w> "],[";","</w> and</w> "],["</w> s","t"],["b","er"],["</w> ha","d</w> "],["to</w> ","the</w> "],["h","er</w> "],["s","i"],["on","</w> the</w> "],["k","e</w> "],["g","r"],["ac","k"],["</w> h","im"],["w","or"],["</w> s","he</w> "],["us","t</w> "],["c","l"],["ec","t"],["d","e"],["o","ld</w> "],["</w> ","re"],["it</w> ","was</w> "],["am","e</w> "],["f","i"],["ar","t"],["m","e</w> "],["m","an"],["s</w> ","and</w> "],["mr",".</w> "],["</w> ","b"],["ar","d"],["wh","ich"],["t","t"],["ed",",</w> "],["</w> a","s</w> "],["an","t"],["en","d"],["f","ore"],["u","ch"],["</w> m","y</w> "],["s","t</w> "],[".</w> ","the</w> "],["t","w"],["the","n"],["e","st"],["the","m"],["in","k"],["</w> a","ll"],["</w> ","be"],["d","o"],["n","i"],["</w> ","that"],["p","e"],["ed</w> ","the</w> "],[",","”"],["</w> ha","ve</w> "],["p","o"],["l","ook"],["c","o"],["w","ould</w> "],["ak","e</w> "],["t","im"],["wh","at"],["</w> h","er"],["an","c"],["an","g"],["</w> ","for"],["d",",</w> "],["th","ing</w> "],["a","f"],["oo","d</w> "],["oun","d</w> "],["</w> s","h"],["is","h"],["ec","t</w> "],["ab","le</w> "],["i","f</w> "],["b","l"],["y",".</w> "],["ur","n"],["le","s"],["e</w> ","of</w> "],["li","ke</w> "],["es",",</w> "],["e",",</w> and</w> "],["v","er</w> "],["</w> h","er</w> "],["t","ion"],["a","v"],["t",",</w> "],["os","t</w> "],["a","st"],["i","v"],["l","o"],["itt","le</w> "],["ing","</w> a"],["ou","s</w> "],["e","ver"],["g","re"],["f","e"],["s","o"],["os","e</w> "],["on","</w> "],["t","o"],["in","d"],["in","d</w> "],["s","id"],["p","p"],["you","r"],["w","ell"],["s",",</w> and</w> "],["i","ve</w> "],["at","</w> the</w> "],["ing",",</w> "],["f","ul"],["m","ore"],["at","e</w> "],["as","t</w> "],["ar","k"],["d","own"],["h","e"],["c","e"],["in","</w> a"],["an","t</w> "],["e","y"],["m","i"],["st","r"],["h","ow"],["u","d"],["u","c"],["w","ay"],["t","er</w> "],["re","d</w> "],["the","ir"],["b","r"],["o","ver"],["p","res"],["ou","ght</w> "],["a","</w> s"],["sel","f</w> "],["o","f"],["t","urn"],[".</w> ","he</w> "],["ic","k"],["m","e"],["en","</w> "],["ne","w"],["</w> a","m"],["or","</w> "],["m","is"],["it","e</w> "],["ing</w> ","to</w> "],["c","ould</w> "],["on","ly</w> "],["ing","</w> the</w> "],["all","y</w> "],["a","id"],["i","g"],["n","es"],["a","ir"],["l","ong"],["t","ed</w> "],["'","s</w> "],["it","s</w> "],["’","</w> "],["d","is"],["</w> of</w> ","the</w> "],["ad","e</w> "],["it","y</w> "],["al","k"],["p","re"],["i","p"],["a","u"],["wh","o</w> "],["p","os"],["th","ing"],["f","ac"],["u","ll"],["i","st"],["a","d</w> "],["re","m"],["d","o</w> "],["j","o"],["t</w> ","of</w> "],["</w> ","it</w> "],["j","ect</w> "],["e","ly</w> "],["be","fore"],["</w> the","y</w> "],[",</w> ","but</w> "],["to</w> ","be</w> "],["a","</w> m"],["l","ittle</w> "],["</w> s","e"],["an","ce</w> "],["or","n"],["as","s"],["h","ear"],["w","ill"],["s","ome</w> "],["c","r"],["</w> w","e</w> "],["?","”</w> “"],["ou","l"],["d","on"],["n","’t</w> "],["ar","d</w> "],["p","r"],["</w> w","or"],["om","e"],["</w> in","</w> the</w> "],["a","ther"],["ar","m"],["o","b"],["i","</w> "],["</w> wh","ich"],["m","uch"],["</w> c","on"],["g","l"],["m","ost</w> "],["sel","f"],[",","’"],["e","very</w> "],["es","t</w> "],["a","ch"],["ou","s"],["</w> ","is</w> "],[",”","</w> said</w> "],["li","c"],["en","ce</w> "],[",</w> ","the</w> "],["m","o"],["</w> th","is</w> "],[";</w> ","but</w> "],["oun","d"],["b","ack"],["you","</w> "],["m","on"],["b","le</w> "],["by</w> ","the</w> "],["c","a"],["en","c"],["t","ain"],["un","der"],["ed",".</w> "],["ed</w> ","with"],["oc","k"],["s</w> ","to</w> "],["ut","en"],["</w> a","</w> "],["a","in</w> "],["ber","g"],["ar","ri"],["com","e</w> "],["</w> a","re"],["ou","t"],["uten","berg"],["g","utenberg"],["p","le"],["r","ough"],["for","</w> "],["at","t"],["\"","</w> "],["</w> s","o</w> "],["s","c"],["us","e</w> "],["s","ha"],["se","e</w> "],["k","e"],["d","r"],["ro","om"],["</w> ","in</w> "],["s","w"],["u","t</w> "],["d","ay"],["o","ff"],["</w> m","r"],["an","y"],["s","on"],["ea","d</w> "],["</w> w","ould</w> "],[",</w> ","with"],["ab","out</w> "],["h","ou"],["l","ow"],["in","e</w> "],["en","d</w> "],["n","g"],["at","ed</w> "],["oo","d"],["up","on"],["ev","en"],["p","ar"],["</w> w","ill"],[",</w> ","as</w> "],["g","e</w> "],["a","il"],["u","s</w> "],["s","ion"],["j","ust</w> "],["</w> c","ould</w> "],["f","ir"],["bo","d"],["ject</w> ","gutenberg"],[":","</w> "],["</w> w","ere</w> "],[".</w> ","‘"],["</w> c","an"],["it</w> ","is</w> "],["re","e</w> "],["that","</w> i"],["un","d"],["v","i"],["b","out</w> "],["for","</w> the</w> "],["th","an"],["for","m"],["er","v"],["c","ame</w> "],["tw","o</w> "],["pl","ac"],["in","to</w> "],["’</w> ","‘"],["les","s</w> "],["ag","ain"],["a","ve</w> "],["wh","ere</w> "],["g","e"],["i","es</w> "],["or","t"],["m","ade</w> "],["</w> the","re"],["c","re"],["b","re"],["wor","k"],["in","t"],["l","y"],["g","ood</w> "],["ar","y</w> "],["mr","s.</w> "],["g","o</w> "],["w","ay</w> "],["d","id</w> "],["go","t</w> "],[",</w> ","s"],[".","”"],["y","ear"],["h","and"],["</w> f","rom"],["su","ch"],["</w> wh","at"],["ni","ght"],["ri","ght</w> "],["i","le</w> "],["f","ull"],["i","</w> d"],[",","”</w> "],["c","k"],["c","oun"],["s</w> ","of</w> the</w> "],["er",",</w> "],["d","es"],["all","</w> "],["u","st"],["h","as</w> "],["ar","r"],["tim","e</w> "],["i","re"],["from","</w> the</w> "],["af","ter"],["it",",</w> "],["i","gh"],["re","ad"],["'","t</w> "],["ic","e</w> "],["\"</w> ","\""],["</w> m","e</w> "],["c","an"],["m","ent"],["ed</w> ","him"],["th","ink"],["</w> a","g"],["s","aid</w> "],["ed</w> ","and</w> "],["ne","ver</w> "],["gre","at"],["g","et</w> "],["u","b"],[".</w> ","but</w> "],["f","l"],["way","s</w> "],["er","s</w> "],["th","ough"],["t","y</w> "],["p","art"],["an","other"],["f","r"],["un","t"],["le",",</w> "],["</w> the","m"],["li","f"],[",</w> and</w> ","the</w> "],["se","em"],["t","en"],[".","”</w> "],["o","h"],["s","aid"],["pro","ject</w> gutenberg"],["se",",</w> "],["</w> c","om"],["com","p"],["i","</w> s"],["i","ght</w> "],["ag","e</w> "],["al","</w> "],["c","er"],["at","ch"],["w","ent</w> "],["no","t"],["</w> m","e"],["th","rough"],["</w> ","not</w> "],["it","ion"],["en","g"],["</w> s","ome</w> "],["with","</w> "],["i","f"],["</w> p","ro"],["as","h"],["it",".</w> "],["ch","ar"],["s","ay"],["o","ll"],["e","e"],["in","es"],["li","ght"],["oul","d"],["f","ri"],["ne","ver"],["</w> a","</w> s"],["m","en"],["the</w> ","s"],["ev","er</w> "],["the","se</w> "],["</w> mr",".</w> "],["</w> ","be</w> "],["ed</w> ","by</w> "],["di","st"],["</w> ","on"],["e","w"],["you","ng"],["that","</w> he</w> "],["!","”"],["v","is"],["bod","y</w> "],["mis","s</w> "],["be","g"],["an","k"],["m","ake</w> "],["</w> g","o"],["</w> m","an"],["</w> d","o</w> "],["p","h"],["had</w> ","been"],["fir","st</w> "],["</w> you","r"],["re","p"],["in","ter"],["ex","c"],["or","r"],["m","in"],["e","le"],["im","p"],["e","en"],["d","ear"],["</w> to</w> ","the</w> "],["v","en"],["i","ous</w> "],["o","t"],["</w> ","up"],["c","our"],["s","ome"],["re","n"],["</w> a","bout</w> "],["le","f"],[",’","</w> said</w> "],["</w> wor","k"],["</w> ","at"],["</w> s","uch"],["le","t</w> "],["of","f</w> "],["</w> wh","en"],["s</w> ","were</w> "],["</w> th","ink"],["m","y"],["ad","d"],[",</w> ","“"],["in","</w> his</w> "],["for","t"],["ha","pp"],["</w> a","c"],["i","ly</w> "],["</w> sh","ould</w> "],["t","ake</w> "],["st","ill"],["st","re"],["look","ed</w> "],["there","</w> was</w> "],["</w> a","l"],["b","ro"],["b","le"],["as","k"],["n","at"],[".</w> ","she</w> "],["m","ust</w> "],["</w> a","s"],["il","d"],["ap","p"],["v","ed</w> "],["that","</w> the</w> "],["with","</w> the</w> "],["c","op"],["d","ay</w> "],["v","o"],["re","c"],["on","’t</w> "],["out</w> ","of</w> "],["e</w> ","and</w> "],["he</w> ","was</w> "],["in","c"],["</w> t","im"],["</w> the","ir"],["</w> t","w"],["ca","use</w> "],["t","ell"],["ex","p"],["s","ed</w> "],["ing","</w> s"],["are","d</w> "],["no","thing</w> "],["a","</w> h"],["t","or"],["in","to</w> the</w> "],["t","ri"],["es",".</w> "],["op","le</w> "],["do","or"],["f","ar"],["ep","t</w> "],["ing","</w> his</w> "],["mi","ght</w> "],["d","en"],["!","</w> "],["l","y,</w> "],["have</w> ","been"],["’","ll"],["s","m"],["p","ass"],["y",",</w> and</w> "],["en","er"],["g","g"],["qu","ite</w> "],["</w> a","</w> l"],["le","s</w> "],["c","ap"],["i","</w> am"],["m","ar"],["ch","ap"],["ed</w> ","his</w> "],["al","ways</w> "],["t","ak"],["w","e"],["st","at"],["ul","ar"],["lef","t</w> "],["</w> m","ust</w> "],["g","ent"],["t","ook"],["s</w> ","the</w> "],["ke","ep"],["p","ut</w> "],["at","ter"],["qu","i"],["all","</w> the</w> "],["v","ing</w> "],["en","ough"],["?","”"],["re","at"],["y","-"],["e","-"],["and",",</w> "],["oc","c"],["t","ter"],["</w> ag","ain"],["m","a"],["</w> h","ear"],["f","in"],["</w> d","e"],["or","d"],[".</w> ","\""],["au","gh"],["op","en"],["s","ay</w> "],["ne","ar"],["ir","l"],["ey","es</w> "],["ff","er"],["c","all"],["p","ri"],[",</w> ","he</w> "],["i","</w> was</w> "],["ri","ght"],["es","s"],["ed",",</w> and</w> "],["ol","d"],["he","ad"],["ha","ll"],["it","ed</w> "],["ro","s"],["y</w> ","and</w> "],["m","ent</w> "],["k","new"],["</w> wh","o</w> "],["ed</w> ","up"],["i","</w> w"],["be","cause</w> "],["uc","k"],["er</w> ","of</w> "],["</w> a","</w> m"],["y","et</w> "],["</w> t","r"],["a","</w> w"],["o","ver</w> "],["ple","as"],["h","ead</w> "],["</w> h","ow"],["ect","ion"],["be","ing</w> "],["y</w> ","of</w> "],["em","p"],["sh","ould</w> "],["d","ec"],["in","n"],["ing</w> ","and</w> "],["i","</w> have</w> "],["n","or"],["es</w> ","of</w> "],["con","t"],["ab","le"],["ha","l"],["it","’s</w> "],["with","out</w> "],["when","</w> i"],[",</w> i","f</w> "],["w","r"],["</w> ","r"],["b","ook"],[".</w> ","we</w> "],["el","t</w> "],["</w> d","o"],["</w> h","e"],["g","ive</w> "],["</w> a","</w> p"],["li","ght</w> "],["u","e</w> "],["m","ay</w> "],["</w> ","or"],[".","’</w> ‘"],["!","’"],["wh","ile</w> "],["st","e"],["ea","ch"],["fe","el"],["f","ound</w> "],["bo","th"],["ac","t"],["is","e</w> "],["a","th"],["wh","o"],["ne","x"],["th","ose</w> "],["tt","er</w> "],["</w> l","ook"],["m","er"],["ge","ther"],["</w> m","ay</w> "],["</w> m","ore"],["at","er"],["s","erv"],["ever","y"],["a","h"],["t","om"],["oll","ow"],["t","ing</w> "],["on","e"],["op","p"],["ent","ly</w> "],["ed</w> ","a</w> "],["</w> d","own"],["i","ther"],["t","ow"],["y</w> ","to</w> "],["oo","l"],["f","ather"],[",</w> ","that"],["s","up"],["am","p"],[",","\""],["s","at"],["m","any</w> "],["sid","er"],[",</w> ","to</w> "],["u","ri"],["t","alk"],["e","as"],["chap","ter</w> "],["li","e"],["i","</w> had</w> "],["to","o</w> "],["re","turn"],["g","u"],["bu","r"],["w","alk"],[":</w> ","“"],["he</w> ","had</w> "],["w","as"],["st","er"],["sh","ip"],["l","ast</w> "],["ch","ang"],["es</w> ","and</w> "],["h","ere</w> "],["id","e</w> "],["ac","c"],["l","ad"],["ing",".</w> "],["su","re"],["</w> a","</w> f"],["m","orn"],["ni","ght</w> "],["one</w> ","of</w> "],["so","on"],["an","sw"],["ing","s</w> "],["an","</w> in"],["w","ard"],["w","a"],["sid","e</w> "],["us","h"],["m","e,</w> "],["hou","se"],["i","an"],["s","ame</w> "],["from","</w> "],["a</w> ","c"],["li","z"],["pe","ople</w> "],[".","\"</w> \""],["</w> p","er"],["th","ree</w> "],["ri","ed</w> "],["le","ar"],["t","oo"],["bu","s"],["t","i"],["s","ur"],[".</w> i","f</w> "],[".</w> ","and</w> "],["f","er"],[".</w> ","it</w> was</w> "],["our","</w> "],["a</w> ","p"],["</w> a","f"],["es",",</w> and</w> "],["su","b"],["</w> h","and"],["th","ought</w> "],["on","der"],["</w> t","o"],["e","ak"],["i","al"],["li","sh"],["aw","ay</w> "],["el","p"],["1","."],["</w> i","</w> "],["e.</w> ","“"],["the</w> ","m"],["f","am"],["fri","end"],["t","on"],["bo","at"],["ou","b"],["com","m"],["af","ter</w> "],["nex","t</w> "],["o","li"],["project</w> gutenberg","™"],["</w> with","</w> the</w> "],["l","ed</w> "],["f","re"],["g","iv"],["</w> g","r"],["ent","ion"],["und","red</w> "],["on","ce</w> "],["u","al"],["l","aw"],["</w> a","d"],["ch","ild"],["as","on"],["hou","se</w> "],[",</w> ","you"],["unt","il"],[",</w> ","in"],["a","ut"],["ould","n’t</w> "],["ha","m"],["v","e"],["g","irl"],["c","ar"],["em","ent"],["</w> a","</w> c"],["look","ing</w> "],["</w> i","f</w> "],["ing","</w> him"],["gent","le"],["the</w> ","w"],["ch","i"],["</w> p","l"],["em","ent</w> "],[".</w> ","you"],["le","ep"],[",</w> ","when"],[".</w> ","they</w> "],["g","ener"],["ha","p"],[",</w> ","which"],["le","g"],["om","an"],["a","z"],["don","’t</w> "],[".","\""],["ee","k"],["a</w> ","little</w> "],["t","own"],["d","id"],["f","ell"],["tt","y</w> "],["to","gether"],["h","igh"],["pos","si"],["ed</w> ","in</w> "],["wh","at</w> "],["i","ght"],["s","aw"],["qu","est"],["e</w> ","to</w> "],["se","s</w> "],["th","ou"],["their","</w> "],[".","’"],["sha","ll"],["d","ark"],["nes","s</w> "],["tw","een"],["you</w> ","know"],["ri","d"],["ing","-"],["r","un"],["d","one</w> "],["res","p"],["li","k"],["or","i"],["ele","c"],["</w> m","is"],["ing</w> ","of</w> "],["ar","ound</w> "],["under","st"],["n","am"],[",</w> ","or"],["e","f"],["a","ff"],["</w> se","e</w> "],["se","d"],["n","ec"],["she</w> ","was</w> "],["at","</w> l"],["ation","s</w> "],["le","d"],["ed</w> ","it</w> "],["my</w> ","dear"],[";","</w> the</w> "],["r","ather"],[".","—"],[",</w> ","for"],["f","ound"],["sp","eak"],["</w> d","is"],["bus","ines"],["ation","</w> of</w> "],["</w> s","ay"],["ex","pres"],["</w> the","n"],["</w> he</w> ","was</w> "],["ing</w> ","up"],["m","ed"],["re","g"],["</w> tw","o</w> "],["</w> f","e"],["</w> a","</w> g"],["co","ll"],["ce","iv"],["ind","ow"],["t","ure"],["</w> h","as</w> "],["</w> with","</w> "],["in","</w> s"],["would</w> ","be</w> "],["’","d</w> "],["a</w> ","b"],["ri","bu"],["h","o"],["l","at"],["t","re"],["ir","c"],["</w> ","on</w> the</w> "],["a</w> ","f"],["el","d"],["er</w> ","and</w> "],["con","sider"],["</w> th","an"],["oh",",</w> "],["over","</w> the</w> "],["</w> to</w> ","be</w> "],["l","y.</w> "],["--","--"],["or","t</w> "],[".</w> ","it</w> "],["</w> d","id</w> "],["ag","re"],["in","</w> my</w> "],["answ","er"],["</w> ","that</w> "],["p","ur"],["d","uc"],["—","and</w> "],["ar","ch"],["on","ic"],["f","ollow"],["</w> ","by</w> "],["re","ad</w> "],["ab","ly</w> "],["t","old</w> "],["s","ol"],["se","t</w> "],["se","en"],["n","'t</w> "],["ity</w> ","of</w> "],["your","</w> "],["did</w> ","not</w> "],["en","se</w> "],["the</w> ","c"],["ent","er"],[",</w> ","‘"],["fac","e</w> "],["bo","y"],["?","’"],["</w> he</w> ","had</w> "],["how","ever"],["l","ar"],["you","</w> are"],[";</w> ","“"],["for","th"],["me","an"],["now",",</w> "],["g","n"],["ic","ular"],["ea","th"],["th","is"],["</w> m","ight</w> "],["w","ha"],["sp","o"],["could</w> ","not</w> "],["h","and</w> "],["</w> as","k"],["j","ud"],["al","ong"],["si","st"],["li","v"],["h","um"],["ous","ly</w> "],["ing",",</w> and</w> "],["ou","th"],["m","other"],["</w> s","o"],["e","ther"],["t</w> ","of</w> the</w> "],["h","or"],["om","ent"],["</w> s","aw"],["j","ect"],["in","ce</w> "],["up","on</w> the</w> "],["a","be"],["w","ard</w> "],["turn","ed</w> "],["rep","li"],["o","d"],["c","ri"],["well",",</w> "],["a","im"],["out</w> ","of</w> the</w> "],["p","ic"],["g","ood"],["e","er"],["c","are"],["em","ber"],["!","”</w> "],[",</w> s","ir"],["s",";"],["co","ver"],["know","n"],["c","ol"],["tr","u"],["h","op"],["b","ar"],["an","th"],["t","ain</w> "],["or","t</w> of</w> "],["quest","ion"],["</w> h","our"],["</w> ","it"],["un","g"],["r","ound</w> "],["on","e,</w> "],["any","thing</w> "],["per","son"],["that","</w> she</w> "],["s","om"],["off","ic"],["hear","d</w> "],["re","st"],["ea","v"],["ed</w> ","me</w> "],["</w> the","se</w> "],["et","im"],["l","and"],["anth","on"],["of</w> ","his</w> "],["a","x"],["elec","tr"],["electr","onic"],["cl","o"],["t</w> ","to</w> "],["</w> th","ought</w> "],["fi","re"],["re","t"],["d","oc"],["ou","ch"],["sel","v"],["plac","e</w> "],["l","augh"],["m","ak"],["man","n"],["as","e</w> "],["at","</w> all"],["s","il"],["ag","g"],["li","st"],["--","and</w> "],["ac","e</w> "],["y","es"],["</w> s","p"],["a",",</w> "],["?","</w> "],["they</w> ","were</w> "],["who","le</w> "],["i","at"],["</w> be","fore"],["i","z"],["?","”</w> "],["ig","n"],["</w> had</w> ","been"],["</w> s","up"],["t","ill"],["y","’s</w> "],["w","ant"],["wor","d"],["b","er</w> "],["</w> d","ay"],["th","an</w> "],["g","ave</w> "],["year","s</w> "],["ur","ch"],["be","tween"],["</w> ","("],["on","d</w> "],["v","al"],["id","d"],["cer","tain"],["on","d"],["ed</w> ","her</w> "],["as</w> ","if</w> "],["it","y,</w> "],["f","ind</w> "],["ed</w> ","her"],[",</w> ","who</w> "],["of","ten"],["t","ly</w> "],["am","ong"],[".</w> i","</w> "],["pr","is"],["per","hap"],["ha","b"],["t</w> ","and</w> "],["</w> re","m"],["ul","t"],["an","</w> a"],["con","f"],["through","</w> the</w> "],["lie","ve</w> "],["re","w"],["al","most</w> "],["h","elp"],["</w> in","to</w> "],["s</w> ","that"],["be","aut"],["</w> c","ame</w> "],["li","ev"],["d","oub"],["pl","ain"],["d","ri"],["</w> all","</w> the</w> "],["</w> ","very</w> "],["d","ro"],["m","ic"],["v","id"],["as","ion"],["full","y</w> "],["g","et"],["</w> s","hall"],["</w> t","ell"],["le","an"],["be","d"],["a","is"],["again","st</w> "],["ed</w> ","on"],["k","ind</w> "],["it","er"],["m","e.</w> "],["po","or"],["electronic","</w> work"],["o","ve</w> "],["</w> h","op"],["ch","urch"],["aw","ay"],["found","ation"],["an","</w> to</w> "],["er</w> ","to</w> "],["d","ep"],["lif","e</w> "],["w","atch"],["go","tt"],["</w> p","e"],["hal","f</w> "],["one</w> ","of</w> the</w> "],["ant</w> ","to</w> "],["br","ought</w> "],["sh","ow"],["in","de"],["ard","s</w> "],["g","one</w> "],["di","rec"],["di","ffer"],["ff","ic"],["tr","y</w> "],["om","ent</w> "],["mic","aw"],["’","m"],["n","ame</w> "],["t","e</w> "],["r","ap"],[",","—"],["</w> m","e,</w> "],["d","e</w> "],["v","el"],["m","ind</w> "],["as","s</w> "],["</w> m","ade</w> "],["a","un"],["ob","serv"],["wh","er"],["</w> f","ir"],["ver","s"],["</w> mr","s.</w> "],["in</w> ","this</w> "],["a","li"],["b","en"],["s","ir"],["bl","ack"],["</w> s","aid"],["it",",</w> and</w> "],["se",".</w> "],["s.</w> ","“"],["v","ol"],["</w> d","on’t</w> "],["e","."],["y","es,</w> "],["st","ep"],["f","elt</w> "],["k","en"],["w","ood"],["exp","ect"],["le","tter"],["d","res"],["on",",</w> "],["some","thing</w> "],["ous","and</w> "],["there","</w> is</w> "],["orr","ow"],["my","self</w> "],["go","ing</w> to</w> "],["h","n"],["doc","tor"],["c","tion"],["re","ason"],["</w> a","</w> d"],["p","ose</w> "],["</w> m","in"],["dr","aw"],["fe","w"],["wh","y</w> "],["</w> af","ter"],["be","st</w> "],["be","h"],["s","er"],["u","ally</w> "],["l","d"],["</w> b","r"],["</w> l","ittle</w> "],["s","--"],["re","f"],["</w> w","ent</w> "],["j","an"],["ed</w> to</w> ","the</w> "],["ou","t,</w> "],["ed</w> ","that"],["le","ave</w> "],["s</w> ","are"],["vo","ic"],["st","ood</w> "],["s","k"],["b","ill"],["cl","ud"],["m","ur"],["bu","t,</w> "],["cl","aim"],["bu","ll"],["id","e"],["</w> ","at</w> "],["y","ing</w> "],["</w> ","at</w> the</w> "],["w","ish"],["r","u"],["nat","ur"],["she</w> ","had</w> "],["f","our"],["</w> c","l"],["in","st"],["be","tter</w> "],["ic","al"],["st","art"],["le</w> ","of</w> "],["</w> c","an</w> "],["fi","ve</w> "],["occ","asion"],["</w> s","ome"],["bre","ak"],["c","es"],["ing","</w> her"],["w","ar"],["d","ar"],["s","un"],[";","</w> i"],["</w> a","</w> h"],["e","liz"],["stre","et"],["ch","air"],["p","i"],["that","’s</w> "],["li","g"],["</w> b","l"],["i","x"],["s","en"],["</w> ","y"],["enc","e,</w> "],["’","re"],["</w> se","em"],["ed</w> ","in</w> the</w> "],["li","p"],["and</w> ","the</w> "],["r","ow"],["ed</w> ","for"],["!","”</w> “"],["v","ic"],["i","'"],["on","</w> his</w> "],["se","s"],["k","ind"],["h","our"],["v","ent"],["</w> wh","ere</w> "],["ed</w> ","them"],["that","</w> was</w> "],["th","ir"],[",</w> and</w> ","then"],["su","m"],["!","</w> i"],["own","</w> "],["cour","se</w> "],["ing","</w> with"],["able</w> ","to</w> "],["w","indow"],["fort","un"],["p","ow"],["</w> of</w> ","his</w> "],["ed</w> ","in"],["it","ch"],["</w> ","no</w> "],["e","’s</w> "],["pl","ay"],["s</w> ","in</w> "],["no","thing"],["</w> s","tr"],["abe","th"],[";</w> ","for"],["</w> g","o</w> "],["ed</w> ","by</w> the</w> "],[".</w> he</w> ","was</w> "],["or","y</w> "],[",</w> ","was</w> "],["h","ard"],["f","oo"],["eliz","abeth"],["a</w> ","very</w> "],["’","ve</w> "],["k","ept</w> "],["under","</w> the</w> "],["st","air"],["on","e.</w> "],["ter","m"],["i","ful"],["cop","y"],["t","s</w> "],["</w> from","</w> the</w> "],["a","</w> st"],["qu","ick"],["</w> ","out</w> "],["</w> all","</w> "],["p","ap"],["ed</w> to</w> ","be</w> "],["</w> a","</w> w"],["ed",".</w> “"],["gentle","man"],["it","y"],["po","int"],["f","ect"],["at","ure"],["ag","in"],["read","y</w> "],["ap","pe"],["el","in"],["i","et"],["st","and"],["anc","e,</w> "],["i","ent</w> "],["e","qu"],["dist","ribu"],["se","e"],["app","ear"],["list","en"],["ut","ion"],["</w> ","like</w> "],["wh","om"],["pres","ent"],["</w> p","art"],["it","ud"],["si","x"],["</w> th","ree</w> "],["um","p"],[".</w> ","then"],["c","al"],["und","er</w> "],["as</w> ","he</w> "],["all","ow"],["ut","ter"],["c","irc"],["pre","tty</w> "],["nec","ess"],["him","self</w> "],["str","ang"],["be","ar"],["st","ar"],["part","icular"],["thou","ght"],["as</w> ","the</w> "],["if</w> ","you"],[",</w> and</w> ","i"],["un","ited</w> "],["im","med"],["nat","ure"],["re","ach"],["?","’</w> ‘"],[",</w> ","she</w> "],["ce","ed"],["ing","</w> h"],["ing</w> a","bout</w> "],["h","ar"],["?","\"</w> \""],["tim","e,</w> "],["re","am"],["c","or"],["</w> and</w> ","the</w> "],["j","ack"],["de","ep"],["p","rom"],["</w> m","any</w> "],["h","ur"],["l","ou"],["wh","ite</w> "],["s</w> ","in</w> the</w> "],["</w> c","ried</w> "],["i","se"],["</w> for","</w> the</w> "],["of</w> ","a</w> "],["fi","eld"],["l","in"],["when","</w> the</w> "],["ing","</w> her</w> "],["po","in"],["m","ast"],["exc","ept</w> "],["with","</w> his</w> "],["m","ark"],["</w> c","ome</w> "],["pe","g"],["re","d"],["e","ither"],["er","s,</w> "],["ed</w> ","my</w> "],["other","</w> "],[".","."],["a</w> ","good</w> "],["that","</w> you"],["m","ad"],["0","0"],["w","ater"],["</w> w","ay"],["</w> p","res"],["n","um"],["vi","ew"],["c","ur"],["</w> p","o"],["</w> ","“"],["h","on"],["tw","ent"],["eng","ag"],["c","arri"],["le","s,</w> "],["a</w> m","an"],["</w> for","</w> "],["ri","ver"],["</w> i","</w> had</w> "],["</w> be","g"],["p","or"],["rem","ain"],["</w> me","an"],["</w> ha","pp"],["is",",</w> "],["etim","es</w> "],["</w> mis","s</w> "],["to</w> ","see</w> "],["do","es</w> "],["s.</w> ","the</w> "],["you",",</w> "],["u","g"],["lo","v"],["mon","e"],["ing","ly</w> "],[".</w> ","this</w> "],["d","ev"],["e.</w> ","the</w> "],["ing</w> ","it</w> "],["s","l"],["united</w> ","stat"],["c","ent"],["j","im"],["re","ally</w> "],["f","all"],["v","ar"],["</w> d","i"],["t",".</w> "],["</w> m","uch"],["</w> ","it</w> was</w> "],["i","</w> could</w> "],["</w> ","'"],["</w> th","rough"],["ub","lic"],["micaw","ber"],["</w> g","l"],["when","</w> he</w> "],["self",",</w> "],["</w> in","</w> his</w> "],["child","ren"],["fi","f"],["a","-"],["s",";</w> and</w> "],["elin","or"],["</w> go","t</w> "],["i","</w> can"],["jo","hn"],["is</w> ","the</w> "],["s","leep"],["ed</w> ","at"],["</w> you","</w> "],["ha","ving</w> "],["att","ention"],["ri","ch"],["un","c"],["in","u"],["em","m"],["!","—"],["in","ion"],["wor","ld</w> "],["will","</w> be</w> "],["lo","ve</w> "],["wh","ose</w> "],["</w> l","ong"],["id","ent"],["ies</w> ","of</w> "],["1.","e."],["a</w> ","d"],["ance</w> ","of</w> "],["re","l"],["not</w> ","be</w> "],["f","lo"],["e","ff"],["</w> m","on"],["st","ri"],["ation",",</w> "],["sp","ir"],["r","y</w> "],["</w> i","</w> was</w> "],["e","at"],["i</w> ","know"],["rem","ark"],["bo","tt"],["to</w> ","have</w> "],["f","-"],[",”","</w> he</w> "],["at","e"],["down","</w> the</w> "],["</w> there","</w> was</w> "],["b","ow"],["gener","al"],["f","air"],["st","opp"],[".</w> ","there"],["um","st"],["fr","on"],["</w> l","ad"],["li","ar"],["seem","ed</w> "],["</w> f","ri"],["</w> she</w> ","was</w> "],["that</w> ","it</w> "],["m","arri"],["an","n"],[",</w> ","in</w> "],["s","—"],["</w> s","ure"],["l","and</w> "],["copy","right</w> "],["om","en"],["wh","y,</w> "],["o","t</w> "],["</w> ","_"],["</w> ","ex"],["</w> in","to</w> the</w> "],["d","eath"],["s</w> ","in"],["</w> ","an</w> "],["p","ec"],["sc","i"],["qu","ain"],["</w> b","ack"],["</w> t","ook"],["w","if"],["e","f</w> "],["p","a"],["bro","ther"],["no",",</w> "],["so</w> ","much"],["</w> d","es"],[",</w> ","a</w> "],["wor","th"],["d</w> ","of</w> "],["su","d"],["char","ac"],["wor","ld"],["h","en"],["e","book"],["le","av"],["p","ock"],["gre","at</w> "],["go","ing</w> "],["you","</w> have</w> "],["i</w> d","on’t</w> "],["n","ing</w> "],["p","ip"],["d","u"],["would</w> ","have</w> "],["wh","ether"],["</w> w","r"],["les","s"],["</w> i","</w> have</w> "],["</w> of</w> ","a</w> "],["se","d,</w> "],["</w> m","y"],["each","</w> "],["f","ur"],["ence</w> ","of</w> "],["mis","sion"],[",</w> and</w> ","he</w> "],["le","ast</w> "],["</w> a","</w> b"],["!","\""],["r","is"],["</w> a</w> l","ittle</w> "],["pro","ach"],["w","onder"],["</w> w","ell"],["to</w> ","him"],["se","ver"],["us","ed</w> to</w> "],["tak","en"],["</w> h","ere</w> "],["ist","er"],["or","der"],["str","ong"],["ed</w> ","as</w> "],["ear","th"],["cl","ock"],["</w> ","now"],["re","ceiv"],["ro","ad"],["i","</w> f"],["sat","is"],["that","</w> s"],["</w> fe","el"],["tr","ad"],["b","y"],["oli","ver"],["m","at"],["ec","k"],["</w> d","ist"],["</w> th","an</w> "],["tion","</w> of</w> "],["g","ard"],["em","pl"],["ut","e</w> "],["s</w> ","with"],[",”</w> said</w> ","the</w> "],["op","inion"],["w","at"],["do</w> ","not</w> "],["s,</w> ","but</w> "],["comp","an"],["sud","den"],["k","ill"],["fell","ow"],["h","undred</w> "],["pos","ition"],["w","est"],["ro","ll"],["</w> s","ay</w> "],["chapter</w> ","x"],["t","ouch"],["sh","e"],["lear","n"],["</w> she</w> ","had</w> "],["et",",</w> "],["es</w> ","to</w> "],["</w> ","electronic</w> work"],["res","ol"],["oun","der"],["gr","ad"],["e",";"],["</w> com","p"],["ant","ly</w> "],["than","k"],["v","ill"],["an","</w> hour"],["l","ay</w> "],["al","f</w> "],[",”</w> ","repli"],["</w> wh","ile</w> "],["</w> a","</w> t"],["must</w> ","be</w> "],["</w> ","un"],["f","ast"],[",</w> ","so</w> "],["or","g"],["seem","ed</w> to</w> "],["oul","der"],["vo","ice</w> "],["ni","f"],["le","m"],["p","ain"],["j","ust"],["</w> in","ter"],["e","--"],["ag","e,</w> "],["on","'t</w> "],["do</w> ","you"],["y",".</w> “"],["</w> pro","ject</w> gutenberg"],["ed</w> ","out</w> "],["itt","ing</w> "],["</w> he","ad"],["</w> with","out</w> "],["resp","ect"],["ed</w> with","</w> the</w> "],["</w> tim","e</w> "],["st",".</w> "],["ell","ow"],["per","i"],["anthon","y</w> "],["!”","</w> said</w> "],["tr","an"],["</w> p","ar"],["se","tt"],["fe","et</w> "],["lar","ge</w> "],["arr","y</w> "],["in","form"],["</w> ","or</w> "],["em","ma"],["s,</w> ","the</w> "],["</w> st","ill"],["</w> p","le"],["u","el"],["</w> ","any</w> "],["</w> th","ose</w> "],["a</w> ","t"],["giv","en"],["cr","ow"],["</w> do</w> ","you"],["</w> t","urn"],["p","en"],["m","all"],["ub","b"],["e","g"],["th","ousand</w> "],["know","led"],["h","old</w> "],["w","i"],["w","oman"],["er",",</w> and</w> "],["he","ld</w> "],["ure","d</w> "],["m","oun"],["pro","b"],["s","us"],["so","f"],["us","b"],["pro","f"],["pro","t"],["no","on"],["e",";</w> and</w> "],["c","an</w> "],["ch","eer"],["jo","in"],["ro","ck"],["it","ing</w> "],[".</w> i","</w> was</w> "],["o","’"],["h","ol"],["b","ank"],["</w> w","ay</w> "],["jud","g"],["pro","v"],["m","atter"],["</w> m","e.</w> "],["b","ly</w> "],["e",".”</w> “"],["</w> ","one</w> "],["i","le"],["res","t</w> "],["com","fort"],["</w> a","pp"],["i","</w> should</w> "],["ed</w> ","from"],[",</w> i","</w> "],["t","u"],["did","n’t</w> "],["ou","p"],["com","ple"],["ed</w> ","of</w> "],["thing","s</w> "],["ch","o"],["to</w> ","his</w> "],["en","ce"],["beh","ind</w> "],["tr","ou"],["ro","p"],["</w> st","at"],["</w> they</w> ","were</w> "],["the","y"],["up","on</w> "],["au","ght</w> "],["no</w> ","more"],[".","'"],["is</w> ","not</w> "],["</w> g","reat"],["p","al"],["o","g"],["do","ll"],["happ","en"],["as","p"],["?","\""],["l","on"],["</w> hear","d</w> "],["c","ros"],["i","</w> think"],["beaut","iful"],["s","y"],["’","t"],["</w> al","ways</w> "],["immed","iat"],[",</w> ","though"],["at","ing</w> "],["be","ll"],["se","con"],["e,</w> ","but</w> "],["b","ri"],["lad","y</w> "],["l","im"],["t","ear"],["</w> fir","st</w> "],["u","se"],["was</w> ","the</w> "],["her","</w> s"],["us","ion"],["</w> wh","at</w> "],["m","ir"],["w","all"],["al","so</w> "],["c","lear"],["pres","ent</w> "],["a</w> ","great"],["an","x"],["m","an</w> "],["d","ur"],["</w> m","other"],["le","c"],["</w> t","ake</w> "],["se","qu"],["sm","all"],["pre","c"],["in","</w> her</w> "],["ch","ool"],["tow","ards</w> "],["u","ff"],["oo","d,</w> "],["tr","y"],["selv","es</w> "],["f","un"],["'","ll"],["o","v"],["in","di"],["to","-"],["le","y</w> "],["s</w> ","for"],["my","self"],["</w> con","t"],["c","orn"],["b","ounder"],["ac","t</w> "],["s","ent"],["dr","ink"],["cop","per"],["i","i"],["ish","ed</w> "],[".</w> ","mr.</w> "],["j","ew"],[".</w> ","when"],[",’</w> said</w> ","mr.</w> "],["ro","y"],["anc","e.</w> "],["e,</w> ","“"],["bo","y</w> "],["fri","end</w> "],["</w> h","ou"],["o","y"],["that</w> ","is</w> "],["l","ing</w> "],["it</w> ","of</w> "],["-","t"],["d","om"],["</w> w","alk"],["e","—"],["</w> m","en"],["at","i"],["</w> ","upon"],["es</w> ","of</w> the</w> "],["enough","</w> to</w> "],["possi","ble</w> "],["inter","est"],["as</w> ","to</w> "],["nes","s,</w> "],["at","</w> h"],["</w> st","re"],["cer","n"],["cl","os"],["bu","m"],["rap","h"],[".</w> ","his</w> "],["ag","raph"],["ent","ire"],["</w> g","et</w> "],["it","y.</w> "],["l","or"],["l","ock"],["</w> c","r"],["com","mon"],["eng","th"],["cl","ose</w> "],["b","y,</w> "],["in","v"],["s","ent</w> "],["th","or"],["said",",</w> "],["enc","e.</w> "],["s","ince</w> "],["li","ve</w> "],["we</w> ","were</w> "],["nes","s</w> of</w> "],["th","ing,</w> "],["ha","ir"],["g","at"],["op","le"],["som","etimes</w> "],["es","s</w> "],["f","ing"],["pl","an"],["beg","an</w> to</w> "],["was</w> ","not</w> "],["tr","a"],["it","u"],["peg","gott"],["ad","v"],["near","ly</w> "],["there","fore"],[".</w> ","it</w> is</w> "],["</w> project</w> gutenberg","™"],["this</w> ","agre"],["ro","ad</w> "],["let</w> ","me</w> "],["im","ent"],["d","or"],["it","ation"],["ob","lig"],["be","lieve</w> "],["to</w> ","do</w> "],["j","our"],["be","tter"],["be","came</w> "],["</w> d","r"],["</w> w","ha"],["</w> p","r"],["</w> a","p"],["</w> a","b"],[",</w> ","mr.</w> "],["bo","x"],["in</w> a","</w> "],["kind</w> ","of</w> "],["iter","ary</w> "],[",</w> with","out</w> "],["si","ve</w> "],["f","ear"],["natur","al"],["_","</w> "],[",</w> ","of</w> "],["t","e"],["a","</w> sh"],["r","up"],["augh","ter"],["com","ing</w> "],["s","oc"],["d","ick"],[".</w> ","so</w> "],[",</w> ","it</w> "],["k","in"],["fect","ly</w> "],[".</w> “","i"],["ha","d"],["ment","ion"],["</w> c","all"],["perhap","s</w> "],["w","il"],["pleas","ure"],["pris","on"],["</w> ","lic"],["</w> g","ood</w> "],["g","ain"],["hear","t"],["</w> wor","d"],["</w> c","o"],[".","--"],["d","d"],["</w> fri","end"],["may</w> ","be</w> "],["be","y"],["ab","le,</w> "],["ing</w> ","them"],["like</w> ","a</w> "],["no","body</w> "],["ri","st"],["st","and</w> "],["it","i"],["h","ome</w> "],["s","it</w> "],["av","our"],["en","jo"],["</w> t","old</w> "],["s",".”</w> “"],["</w> s","at"],["gr","av"],["</w> w","ish"],["</w> c","op"],["are","</w> "],["po","st"],["ing</w> ","in</w> the</w> "],["as","ure"],["a","se"],["?”","</w> said</w> "],["each</w> ","other"],["</w> do</w> ","not</w> "],[".</w> i","</w> have</w> "],["s",":</w> “"],["ne","ither"],["er","ic"],["qu","ar"],["m","ind"],["er</w> ","of</w> the</w> "],["fi","g"],["m","outh"],["</w> t","alk"],["l","aid</w> "],["l","ost</w> "],["gl","ori"],["m","ay"],["</w> you","ng"],["us","ual"],["sp","r"],["f","a"],["t","ro"],["oun","d,</w> "],["h","ea"],["fi","x"],["d","em"],["m","idd"],["</w> m","ake</w> "],["k","ing"],["up","</w> and</w> "],["er","r"],["em","ark"],["tr","av"],["sha","d"],["ide","a</w> "],["is","t</w> "],["are","n"],["ha","v"],["fre","sh"],["ter","min"],["they</w> ","had</w> "],["p","il"],["ter","n"],["vers","ation"],["t","ch"],["qui","red</w> "],["her","</w> h"],["doll","ar"],["you","</w> will"],["s</w> ","on"],["</w> w","e"],["pass","ed</w> "],["un","ch"],["ag","o"],["s","low"],["im","agin"],["</w> d","id"],["al","ready</w> "],["circ","umst"],["</w> to","o</w> "],["g","er"],["ag","ain</w> "],["it</w> ","to</w> "],["w","arm"],["ac","ros"],["ed</w> ","mr.</w> "],["mis","er"],["imp","ort"],["co","at"],["i","ble</w> "],["s</w> ","which"],["er",".</w> "],["w","ick"],["he","’s</w> "],["sh","oulder"],["t","able"],["do","g"],["st","one</w> "],["the</w> s","ame</w> "],["t","een"],[",</w> ","by</w> "],["ret","ch"],["wha","le"],["p","er</w> "],["st","or"],["i","red</w> "],["qu","ire"],["ab","ove</w> "],["k","is"],["i</w> d","o</w> "],["be","liev"],["</w> l","iterary</w> "],["r","ais"],["em","ber</w> "],["it","ies</w> "],["appe","ared</w> "],["con","st"],["</w> w","as"],["has</w> ","been"],["p","ublic"],["su","c"],["</w> m","ar"],["</w> a","way</w> "],["b","our"],["s",";</w> "],["im","pres"],["e","ld</w> "],["i</w> s","aid"],["ing","s,</w> "],["expres","sion"],["v","ir"],["tr","add"],["h","ill"],["not","ic"],["ev","en</w> "],["gr","ow"],["el","se</w> "],["occ","ur"],["le","t"],["b","ig"],["hard","ly</w> "],[",</w> ","we</w> "],["vi","ol"],[",</w> ","in</w> the</w> "],["ab","il"],["but</w> ","the</w> "],["ust","om"],["you","</w> can"],[".”","</w> the</w> "],["k","night"],["re","pe"],["bu","ck"],["</w> pe","ople</w> "],["happ","y</w> "],["fir","m"],["mo","v"],["is","per"],["al","th"],["ou","ght"],["</w> ","ch"],["k","ne"],["</w> hop","e</w> "],["ive</w> ","foundation"],["and","-"],["----","----"],["</w> literary</w> ","arch"],["</w> literary</w> arch","ive</w> foundation"],["mone","y</w> "],["t","y"],["s","ail"],["li","fe"],["me</w> ","to</w> "],["project</w> gutenberg","</w> literary</w> archive</w> foundation"],["t","op"],["mi","st"],["then",",</w> "],["ro","se</w> "],["all","y,</w> "],["anc","es</w> "],["old</w> ","man"],["s</w> ","as</w> "],["</w> m","ost</w> "],["any</w> ","other"],["m","id"],["</w> i","</w> am"],["ne","ed"],["ac","coun"],[".</w> ","my</w> "],["si","gn"],["k","ing</w> "],["fam","ily</w> "],["project</w> gutenberg™","</w> electronic</w> work"],["there","</w> were</w> "],["ste","er"],["mis","s"],["ant","ic"],["</w> c","oun"],["min","ut"],["li","ber"],["</w> min","ut"],["se","a"],["not</w> ","to</w> "],["w","in"],["ord","in"],["at","</w> his</w> "],["charac","ter"],["tru","th"],["d","inn"],["ore","d</w> "],["et","t"],["ex","t"],["for","</w> him"],["un","k"],["ag","es</w> "],["ing</w> ","to</w> the</w> "],["--","the</w> "],["th","r"],["e","!"],["ear","ly</w> "],["tim","e.</w> "],["e,</w> ","the</w> "],["ea","ther"],[".</w> ","as</w> "],["pic","ture"],["flo","or"],["ian","n"],["ar","p"],["rem","ember"],["ed</w> ","into</w> "],["</w> f","r"],["if</w> ","he</w> "],["f","anc"],[".</w> i","</w> am"],["had</w> ","not</w> "],["f","ill"],["w","eek"],["</w> p","re"],["c","uri"],["add","res"],[".</w> ","what"],["</w> b","re"],["ing</w> ","on"],["</w> d","e</w> "],["</w> could</w> ","not</w> "],["a","unt"],["con","tr"],["immediat","ely</w> "],["it","or"],["sp","ect"],["wor","d</w> "],["ing","</w> w"],["pock","et"],["of</w> ","my</w> "],["s</w> ","was</w> "],[",\"","</w> he</w> "],["cap","tain"],["her","self</w> "],["ev","id"],["s","!"],["a</w> ","l"],["pi","ec"],["off","er"],["w","ant</w> "],["</w> pl","ac"],["</w> t","ow"],["er","i"],["in","’t</w> "],["</w> their","</w> "],["in","clud"],["qui","et"],["</w> would</w> ","be</w> "],["ou","d"],[";","</w> he</w> "],["per","m"],["among","</w> the</w> "],["char","g"],["d","ead</w> "],["it","'s</w> "],["p","ull"],["that</w> ","it</w> was</w> "],["before","</w> the</w> "],["i</w> s","hall"],["er","’s</w> "],["ou","red</w> "],["gr","ac"],["b","il"],["f","ish"],["</w> p","ut</w> "],["s</w> of</w> ","his</w> "],["h","ard</w> "],["</w> g","ive</w> "],["mon","th"],["coun","try</w> "],["tow","ard</w> "],["up","</w> the</w> "],["every","body</w> "],["c","i"],["hou","se,</w> "],["gl","ad</w> "],["g","ar"],["pos","ses"],["h","at"],["h","eav"],["dro","pp"],["b","ed</w> "],["at</w> l","ast</w> "],["n","arr"],["</w> your","</w> "],["</w> ","by</w> the</w> "],["a</w> ","few"],["</w> p","ass"],["fig","ure"],["ing</w> ","out</w> "],["dar","c"],["en","ed</w> "],["f","ast</w> "],["v","an"],["p","ut"],["at","ely</w> "],["</w> again","st</w> "],["’","am"],["'","re"],["an","im"],["ed,</w> ","“"],["t",",</w> and</w> "],["w","ear"],["</w> go","ing</w> to</w> "],["i","ally</w> "],["cont","inu"],["nec","k"],["ort","un"],["her","e,</w> "],["about</w> ","the</w> "],["opp","ortun"],["b","ir"],["ang","er"],["ne","igh"],["as</w> ","a</w> "],["de","st"],["chang","e</w> "],["or","</w> f"],["e","ag"],["</w> you",",</w> "],["f","low"],["str","a"],["</w> t","ri"],["in</w> ","that"],["an</w> ","un"],[".</w> ","there</w> was</w> "],["underst","and</w> "],["occ","up"],["st","on"],["</w> h","alf</w> "],["</w> ","on</w> "],["</w> f","elt</w> "],["secon","d</w> "],["sw","e"],["w","omen"],["des","er"],["se",",</w> and</w> "],["ren","ch"],["</w> w","ant"],["cre","ature"],["any","thing"],["!’","</w> said</w> "],["ed</w> ","on</w> the</w> "],["</w> t","er"],["</w> m","o"],["s","mo"],["th","us</w> "],[";</w> and</w> ","the</w> "],["morn","ing"],["aun","t</w> "],["ly</w> ","and</w> "],["ing</w> ","for"],["ro","b"],["ey","e</w> "],["par","agraph"],["h","om"],[",</w> i","</w> am"],["ma","’am"],["ing</w> ","of</w> the</w> "],["a","el"],["er</w> ","than"],["se","cre"],["di","ffic"],["el","ton"],[",</w> ","they</w> "],["chi","ld</w> "],["if","ic"],["jan","e</w> "],["</w> s","u"],["</w> a","</w> st"],["all</w> ","right"],["orr","y</w> "],["i","</w> c"],["busines","s</w> "],["i","</w> re"],["s","av"],["this</w> ","is</w> "],["m","oment"],["soon","</w> as</w> "],["pe","ak"],["con","sci"],["f","ect</w> "],["mi","le"],["</w> s","ur"],["</w> was</w> ","the</w> "],["par","t</w> of</w> "],["</w> g","ent"],["come</w> ","to</w> "],["walk","ed</w> "],["w","id"],["e","el"],["</w> and</w> ","then"],["h","old"],["up","</w> to</w> "],["</w> man","n"],["fl","u"],["str","uc"],["l","uc"],["</w> se","en"],["</w> him",",</w> "],["more","</w> "],["you","</w> may</w> "],["de","ad"],["eng","lish"],["de","al"],["t","able</w> "],[";","</w> so</w> "],["b","orn"],["in","</w> which"],["her","e"],["an","ch"],["</w> f","ound</w> "],["ag","e.</w> "],["o","le</w> "],["'","ve</w> "],["</w> s","id"],["bey","ond</w> "],[",”</w> said</w> ","mr.</w> "],["ud","d"],["*","</w> "],["co","ach"],["att","ach"],["</w> of</w> ","my</w> "],[".”","</w> he</w> "],["el","se"],["good","-"],["f","le"],["very</w> ","much"],["gard","en"],[",</w> ","or</w> "],[",</w> ","my</w> "],["hear","t</w> "],["le","tter</w> "],["</w> con","f"],["br","own"],["r","at"],["at","or"],["att","emp"],["?","—"],["differ","ent</w> "],[".</w> i","</w> had</w> "],["</w> wh","ether"],["end","ed</w> "],["l","ing"],["ang","u"],["si","ster"],["s","ing"],["con","v"],["more","</w> than"],["ful","</w> "],["d","ition"],["d","aughter"],["that</w> he</w> ","was</w> "],["</w> af","ter</w> "],["been","</w> "],["know","</w> what"],["e","ight</w> "],["st","op"],["call","ed</w> "],["k","no"],["ag","n"],["’","em"],["w","ise</w> "],["to</w> ","get</w> "],["him","</w> "],[",’","</w> re"],["m","il"],["ce","ive</w> "],["he</w> ","would</w> "],["i","</w> will"],["to</w> ","make</w> "],["</w> that","</w> the</w> "],["un","less</w> "],["es</w> ","the</w> "],["!","’</w> ‘"],["ing</w> ","in</w> "],["don","ations</w> "],["n","on"],["empl","oy"],["d","ash"],["sudden","ly</w> "],["quain","t"],[",</w> and</w> ","was</w> "],["b","it"],[".</w> he</w> ","had</w> "],["ac","tion"],["clo","the"],["to</w> ","her"],["i","’m"],["him",",</w> "],[",</w> and</w> ","so</w> "],["sh","ook"],["bo","ard"],["y","et"],["cer","tain</w> "],["sh","op"],["</w> h","igh"],["m","us"],["ni","gg"],["every","thing</w> "],["ed</w> him","self</w> "],["</w> m","ak"],["</w> wh","om"],["um","bl"],["</w> a","ff"],["</w> look","ed</w> "],["as</w> ","she</w> "],["west","on"],["gl","as"],["might</w> ","be</w> "],["ri","ver</w> "],["certain","ly</w> "],["i","</w> would</w> "],["gr","im"],["us","e</w> of</w> "],["ck","on"],["us","ed</w> "],["sh","o"],["lon","don"],["sc","ar"],["re","al"],["ig","in"],["gre","en"],["or","k"],["ak","en"],["aw","n"],["per","fectly</w> "],["t","t</w> "],["bur","n"],["i</w> d","id"],["si","ble</w> "],["ce","ly</w> "],["s.</w> ","he</w> "],["long","</w> "],["at","ive</w> "],["d","am"],["there","’s</w> "],["bo","ard</w> "],[";</w> ","and,</w> "],["we</w> ","had</w> "],["fur","ther"],["ol","it"],["</w> in","</w> my</w> "],["sub","ject</w> "],["ou","s,</w> "],["ri","c"],["i","’ll"],["ed.</w> ","‘"],["knowled","g"],["inform","ation"],["after","ward"],["c","ep"],["full","</w> of</w> "],["a","hab"],["</w> a</w> f","ew"],["m","oment</w> "],["should</w> ","be</w> "],["stre","et</w> "],["u","str"],["1.","f"],["</w> him","self</w> "],["sp","ec"],["ain","’t</w> "],["im","m"],["to</w> ","go</w> "],[".</w> ","a</w> "],["?","</w> i"],["k","er"],["de","light"],["aff","ection"],["sever","al"],["s","qu"],["no</w> ","doub"],["twent","y</w> "],["ob","ject</w> "],["su","ffer"],["</w> that","</w> i"],["ing","</w> as</w> "],["s</w> ","had</w> "],["</w> with","</w> his</w> "],["'","d</w> "],["on","c"],["jour","ne"],["s","cr"],["that",",</w> "],["bl","ow"],["w","er"],["vol","unt"],["</w> tell","</w> you"],["it</w> ","was"],["pur","su"],["night",",</w> "],["y","--"],["like</w> ","the</w> "],["ly",",</w> and</w> "],["y","e</w> "],["on","el"],["r","ound"],["from","</w> his</w> "],["po","se"],["and","er"],["ex","am"],["beg","an"],["it","al"],["char","ge</w> "],["which","</w> was</w> "],[".","’</w> "],["</w> in","st"],["p","g"],["el","y,</w> "],["ly.</w> ","\""],["gg","est"],["str","uck"],["they</w> ","are"],["can","not</w> "],["do","z"],["ex","peri"],["s","af"],["p","ast</w> "],["o","tion"],["b","at"],["y</w> ","was</w> "],["w","w"],["m","e,</w> and</w> "],["happ","ines"],["t","rem"],["</w> a","way"],["mur","d"],["</w> a","</w> th"],["f","at"],["what","</w> i"],["bu","n"],["said",".</w> “"],["</w> be","lieve</w> "],["oun","c"],["le","-"],["g","en"],["s</w> ","on</w> the</w> "],["necess","ary</w> "],[",</w> ","too"],["p","aid</w> "],["dis","cover"],["pro","per"],["p","at"],["him","self"],["pleas","ant</w> "],["s","n"],["</w> ac","coun"],["conf","id"],["</w> a","</w> man"],["al","e</w> "],["of</w> ","them"],[".</w> she</w> ","was</w> "],["think","</w> of</w> "],["ut","ure"],["much","</w> as</w> "],["</w> b","ro"],["e","an"],["on","</w> my</w> "],["compan","ion"],["ir","on"],["looked</w> ","at"],["bre","ath"],["se","c"],["</w> a</w> l","ong"],["ev","ent"],["et","ch"],["ing</w> ","me</w> "],["ben","ne"],["d","et"],["is</w> ","a</w> "],["ex","act"],["</w> am","ong"],["s</w> ","a</w> "],[",</w> ","because</w> "],["ing</w> ","at"],["li","ke"],["underst","and"],["arr","ang"],["ing</w> ","that"],["com","pl"],["des","cri"],["d","rew"],["</w> p","os"],["</w> her","</w> s"],["h","arri"],["</w> w","ant</w> "],["ste","ad"],["l","ate</w> "],["</w> ","over"],["ud","den"],["</w> ","but</w> "],["chi","ef</w> "],["ch","rist"],[",</w> ","where</w> "],["f","ree</w> "],["</w> lic","ense</w> "],["il","y,</w> "],["i","am"],["don","'t</w> "],["</w> g","u"],["</w> we</w> ","were</w> "],["b","le,</w> "],["ri","p"],["</w> d","ay</w> "],["at</w> ","least</w> "],["b","on"],["</w> st","ood</w> "],["dec","k"],["</w> ","off</w> "],["ing</w> ","at</w> the</w> "],["</w> wh","ite</w> "],["ed</w> ","down"],["</w> t","om"],["</w> se","e"],["day",",</w> "],["m","ill"],["p","ay"],["with","</w> him"],["gr","ound"],["b","ing"],["pro","vid"],["</w> ","out"],["en","es"],[",</w> as</w> ","if</w> "],["s","’"],[",\"","</w> she</w> "],["young","</w> man"],["le","ad"],["no</w> ","one</w> "],["sub","ject"],["any","body</w> "],["</w> sh","ow"],["qui","et</w> "],[":</w> ","‘"],["c","ut</w> "],[",”</w> ","i</w> said"],["d","ream"],["o’","clock"],["con","cern"],["em","per"],["vis","ion"],["hand","s</w> "],["ead</w> ","of</w> "],["d","anc"],["?’","</w> said</w> "],["to</w> ","me</w> "],["fi","ed</w> "],[",</w> ","that</w> i"],["would</w> ","not</w> "],["steer","forth"],["pe","ople"],["m","em"],["an</w> ","old</w> "],["go","ver"],["id","ea"],["ard","s</w> the</w> "],["ed","uc"],["</w> of</w> ","them"],["r","ush"],["sp","ar"],["lik","ely</w> "],["—","but</w> "],["lif","e.</w> "],["mi","ght"],["b","all"],["new","</w> "],["go","d"],["roy","al"],["get","ting</w> "],["</w> f","l"],["that","</w> they</w> "],["ap","proach"],["g","ro"],["t","ur"],["to</w> ","my</w> "],["af","r"],["</w> th","ough"],["o",",</w> "],["man",",</w> "],["1","8"],["in",",</w> "],["fi","eld</w> "],["1.f","."],["s","oul"],["</w> be","ing</w> "],["les","s,</w> "],["se","s,</w> "],["shad","ow"],["who</w> ","had</w> "],["</w> c","ap"],["</w> ","only</w> "],["pos","ed</w> "],["vis","ham"],["un","i"],["u","z"],["ex","claim"],["</w> con","sider"],["ha","visham"],["th","row"],["se","m"],["es</w> ","were</w> "],["m","et</w> "],[".</w> if</w> ","you"],["p","ick"],["ri","f"],["s","on</w> "],["</w> f","ac"],["</w> a","</w> re"],["</w> did</w> ","not</w> "],["him","</w> to</w> "],[";","</w> then"],["w","ind"],["there",",</w> "],["gl","anc"],["or","igin"],["as","c"],["</w> about</w> ","the</w> "],["at</w> l","ast"],["just</w> ","as</w> "],["us",",</w> "],["</w> w","a"],["could</w> ","be</w> "],["i","</w> thought</w> "],["t","emp"],["of</w> ","course</w> "],["</w> al","most</w> "],["p","ath"],["</w> m","ind</w> "],["when","</w> you"],["er","s.</w> "],[",”</w> repli","ed</w> "],["i","es"],["co","ff"],["s</w> ","from"],["ber","t</w> "],["com","es</w> "],["however",",</w> "],["be","sid"],["i</w> s","aw"],["b","al"],["o","'"],["gentle","men"],["</w> m","i"],["ed</w> ","at</w> the</w> "],["</w> a","in’t</w> "],["hol","m"],["int","ell"],["li","ved</w> "],["every","thing"],["hal","f-"],["en","n"],["in","ation"],["l","ine</w> "],["ag","e</w> of</w> "],[",","--"],["copper","field"],["k",")"],["d","at"],["lif","e,</w> "],["ed","--"],["h","e,</w> "],["ed",".</w> the</w> "],["ly",".</w> “"],["beg","inn"],["gr","ound</w> "],["</w> some","thing</w> "],["</w> s","ever"],["c","am"],["con","versation"],["ed","ly</w> "],["</w> h","undred</w> "],["wa","it"],["pro","duc"],["ing</w> ","down"],["s","chool"],["con","sequ"],["we</w> ","have</w> "],["e",";</w> "],["enjo","y"],["y.</w> ","‘"],["it</w> ","is"],["le</w> ","and</w> "],["th","ick"],["pg","</w> ("],["he</w> ","is</w> "],["in","cre"],["j","pg</w> ("],["mann","er"],["chi","ef"],["d","ut"],["er","-"],["h","ot"],["itt","en"],["pr","inc"],["ing-","room"],["s</w> and</w> ","the</w> "],["*","*"],["agre","e"],["se","en</w> "],["n","ation"],["s","al"],["eff","ect"],["a</w> ","and</w> "],["c","ouldn’t</w> "],["</w> ","every</w> "],["si","k"],["</w> it</w> ","is</w> "],["ordin","ary</w> "],["oo","p"],["spo","ke</w> "],["kno","ck"],["i'","m"],["n","erv"],["ch","eck"],["ed.</w> ","\""],["that</w> he</w> ","had</w> "],["oo","t"],["u","liar"],["of</w> ","her</w> "],["be","ing</w> a"],["c","le"],["a",".</w> "],["jo","e</w> "],["would</w> ","have</w> been"],["</w> l","o"],["r","ain"],["</w> f","ind</w> "],["oli","ver</w> "],["es","cap"],["h","ist"],["</w> ter","m"],["pr","act"],["</w> ha","ir"],["very</w> ","well"],["co","tt"],["well","</w> as</w> "],["with","</w> a</w> "],["some","thing"],["ought</w> ","to</w> "],["fir","st"],["m","orrow"],["me","et</w> "],["h","un"],["au","ght"],["ex","ist"],["in</w> a","</w> s"],["</w> th","ings</w> "],["ch","arm"],["after","noon"],["could</w> ","have</w> "],["s","ort</w> of</w> "],["back","</w> to</w> "],[",</w> ","then"],["gr","ap"],["ne","st"],["be","low"],["in</w> a","</w> f"],["</w> c","er"],["eas","ily</w> "],["j","er"],[",</w> if</w> ","you"],["</w> h","ead</w> "],["l","ast"],["s,</w> and</w> ","the</w> "],["it</w> ","and</w> "],["f","avour"],[".","\"</w> "],["ing</w> ","on</w> the</w> "],["a</w> s","tr"],["est","er"],["</w> that","</w> he</w> "],["which","</w> "],["lem","n"],["es","pec"],["un","ic"],["ash","ion"],["mi","les</w> "],["em","br"],["i",",</w> "],["comp","any</w> "],["</w> be","liev"],["pre","t"],["sh","ut</w> "],["ul","t</w> "],["ul","ation"],["fif","ty</w> "],["j","ump"],["ing</w> ","my</w> "],["lo","om"],["—","the</w> "],["ic","ally</w> "],[",’","</w> he</w> "],["d","g"],["p","ort"],["at","</w> this</w> "],["s.</w> ","but</w> "],["con","duc"],["ed</w> ","it"],["so",",</w> "],["</w> s","ix"],["h","ang"],["</w> h","or"],["ing","</w> so</w> "],["ed",";"],["be","come</w> "],[",</w> with","</w> the</w> "],["wha","le</w> "],["si","ght</w> "],["e","ight"],["</w> do","or"],["oo","se</w> "],["</w> w","onder"],["what</w> ","is</w> "],["ey","es"],[",</w> and</w> ","his</w> "],["</w> s","il"],["</w> w","ar"],["no","dd"],[":</w> ","\""],["it</w> was</w> ","a</w> "],["</w> st","ep"],["i","ously</w> "],["entire","ly</w> "],["</w> a","gre"],["ar","y,</w> "],["</w> you","</w> are"],["trad","emark"],[",\"","</w> said</w> "],["bott","om"],["s","le"],["bro","ken"],["shall","</w> be</w> "],["ob","ject"],["stre","tch"],["side</w> ","the</w> "],["hea","ven"],["n","ice</w> "],["des","p"],["now","</w> "],["ing</w> ","in"],["</w> to","gether"],["fac","e,</w> "],["s</w> of</w> ","this</w> agre"],["might</w> ","have</w> "],["fam","i"],["day","s</w> "],["b","er</w> of</w> "],["p","as"],["per","form"],["</w> s","ec"],["m","ag"],["ey","es,</w> "],["know","s</w> "],["f","ine</w> "],["ol","d,</w> "],["e","en</w> "],["</w> was</w> ","not</w> "],["fac","t</w> "],["e","z"],["in","s</w> "],["</w> p","ur"],["</w> y","ork"],["coun","tr"],["h","ell"],["at","e,</w> "],["</w> a","</w> sh"],["st","ay</w> "],["f","ain"],["m","as"],["anc","ient</w> "],["oh","!"],["es","sion"],["new","</w> york"],["c","old</w> "],["</w> would</w> ","have</w> "],["emm","ick"],["</w> ag","ain</w> "],["g","ri"],["</w> l","ast</w> "],["wh","it"],["his</w> ","own"],["ap","point"],["sid","e,</w> "],["no","t,</w> "],["with","</w> her"],["when","</w> they</w> "],["</w> for","m"],["end</w> ","of</w> the</w> "],["wher","e"],["end","eav"],["t","en</w> "],["de","termin"],["st","ate</w> "],["i</w> w","ent</w> "],["are","</w> you"],["sc","en"],["off","ice</w> "],["att","end"],["am","eric"],["s</w> ","to</w> the</w> "],["f","uture"],["w","ouldn’t</w> "],["k","itch"],["say","s:</w> “"],["t","y-"],["i</w> do</w> ","not</w> "],["comple","t"],["mar","iann"],["moun","tain"],["mo","on"],["gr","at"],["p","et"],["ed</w> with","</w> "],["</w> gent","le"],["grad","gr"],["fri","ght"],[";</w> ","‘"],["look","</w> at"],["does</w> ","not</w> "],["sh","ore"],["of</w> ","cour"],["all","</w> that"],["f","ail"],["o","k"],["</w> s","ha"],["</w> g","irl"],["or","</w> three</w> "],["a","</w> wor"],["tri","ed</w> to</w> "],["</w> you","</w> have</w> "],["ould","n't</w> "],["</w> h","and</w> "],["id","ent</w> "],[",”","</w> she</w> "],["ed","ition"],["qu","ee"],["li","ving</w> "],["what","’s</w> "],["ex","plain"],["eas","y</w> "],["ev","il"],["h","y"],["um","b"],["sm","ith"],["p","li"],[".","org"],["vis","it</w> "],["that</w> i","f</w> "],["young","</w> lad"],["to</w> ","her</w> "],["</w> d","ec"],["pow","er"],["c","and"],["for","</w> his</w> "],["</w> l","ay</w> "],["wr","ong"],[",</w> ","his</w> "],["bre","tt</w> "],["ass","oc"],["e","k"],["tim","es</w> "],["iv","ely</w> "],["bro","ke</w> "],["b","ad</w> "],["ol","er"],["pass","ion"],["upon","</w> his</w> "],["</w> as</w> ","he</w> "],["</w> we</w> ","had</w> "],["you","</w> to</w> "],["equ","al"],["</w> can","not</w> "],["</w> g","re"],["ed",";</w> and</w> "],["bl","ue</w> "],["morn","ing,</w> "],["s","itting</w> "],["p","an"],["foo","t"],["b","rid"],["to</w> ","say</w> "],["lou","is"],["aun","t,</w> "],["pleas","e</w> "],["m","or"],["</w> ha","ving</w> "],["inter","est</w> "],["pro","s"],[".</w> ","in</w> "],["o","st"],["y.</w> ","\""],["r","a"],["i","ed</w> "],["exact","ly</w> "],["</w> up","on</w> the</w> "],[".</w> “","you"],["</w> g","ave</w> "],["e.</w> ","he</w> "],["who</w> ","was</w> "],[".</w> ","for"],["it</w> was</w> ","not</w> "],["ste","am"],["f","urn"],["that","</w> m"],["</w> will","</w> be</w> "],["ou","d</w> "],[",</w> and</w> ","had</w> "],["est","ell"],["end</w> ","of</w> "],["sat","</w> down"],["m","itt"],["</w> as</w> ","the</w> "],["</w> s","et</w> "],["n","in"],["reg","ular"],["which","</w> i"],["</w> rem","ember"],["s","ound"],["project</w> gutenberg™","</w> work"],[",</w> and</w> ","she</w> "],["</w> f","am"],["c","ab"],["s","im"],["j","ur"],["am","ent"],["exc","it"],["p","op"],["</w> dist","ribu"],["bu","ild"],["</w> t","en"],["</w> ","enough"],["ch","am"],["ill","ustr"],["g","um"],["</w> h","ad"],["</w> wh","y</w> "],["</w> app","ear"],[",</w> and</w> ","we</w> "],["</w> which","</w> the</w> "],["str","ain"],["y",".”</w> “"],["i","ate</w> "],["f","ind"],["a</w> ","long"],["se","ction"],["such","</w> "],["</w> st","art"],["ter","r"],[".","jpg</w> ("],["or","</w> two</w> "],["narr","ow"],["il","t</w> "],["—","”</w> “"],["tr","ue</w> "],["i","um"],["c","aught</w> "],["gutenberg",".org"],["fr","ank"],["itud","e</w> "],["li","ver"],["est","ab"],["in","</w> her"],["l","u"],["when","</w> she</w> "],["oblig","ed</w> to</w> "],["estab","lish"],["s","ing</w> "],["s","at</w> "],["v","iv"],["t","ax"],["</w> d","am"],["el","d,</w> "],["ity</w> ","and</w> "],["prot","ect"],["mo","ved</w> "],["wr","it"],["itt","le"],["en","gl"],["</w> must</w> ","be</w> "],["the</w> ","first</w> "],["i","ec"],["di","vid"],[",</w> ","that</w> "],["possi","ble"],["ag","e"],["r","ail"],["art","ic"],["exc","ell"],["sion","</w> of</w> "],["</w> per","son"],["or","</w> the</w> "],["</w> when","</w> i"],["li","e</w> "],[".","gutenberg.org"],["ou","s</w> and</w> "],["se","ven"],["</w> a","w"],["ge","or"],["</w> th","ought"],[".</w> ","chapter</w> "],["</w> s","peak"],["her","self"],["afr","aid</w> "],["as</w> ","it</w> "],["itu","ation"],["ay",",</w> "],["twent","y-"],["</w> st","and"],["to</w> ","re"],["</w> c","our"],["</w> h","ard"],["s,</w> ","“"],["</w> w","ant</w> to</w> "],["i</w> d","id</w> "],["to</w> ","you"],["nif","ic"],["</w> ","never</w> "],["</w> ","its</w> "],["with","</w> a</w> s"],["v","es"],["hon","our"],["prob","ably</w> "],["</w> s","po"],["</w> de","al"],["</w> fir","st"],["dis","play"],["b","idd"],["n","or</w> "],["after","</w> the</w> "],["</w> to</w> ","his</w> "],["j","agg"],["ex","er"],["ne","ed</w> "],["ing</w> ","any</w> "],["cheer","ful"],["r","ag"],["</w> a</w> g","ood</w> "],["</w> f","ather"],["g","all"],["espec","ially</w> "],["hor","se"],["th","re"],["dist","inc"],["what","</w> do</w> you"],["enc","our"],["fac","tion"],["upon","</w> my</w> "],["pl","ain</w> "],["</w> ac","c"],["</w> be","h"],["fin","ish"],["b","ark"],["another","</w> "],["trou","ble</w> "],["</w> to</w> ","him"],["</w> t","ill"],["in","s"],["</w> f","ive</w> "],["ing</w> him","self</w> "],["y","'s</w> "],["in","</w> and</w> "],["wr","ite</w> "],["</w> g","ener"],["or</w> ","other"],["</w> s","ide</w> "],["e.</w> ","‘"],["ac","ted</w> "],["ri","ble</w> "],["</w> s","ince</w> "],["p","ort</w> "],["</w> through","</w> the</w> "],["plac","e,</w> "],["</w> a","long"],["kitch","en"],["paragraph","</w> "],["</w> ","out</w> of</w> "],["k","ey"],["e","ur"],["t","ive</w> "],["her",",</w> "],["al","ter"],["g","e,</w> "],["r","on"],["acc","ord"],["</w> l","ow"],["c","ast"],["scar","cely</w> "],["s","-"],["ing</w> ","this</w> "],["</w> f","ollow"],["er","</w> was</w> "],["cal","m"],["bu","l"],["in</w> ","any</w> "],["ar","t</w> "],["y",";"],["de","lic"],["where</w> ","the</w> "],["that","</w> we</w> "],["d","im"],["</w> d","ep"],["tow","ards</w> the</w> "],["w","ant</w> to</w> "],["y","ing"],["a","liz"],["</w> h","elp"],["not","ice</w> "],["quar","ter"],["con","n"],["told</w> ","me</w> "],["try","ing</w> to</w> "],["h","i"],["sm","il"],["be","at"],["op","pos"],["</w> be","tter</w> "],["one</w> of</w> ","them"],["qu","art"],["i","ous"],["</w> mon","th"],["v","ag"],["ad","mir"],["g","a"],["gott","en"],["to</w> ","take</w> "],["in</w> the</w> ","united</w> stat"],["n","ic"],["l","oc"],["are","d"],["d","ic"],["lor","d</w> "],["qu","eg"],["</w> w","oman"],["quee","queg"],[",</w> i","</w> have</w> "],["along","</w> the</w> "],["</w> tim","es</w> "],["</w> ","our"],["c","amp"],["wat","er</w> "],["at","ter</w> "],["vent","ure"],["y</w> ","of</w> the</w> "],["g","res"],["in</w> ","their"],["com","e,</w> "],["sh","ort"],["be","st"],["o","on"],["y",".</w> the</w> "],["cr","im"],["at","e.</w> "],[",</w> ","while</w> "],[",</w> ","is</w> "],["i</w> s","up"],["ing</w> a","way</w> "],["neigh","bour"],["in","ted</w> "],["go</w> ","to</w> "],["went</w> ","on"],["for","</w> a"],["si","pp"],["pre","p"],["val","u"],["ti","red</w> "],["de","far"],["let</w> ","us</w> "],["n","one</w> "],["in","’"],["or","</w> re"],["s","imp"],["s.</w> ","‘"],["ment</w> ","of</w> "],["pri","v"],["as</w> ","i"],["d","read"],["l","ay"],["</w> ","us</w> "],["</w> st","e"],["crow","d"],["acros","s</w> the</w> "],["b","right</w> "],["h","ung"],["’","n"],["it</w> ","had</w> "],["there","</w> "],["e,</w> and</w> ","the</w> "],["for","d"],["too</w> ","much"],["</w> l","ove</w> "],["p","ay</w> "],["it",".”</w> “"],["be","long"],["</w> there","</w> is</w> "],["will","</w> not</w> "],["go","tty</w> "],["no","ble</w> "],["i","es,</w> "],["</w> my","self</w> "],["num","ber</w> of</w> "],["sum","m"],["s","end</w> "],["mi","le</w> "],["eff","ect</w> "],["sus","p"],["morn","ing</w> "],["v","ast</w> "],["’","s,</w> "],["pres","ently</w> "],["de","gre"],["</w> c","reat"],["l","os"],["</w> do","es</w> "],["mast","er</w> "],["</w> i","</w> could</w> "],["dep","art"],["b","ound</w> "],["it</w> ","would</w> be</w> "],["can","’t</w> "],["wh","isper"],["gr","and"],["i","ld</w> "],["st","ubb"],["sha","k"],["for","d</w> "],["for","</w> a</w> m"],["</w> of</w> ","her</w> "],["beg","un"],["al","one</w> "],["h","arm"],["ng","th"],["ha","st"],["f","ax"],["ag","on"],["p","ound"],["ar","ily</w> "],["w","ash"],["i","al</w> "],["usb","and</w> "],["dur","ing</w> the</w> "],["there","</w> are"],["ch","ance</w> "],["</w> di","ffer"],["ent",",</w> "],["j","am"],["</w> said",".</w> “"],["di","g"],["_","you"],["l","ab"],["b","ag"],["m","el"],["b","or"],["chapter</w> x","x"],["said",",</w> “"],["um","ble"],["reg","ard"],["ear","nest"],["y","ellow"],["be","d,</w> "],["*</w> ","*</w> "],["j","enn"],["</w> re","turn"],["o","d</w> "],["per","su"],["gr","and</w> "],[".</w> ","mrs.</w> "],["pro","ceed"],["do","es"],["fair","fax"],["wif","e</w> "],["cl","er"],["coun","ten"],["e.</w> ","i"],["go","d</w> "],["gover","n"],[",</w> and</w> ","a</w> "],["al","though"],["church","ill"],["trav","el"],["h","es"],["your","self</w> "],["e.</w> ","but</w> "],["nor","th"],["ing","le</w> "],["poin","ted</w> "],["idea</w> ","of</w> "],["cl","im"],["re","fer"],["</w> ask","ed</w> "],[".</w> ","in</w> the</w> "],["</w> when","</w> he</w> "],["y","ard"],["</w> so</w> ","much"],["is","s"],
[...]
