{"vocabulary":["supreme</w>","d--","marilla</w>","subjects</w>","tal","so","book</w>","administrative</w>","hard</w>","tower</w>","ll.</w>","ect","else</w>","lot","street,</w>","tend","ain","regard</w>","battle</w>","service;</w>","ted,</w>","innocent</w>","hand</w>","worked</w>","passage</w>","one:</w>","ol,</w>","dorothy</w>","coal,</w>","graci","affair","agreeable</w>","letters,</w>","des</w>","intellect","out.\"</w>","conti","provin","t.</w>","alone","manufacturing</w>","ph,</w>","think.</w>","005","fellow</w>","stuck</w>","hib","ebook","voice,</w>","us,</w>","jan</w>","spain,</w>","thoris</w>","sages</w>","450</w>","not,</w>","manner,</w>","regul","autumn</w>","extrav","them?</w>","box</w>","governor","195","hand.</w>","gir","pure</w>","thereof,</w>","seen.</w>","4","days.</w>","163</w>","do</w>","sudden","director</w>","elections</w>","aircraft</w>","burnt</w>","heard</w>","element</w>","te","grand</w>","22","tion;</w>","3%</w>","1.3","\"that</w>","history</w>","5,","ber,</w>","observ","same,</w>","ity.</w>","father","course</w>","caes","09</w>","075","diff","gh","cip","kist","moreover</w>","host","father,</w>","perple","lin","row","422","repli","\"take</w>","opposition</w>","dream,</w>","wo","petrole","try</w>","accid","birth:</w>","wives</w>","child,</w>","cha","marriage</w>","first,</w>","add","these,</w>","old.</w>","washed</w>","ric","1880</w>","slight","city:</w>","pitched</w>","formid","ke.</w>","population:</w>","adj.;</w>","colle","action.</w>","973","retur","ace</w>","thous","indul","fon","readily</w>","newsletter</w>","tell</w>","evid","u</w>","crum",".,</w>","663","priest</w>","exclaimed.</w>","proper","cru","cy</w>","fer</w>","steam","excited</w>","is,\"</w>","022","conversation</w>","certain","h.</w>","truth.</w>","luct","absol","ly.</w>","purpose.</w>","indifferent</w>","us$","455","paying</w>","089","immense</w>","econom","greek</w>","swiftly</w>","trace</w>","1975</w>","atmosp","orph","particul","chief,</w>","19.","106","total)</w>","crim","officers</w>","gro</w>","che","16.","paris,</w>","dair","situation</w>","lion</w>","639",";\"</w>","crown</w>","rid</w>","ought,</w>","\"to</w>","'s</w>","chanc","crude</w>","chal","australi","devil</w>","earth</w>","applic","perfect","loud</w>","fifth</w>","hastily</w>","complete,</w>","151</w>","'i</w>","015","report</w>","of</w>","iti","strong","area","id</w>","still","arily</w>","ae</w>","poor,</w>","effects</w>","banks</w>","17","below,</w>","insan","101</w>","passion</w>","religion","buri","marched</w>","72","news</w>","p.</w>","feeble</w>","tly</w>","ass","dign","me","733","ound","elo","parliament</w>","june</w>","yet</w>","(ll.</w>","purposes</w>","destroyed</w>","take</w>","house","throw</w>","current</w>","ality</w>","26:","\"thank</w>","emin","whir","et;</w>","239","audience</w>","are","ultim","usen","5%,</w>","473</w>","hence","her;</w>","ones,</w>","lace</w>","stic","cup</w>","vely.</w>","194","soil</w>","pity</w>","blame</w>","serving</w>","inher","did,</w>","seven","lished</w>","sight,</w>","exist</w>","quarrel</w>","chance</w>","worse</w>","thus</w>","674","commenced</w>","needed</w>","didst</w>","call","person,</w>","393","wished</w>","smi","adm","softw","187","ct</w>","ber</w>","band</w>","bom","billy</w>","folk</w>","comparis","ash</w>","mexic","solution</w>","completed</w>","gh</w>","eli","princi","si","diver","often","\"who</w>","occasion","t:</w>","sau","oda</w>","219","ent-","8755","helaman</w>","k's</w>","along</w>","038","earne","after,</w>","literacy:</w>","april</w>","office,</w>","pub","ou</w>","es?</w>","plent","jerusalem,</w>","leaving</w>","esses</w>","anic</w>","ar,</w>","ost","deni","only,</w>","is.\"</w>","ori","1245","risen</w>","ing.</w>","fil","direct","coff","herself.</w>","transm","god,</w>","suppose</w>","walk,</w>","defense</w>","manpower</w>","sunk</w>","smoke</w>","splendid</w>","ancy</w>","da,</w>","place,</w>","esi","shrie","ery.</w>","\"),</w>","007</w>","am,</w>","photograph","ak</w>","e's</w>","ilke</w>","perhaps</w>","\"oh,</w>","[obs3","\"then</w>","creature</w>","boy,</w>","210","fighting</w>","ia","richard</w>","coat,</w>","advant","ral","277","possi","ies</w>","21</w>","ii","-</w>","finally,</w>","is,</w>","div","164","then.</w>","====","techno","immediately</w>","lift</w>","759","pho","159</w>","persuaded</w>","ment:</w>","go</w>","austr","tabernac","gentleman</w>","europe</w>","shout","minded</w>","machinery,</w>","f)</w>","laughed,</w>","bb","goes</w>","death.</w>","invented</w>","947","tall","cre","hair","1.e.1</w>","strang","lo,</w>","ics</w>","infer","beheld</w>","ee</w>","also.</w>","(b)</w>","als</w>","ced","syl","123</w>","ester","sus</w>","greg","era</w>","teeth</w>","what","women","208","rav","navy</w>","formerly</w>","claim</w>","sed;</w>","internet</w>","inct</w>","190</w>","ung</w>","sty</w>","saf","movement</w>","dan,</w>","wom","distributing</w>","independence</w>","specim","....","el","trum","wif","ty</w>","45","vul","trin","duce</w>","pip","unt</w>","dy","s--and</w>","sufficient</w>","ge,</w>","oli","crac","hood,</w>","gave</w>","stup","rat</w>","606","rewar","asham","gravel","ried</w>","company</w>","went","ham</w>","bond","rosa","--he</w>","eties</w>","463","ke</w>","ke","union</w>","\"are</w>","air.</w>","consist","experi","sleep,</w>","anyone.</w>","accord","pha","amongst</w>","monoton","respect</w>","us","icul","great,</w>","hesit","king;</w>","**","cher</w>","failed</w>","auth","skin</w>","grew</w>","ese,</w>","ders,</w>","domain</w>","incid","onom","vic","consum","staur","telep","march</w>","sable</w>","are,</w>","protest","sp","arrival</w>","grou","review</w>","synon","propor","mourn","0.08","commerce</w>","country,</w>","cell","sumed</w>","215","tam","reasonable</w>","wise,</w>","short-","boats</w>","ut</w>","thetic</w>","govern","eled</w>","fare</w>","story.</w>","slight</w>","alread","rocky</w>","ant,</w>","user","didn't</w>","re</w>","rocks</w>","ed?\"</w>","batt","ingly.</w>","accomplished</w>","brow</w>","mighty</w>","writing</w>","40</w>","melan","bo","ful","previous</w>","devi","807","woman,</w>","surprised</w>","watch</w>","1988</w>","matthe","/1,000</w>","emper","notic","woe</w>","heavy</w>","luck</w>","declar","distance,</w>","indi","jose","shadow</w>","crazy</w>","ster","did.</w>","gutenber","crimin","bone</w>","led</w>","1991)</w>","arti","indivi","dest","highest</w>","shi","properly</w>","ether</w>","whole,</w>","saved</w>","fren","single</w>","645","pen","case,</w>","12</w>","155","es--","endeav","fron","whispered</w>","dge</w>","troubled</w>","wards</w>","knees</w>","rar","sitt","services</w>","ma'","mond</w>","cauti","division</w>","ve,</w>","ore,</w>","subsequ","gutenberg.","going</w>","112","railroad","of-","causes</w>","2689","ugu","day</w>","ain</w>","hungr","manage</w>","itude</w>","without</w>","himself.</w>","hot</w>","king's</w>","fire.</w>","branch","\"i've</w>","horrible</w>","gold,</w>","proud</w>","indiffer","being</w>","breast</w>","honor</w>","calling</w>","histor","gutenberg\"</w>","no</w>","bay</w>","others</w>","bush</w>","exagger","121</w>","20%</w>","arms,</w>","moon","tomor","intention</w>","med</w>","feelings</w>","713","expendit","happened</w>","order.</w>","y--","ement,</w>","through</w>","taking</w>","lower</w>","duty</w>","hut","idi","stly</w>","pack</w>","subur","ast</w>","27:","divin","elder","tiles</w>","seas","conceived</w>","sultan</w>","fast</w>","read","support</w>","energ","were,</w>","ette</w>","ency,</w>","english,</w>","tol","relation</w>","piec","sea.</w>","gged</w>","church,</w>","\".</w>","stations</w>","fla","legislative</w>","alli","grace,</w>","invent","opinion,</w>","traff","1014","chad</w>","results</w>","strip</w>","1%,</w>","ward</w>","bell","blessed</w>","plum","genuine</w>","peace.</w>","sla","quam</w>","chamber,</w>","elled</w>","accused</w>","(c","saving</w>","1963</w>","cowar","japan","0.99","way","conditi","(1992</w>","half","suitable</w>","have</w>","dipl","empty</w>","965","353","flag</w>","song</w>","91</w>","49","stage</w>","brush</w>","sed","favor","zo","satisfied</w>","legitim","from","advantages</w>","by","sail","suffer</w>","struggle</w>","s'","lately</w>","identification</w>","0909","t","fish","plying</w>","(including</w>","sely</w>","pla","agreement</w>","pacific</w>","poll","losop","victim","last.</w>","counter","car","665","\"the</w>","sentence,</w>","heart.</w>","breath.</w>","representations</w>","maritime</w>","et-","jun","ys,</w>","band","fring","1247","violence</w>","toge","on:</w>","complic","'t,</w>","gate","cas","c.","iting</w>","ub","fab",",--the</w>","brief</w>","yourself</w>","bad,</w>","stic</w>","veth</w>","disci","a.\"</w>","asleep</w>","freckles</w>","\"good</w>","0.25","absurd</w>","why</w>","loves</w>","ens,</w>","him!</w>","1971</w>","organi","bl","wid","ling</w>","19","ouldn't</w>","thine</w>","name,</w>","ground,</w>","pair","week,</w>","fish</w>","ur","th,</w>","cust","equal</w>","06","dis</w>","coastal</w>","acy</w>","&","assist","gentleman,</w>","genius</w>","15-49,</w>","153","jenn","se!</w>","nation,</w>","joyou","believ","gar</w>","life.</w>","plenty</w>","moment,</w>","367","careless</w>","follow</w>","skir","astr","art","etern","bright","recogni","bled</w>","tea","good.</w>","ze,</w>","enti","km2</w>","1994","600","task</w>","help,</w>","wash</w>","tur","gutenberg","gres","ingu","load</w>","male,</w>","cather","rain,</w>","437</w>","esc","word,</w>","7:","hurt</w>","love","157</w>","1829","56","out,</w>","situated</w>","listen","chairman;</w>","direct,</w>","budget:</w>","collection.</w>","125</w>","guest</w>","between</w>","16:","research.</w>","abys","becoming</w>","!)</w>","daughter","wheels</w>","dis","cen","christ</w>","gently</w>","11</w>","ered</w>","extremely</w>","short","sni","fingers</w>","those</w>","\"no</w>","magnific","dain","729","redistributing</w>","1833","094","note:</w>","ll</w>","clothes,</w>","attemp","road.</w>","ous","wheel","breakfast</w>","happy,</w>","dad</w>","1249","copper</w>","regulating</w>","913","1959</w>","warm</w>","london.</w>","ger</w>","int","feeling</w>","tight","death","chair</w>","possible</w>","bid</w>","ignor","castle</w>","religions:</w>","dominic","direction.</w>","1961</w>","anne</w>","equipment.</w>","gone","ca","769","intri","avenue</w>","gaze</w>","convert</w>","arab","edition.</w>","cigar","hesitated</w>","mar","***</w>","production</w>","uten","broo","interval","ett","ada</w>","explain","bows</w>","grass</w>","wind","grow","and-","ague</w>","ry","noi","fight</w>","119</w>","201</w>","total","\"well","papers</w>","ris","sions,</w>","club</w>","small","apart","tant","0.7","pause</w>","spon","ing?\"</w>","seth</w>","77,</w>","finger</w>","educational</w>","2</w>","clad</w>","1-","stretch</w>","sigh</w>","flu","dec","iz","solemn</w>","thinking</w>","horse</w>","jer","words.</w>","fun</w>","881</w>","268","?--","stom","metri","obser","ners</w>","wife.</w>","us$1</w>","italy</w>","moul","rules,</w>","congregation</w>","men","schem","settle","--it</w>","1899</w>","active</w>","inspired</w>","ck","339","bare</w>","wanted</w>","hea","yes,</w>","excu","ate,</w>","kill","doth</w>","fis","xim","mile</w>",";","d-","wrong","critical</w>","\"one</w>","prayer</w>","?</w>","facing</w>","est</w>","var","landsc","635","circum","050</w>","one's</w>","clo","away--","y?\"</w>","str","an's</w>","powerful</w>","rup","sie</w>","anne,</w>","ator","town.</w>","lif","fell","ves,</w>","669","moo","stea","walls</w>","qui","ow,</w>","objects</w>","descrip","00</w>","graphi","lean","ny</w>","cler","bah","living</w>","149</w>","eustac","bread,</w>","priest","1855","amed</w>","shortly</w>","extravag","poin","cana","2.</w>","52","swi","god:</w>","spell</w>","517","delight","chiefly</w>","ches","chick","d's</w>","via</w>","shop</w>","excitement</w>","innoc","hyper","hoist</w>","quarters</w>","author","bles</w>","pastures:</w>","ded</w>","bodi","labour","0.6","i;</w>","twent","surround","1053","eng","):</w>","ton","citizens</w>","exclaimed,</w>","new","resour","ban","ard","times,</w>","drum","killed</w>","shr","alger","-of-","773","rung</w>","4953","so,</w>","care","bodies</w>","0-2,439</w>","forbi","org/","realize</w>","deeds</w>","hear","863","complexi","trouble</w>","abund","bull</w>","talk,</w>","1205","\u0019","ps,</w>","ically,</w>","aring</w>","performed,</w>","ocean</w>","sque","melancholy</w>","eight</w>","rou","village,</w>","hair</w>","feature</w>","quir","passing</w>","(december</w>","military</w>","025","steel</w>","you?\"</w>","to-mor","broke</w>","ve.\"</w>","grey</w>","motion","bask","flow</w>","july</w>","yiel","marble</w>","substantial</w>","benea","rod</w>","machine</w>","spend</w>","as-","ff.</w>","gging</w>","ceased</w>","surrounding</w>","now.</w>","quer","ascii","ed;</w>","north","suffered</w>","ew</w>","past,</w>","inches</w>","cted</w>","e?</w>","slowly</w>","janu","level","[foot","prayed</w>","agriculture,</w>","government.</w>","half-past</w>","faces</w>","wife's</w>","rate</w>","positi","created</w>","co</w>","employ","\u0014","shook</w>","3</w>","number</w>","had","body.</w>","cou","ddy</w>","deri","test","ity,</w>","(or</w>","horn</w>","then,\"</w>","motion</w>","tted</w>","co-","slova","623",",5","cargo,</w>","disp","haven't</w>","table</w>","trust</w>","revi","irs.</w>","derived</w>","contri","justice</w>","handle</w>","etr","grow</w>","lover","ema","udi</w>","dear</w>","44</w>","wrote</w>","fair","greatest</w>","build</w>","itable</w>","82</w>","evident</w>","drop</w>","ating</w>","resources</w>","671</w>","preparing</w>","/","oh</w>","deaths/1,000</w>","caribbe","less</w>","flung</w>","help","left.</w>","ght.</w>","conscious</w>","decei","'n</w>","1/","sound</w>","omin","mortality</w>","absor","arc","excuse</w>","suspicion</w>","publi","071</w>","833</w>","enough,</w>","999","cousin</w>","children</w>","omni","felt,</w>","rep","634","sist</w>","eaten</w>","embassy","ru","mad","tives</w>","choose</w>","road,</w>","day","fully.</w>","44%</w>","sec","ially</w>","086","1.77","ury</w>","are</w>","usa","odd","often</w>","seek</w>","valu","\"she's</w>","reproa","distric","able","dor","flesh,</w>","ext","juris","pit</w>","express</w>","private</w>","chair,</w>","lieu</w>","beyond</w>","68","passed</w>","morning,</w>","dried</w>","it;</w>","affection</w>","(c.i.f.,</w>","ority</w>","ide</w>","atque</w>","eastern</w>","lawy","propose</w>","se?</w>","replaced</w>","york","god.</w>","516","ils</w>","everybody</w>","ism.</w>","singap","fear.</w>","judge</w>","rear</w>","fast.</w>","30","degrees</w>","213","049","air</w>","domin","also,</w>","big","\"no,\"</w>","heap</w>","raw</w>","wait</w>","jo","perfect</w>","usal","swa","that</w>","how","reign</w>","ma</w>","mi</w>","shut</w>","keeps</w>","zed,</w>",")","roman","man.\"</w>","legally</w>","broi","985","1945</w>","light.</w>","youth,</w>","promise</w>","cent","ool</w>","fashi","female</w>","\"let</w>","rage</w>","hay","son","214","prophes","later</w>","grt</w>","prefer</w>","understand","tly,</w>","iron","10,","liby","methods</w>","pal","susan.</w>","worthy</w>","it,\"</w>","rely</w>","ts</w>","}","dollar","chair","fortune,</w>","somebody</w>","london</w>","fing","formats</w>","deb","hem</w>","wri","high-","ina,</w>","val,</w>","recomm","inn","illustr","she'll</w>","35</w>","palace</w>","bold","sl","all</w>","alone,</w>","comm","impressed</w>","1--","01</w>","master","anxious</w>","ement</w>","kind</w>","slightest</w>","society.</w>","direction,</w>","ape</w>","amoun","tea</w>","ning</w>","acid</w>","judah,</w>","finest</w>","thy","hold</w>","handed</w>","seat</w>","kill</w>","room","822",":008","something","bour</w>","tw","her,</w>","prison","magaz","ess</w>","tra","ments,</w>","6,","ages</w>","1891</w>","permitted</w>","ni","up,</w>","rang","adjec","london","corpor","ing</w>","245","prosp","alexand","865","org</w>","veng","afterwar","does","mead","swear</w>","norman</w>","septem","defen","useless</w>","america,</w>","seems</w>","....</w>","communist</w>","gods,</w>","town,</w>","fixed</w>","following</w>","shing</w>","will,</w>","humble</w>","ri</w>","braz","bal","purch","link</w>","lined</w>","civil</w>","en's</w>","ship</w>","stands</w>","g</w>","gran","48</w>","%)</w>","removed.</w>","essenti","ct","there</w>","ounded</w>","body,</w>","good</w>","11.","cerem","land.</w>","buil","\"i</w>","top</w>","043","billion</w>","mirac","else.</w>","parents</w>","dreams</w>","issue</w>","hen","metal</w>","sight.</w>","gd","ly.\"</w>","contro","wood.</w>","they've</w>","1253","xed</w>","own.</w>","\u001d","ff</w>","gan</w>","e.</w>","distinctly</w>","sweet","it!\"</w>","confid","decision</w>","ding,</w>","marks</w>","02</w>","never</w>","hands,</w>","sword,</w>","774","zed</w>","1.","too","salt</w>","877</w>","streets,</w>","suggestion</w>","1823","echo","223","goo","telecommunications:</w>","aid:</w>","soldiers</w>","liter","oa","leaders:</w>","cer","9.</w>","755","altar","m.","remarks</w>","th</w>","ger","sy</w>","sin","feder","summer</w>","seen,</w>","father</w>","speed</w>","sei","fted</w>","tac","ink","........................</w>","sheet</w>","breast,</w>","lodg","appar","appears</w>","ides,</w>","afgh","1263","getting</w>","ves.</w>","at","above</w>","dwell","dep","mol","225-","equivalent</w>","farmer</w>","bo</w>","ek</w>","budg","hasn't</w>","willing</w>","had,</w>","tory</w>","dial","wra","embassy]</w>","lis</w>","1895","1643","1827","mag","ba</w>","bes","stream</w>","809</w>","exp","unconscious</w>","als.</w>","providing</w>","specific</w>","christian","immedi","short</w>","er-","glad","yon","pointed</w>","____","ball","expressed</w>","sid","die</w>","maximum</w>","ound,</w>","snar","neph","673","richar","symbo","strateg","jurg","11:","required</w>","jack</w>","\"that's</w>","lost</w>","euro","inflation</w>","ky</w>","present,</w>","said","(1989),</w>","nun","(r","confusion</w>","ition","children","medi","sting</w>","spread</w>","companion</w>","national</w>","pan","remains</w>","mortal","musc","rent</w>","19%</w>","exempt</w>","returned,</w>","fting</w>","shore,</w>","acting</w>","plan</w>","fun","bird</w>","born/","lets</w>","modified</w>","recently</w>","fut","murmured</w>","stephen</w>","eager","indicat","1992","il","arist","04</w>","place</w>","horri","liqu","board</w>","id.</w>","rela","snu","marg","fires</w>","garments</w>","coll","org","so,\"</w>","on","1%</w>","dog","uss","sem","se;</w>","organ","graph</w>","companions</w>","knight,</w>","notes</w>","bes</w>","colonel</w>","hundre","religious</w>","du","1.e.8</w>","shield</w>","well;</w>","bust","1875</w>","saul","tremend","study</w>","writt","ging</w>","stand</w>","197","approa","necess","leap","night</w>","ent,</w>","mouth.</w>","ean</w>","reached</w>","na,</w>","egypt</w>","&</w>","pine</w>","212","ows.</w>","el.</w>","number","estim","offen","called</w>","equ","george</w>","sounded</w>","kings</w>","day's</w>","turns</w>","call</w>","east</w>","mas","earth","significant</w>","barbic","northern</w>","\"he</w>","250","sha","ora</w>","comparative</w>","ans.</w>","icj</w>","privileg","1984","posted</w>","pair</w>","climat","class</w>","<","battle,</w>","apti","gracious</w>","attempts</w>","pati","expenditures:</w>","she.</w>","about.</w>","tus</w>","flying</w>","tions</w>","judged</w>","which</w>","sh</w>","barbar","ple","nothing</w>","297</w>","ae","enab","appe","chinese</w>","possible.</w>","well-","need","mood</w>","vey</w>","horizon","pe",":025</w>","longing</w>","drive</w>","facts</w>","assent","ance</w>","los","--\"</w>","mu","ick</w>","soul</w>","stepped</w>","resid","heavily</w>","intelsat,</w>","we</w>","\"did</w>","public</w>","secre","contents</w>","041</w>","itim","aha","keys</w>","va","unexpected</w>","693</w>","prophet</w>","ta</w>","mour","ing-","hero","ber.</w>","deca","inside</w>","farm</w>","et.</w>","arose</w>","laugh,</w>","two.</w>","land;</w>","anna</w>","be","business","propriet","873","twi","one-","week","connection</w>","experience</w>","king</w>","wholly</w>","43","ce.</w>","yards</w>","official","alliance</w>","cham","thoroughly</w>","tone,</w>","*</w>","us?</w>","omen","ladi","low","355","expect</w>","square</w>","plun","xxi","uniform</w>","din","sighed</w>","220","defin","aur","est.</w>","ick","563","717","sins</w>","road</w>","elizabe","prim","include</w>","articles</w>","concep",":018","school","coffee</w>","guests</w>","whether</w>","manufactur","le:</w>","offering</w>","though</w>","other:</w>","silly</w>","other","forest,</w>","12","pres","orders</w>","893","instantly</w>","\"look</w>","1892</w>","she's</w>","pale,</w>","efforts,</w>","smaller</w>","coat</w>","\"there</w>","name</w>","rant","earnest","found</w>","cool</w>","spiritual</w>","se.\"</w>","itely</w>","burg</w>","---</w>","telephones;</w>","ll,</w>","cash</w>","0.85","it","039</w>","sophi","planned</w>","lapham</w>","interest,</w>","studied</w>","success","na;</w>","made</w>","scra","mirr","se--","non</w>","sions</w>","y!</w>","u.s.</w>","discover","347","gar","ank","pot</w>","0955","shaw","guess</w>","sisters</w>","puer",":31</w>","femin","twelve</w>","facul","wrought</w>","all.\"</w>","ak","at,</w>",":014</w>","ation.\"</w>","boundaries:</w>","114</w>","227</w>","27.","consi","lock</w>","653","inner</w>","canad","heli","pour</w>","daughters</w>","solu","1906</w>","lord:</w>","produce</w>","wu","preci","pper","spee","craft</w>","custom","suffer","we've</w>","point</w>","duch","poly","grav","cus","p-","50","iri","glass</w>","rowland</w>","faith,</w>","26","kal","hanging</w>","ments.</w>","crops:</w>","field,</w>","terri","ring</w>","--in</w>","defend</w>","they,</w>","proposed</w>","variety</w>","></w>","949","odor","legs</w>","ren","contrac","forehead</w>","stro","enor","bu","particularly</w>","on;</w>","itary</w>","holl","wishes</w>","potato","497</w>","daughter</w>","guard</w>","337","vig","2.84","interrupted</w>","thrust</w>","board,</w>","lament","well,\"</w>","128","phrase</w>","agriculture</w>","consumer</w>","em.</w>","concerning</w>","contrary,</w>","asph","ones","ceeded</w>","conce","ta","104","ine,</w>","drawn</w>","shown</w>","building,</w>","sent","bum","ver.</w>","wel</w>","*,</w>","duced</w>","trem","r,</w>","gue</w>","(s);</w>","ately.</w>","good","taining</w>","ance","multitude</w>","-3.","drau","changes</w>","househol","naked</w>","dragged</w>","force.</w>","\"what's</w>","fox</w>","such</w>","enough</w>","advance</w>","157","857","practi","able,</w>","ist</w>","o'clock,</w>","addres","accommo","ir","feli","ence:</w>","sets</w>","protected</w>","315","sea</w>","raven","length,</w>","whilst</w>","introduced</w>","70-","cleared</w>","0.07","matter,</w>","belong</w>","oedi","445","archie</w>","obe","ri","no,</w>","rati","209","537","spic","chest</w>","jurisdiction</w>","ter's</w>","weight","length</w>","german","runs</w>","1807","pe</w>","mct","european</w>","----------------","pel","ster,</w>","653</w>","ister</w>","=</w>","ware</w>","barr","meet</w>","saint</w>","gone.</w>","still</w>","op","admir","freely</w>","trou","uted</w>","anno","0.4","migrants/1,000</w>","precious</w>","brothers</w>","ated.</w>","window</w>","\"why,</w>","131</w>","[obs3]","190","referred</w>","ver,</w>","wherefore</w>","west</w>","forms</w>","sadd","literat","glanced</w>","he,</w>","happen</w>","united</w>","ded,</w>","whereas</w>","ally</w>","envelop","revel","ently</w>","atlantic</w>","shoulder,</w>","phoe","ches</w>","glim","tem","sive</w>","disput","horse,</w>","hot,</w>","wake</w>","command","204","boundari","ational</w>","tendency</w>","belief","(fy70-","larger</w>","dropping</w>","ggl","jum","vani","holmes</w>","provinc","esti","1992</w>","altogether</w>","054","attenti","fow","2.4","reci","ts.</w>","828","ry</w>","hero</w>","yugosla",",3","summon","ens","tum</w>","preserve</w>","sey","reputation</w>","661</w>","capacity;</w>","sage.</w>","depend","must</w>","1265","davi","369","256","kne","han","eder","opinion</w>","easily</w>","can,</w>","tically</w>","territor","system</w>","thei</w>","editi","tied</w>","our,</w>","marguer","cause.</w>","late</w>","cheer","vast</w>","ed--","0.02","term</w>","ap</w>","europe,</w>","174","working</w>","aside</w>","everyone</w>","tho","obtained</w>","shud","ioc","supported</w>","perform","261</w>","affir","hu","048","q","midnight</w>","happened.</w>","rival","interpol","s!</w>","m","lar","deav","hurried</w>","nay,</w>","philosop","furi","sections</w>","271</w>","ds,</w>","viously</w>","further</w>","uous</w>","manufac","(18","dden</w>","sun</w>","er","lot</w>","huge</w>","standard</w>","curios","explain</w>","congreg","ant","about</w>","frag","force:</w>","ly:</w>","pover","priests</w>","p;</w>","frequent</w>","09","pul","e)</w>","righte","compli","cle","eliza","volum","younger</w>","rise</w>","ical</w>","ter","up</w>","mcteag","limited</w>","whither</w>","s);</w>","mal","ss</w>","sudden</w>","still,</w>","permanent-surface</w>","mac","yer</w>","forces</w>","thir","sleeping</w>","progres","armi","love.</w>","systems</w>","waterways:</w>","descend","\u0006","internal</w>","wal","it.</w>","adopted</w>","comfor","flag:</w>","confess</w>","rog","01:0","staff</w>","burning</w>","labor</w>","rit","school,</w>","ney,</w>","ug","back</w>","ence;</w>","suspected</w>","bras",".9","nify</w>","fortunate</w>","wit</w>","1753","]</w>","agricultural</w>","this:</w>","own","republican</w>","struggl","****","sell</w>","origin","pale</w>","chic","rain:</w>","eff","filled</w>","expres","scientific</w>","upu,</w>","mast","souls</w>","stay</w>","sulph","portra","doubt,</w>","contrary</w>","arian</w>","ations.</w>","displaying</w>","\"o</w>","thomas</w>","restored</w>","tran","german</w>","all,</w>","tut","gg","situ","hil","comb","cow","1887</w>","seated</w>","in-","descended</w>","promote</w>","rand","747","social</w>","first","ez</w>","knights</w>","pocket</w>","anda</w>","netherlands</w>","said:</w>","thu","ros","tive.</w>","product","advice</w>","preach","flame</w>","299</w>","lily</w>","powers</w>","ambassador</w>","\"plain</w>","best","vious</w>","gods</w>","time</w>","899</w>","tools</w>","ither</w>","suspect</w>","4</w>","sin,</w>","provid","pois","tribut","184","day.\"</w>","solemn","1985","bought</w>","themselves</w>","annix","dt</w>","160</w>","491</w>","as!</w>","concentr","1853","old,</w>","superst","........</w>","mon","again","below.</w>","thin</w>","dering</w>","bas","bed</w>","sted</w>","tom","silence,</w>","gift</w>","arr","818","slept</w>","147</w>","anticip","tight</w>","purpose,</w>","000","sacrifice</w>","(for</w>","rescu","graphic</w>","danced</w>","eth","602","dear,</w>","que</w>","time.</w>","823","dly.</w>","campa","412","txt</w>","286","witness</w>","441</w>","samuel</w>","ong","ra,</w>","ured</w>","stress</w>","remedi","(n","ram</w>","ness.</w>","accompanied</w>","seed</w>","237</w>","laman","\"they</w>","opposed</w>","deck</w>","endi","carriage</w>","independence:</w>","457</w>","ming","born/woman</w>","stood</w>","girls</w>","consequ","department</w>","end</w>","gloomy</w>","own</w>","pray</w>","comput","mary</w>","wed</w>","knowledge,</w>","invit","1847","stars</w>","meas","rule</w>","solom","arthur</w>","princes</w>","care</w>","55</w>","06</w>","w,</w>","chu","smith</w>","ef.</w>","ck</w>","extent</w>","ition,</w>","remained</w>","stairs,</w>","consists</w>","compul","7.</w>","faded</w>","39","possibil","brethren</w>","similar</w>","90","much.</w>","25:","promin","practically</w>","merri","days</w>","court</w>","learned</w>","250</w>","computers.</w>","viol","168","(f.o.","warranties</w>",":004","trac","coun","thing.</w>","(1994</w>","along,</w>","with","1600","26%</w>","moral</w>","conduct</w>","enci","baron","curi","something</w>","beauty</w>","france,</w>","the","nol","accept</w>","093</w>","ood,</w>","ars</w>","s!\"</w>","adequate</w>","making</w>","field.</w>","len","favour</w>","ads</w>","wash","enthusi","interest</w>",":001:00","hatred</w>","resting</w>","lorcs,</w>","nac","th;</w>","succes","laun","==","316","big</w>","cec","river,</w>","cli","direct</w>","ety.</w>","vanished</w>","subject</w>","rock","absur","elle</w>","1996</w>","974","awa","ath","aven","er:</w>","3.3","ane</w>","scale</w>","unt","see.</w>","shoulder</w>","053","harv","idea","ha","languag","chest","zation</w>","certainly</w>","defect","sion","db,</w>","closing</w>","ging","congrat","except</w>","capita</w>","9</w>","excit","cher","base</w>","18.","job","effici","perceive</w>","s?\"</w>","drow","1957</w>","holm","cloth","members</w>","suc","foot</w>","ment</w>","administr","fru","0000%</w>","ital","ity","honour","629","difficult</w>","nervous</w>","eau</w>","presents</w>","ket,</w>","eter</w>","leaf","minor</w>","paul</w>","simpl","alice</w>","remn","settle</w>","884","begat</w>","proto","saturday</w>","lack</w>","way.\"</w>","z</w>","matter</w>","67</w>","grave</w>","had</w>","convention</w>","revolution</w>","ag","e'","354","au</w>","control</w>","harri","oft</w>","__","meet","spirit,</w>","gent","lik","demo","far</w>","issu","practice</w>","ini","ed!</w>","32","und","him;</w>","alt","answered.</w>","wy","blac","refused</w>","rights</w>","ur,</w>","count</w>","costs</w>","associ","war.</w>","16","amb","extra","awake</w>","fort","wilt</w>","miner","263","alive</w>","captiv","consent</w>","use,</w>","be;</w>","conduct","ammon","069","with,</w>","compliance</w>","dro","hot","ing,\"</w>","amid</w>","beg","fearful</w>","vas</w>","blind</w>","basket</w>","black</w>","especially</w>","bran","lit","dit</w>","destin","patient</w>","beast","wounded</w>","literature</w>","antly,</w>","hal","434","amuse","broadcast</w>","autum","grateful</w>","theast</w>","roof","girl.</w>","yet","uri","occ","simil","itory</w>","before</w>","al;</w>","wing</w>","acted</w>","profess","cs,</w>","ye,</w>","kitchen</w>","tru","bri","omed</w>","409","ess","254","sum</w>","radi","donate</w>","equally</w>","america</w>","receiving</w>","159","refle","647","learn</w>","et:</w>","trees,</w>","bands</w>","ton.</w>","which,</w>","luxuri","1863","ears.</w>","whan</w>","remembr","****************","splend","i'll</w>","atives</w>","empi","secure</w>","vinc","sunday</w>","sky</w>","slop","jan","ctly</w>","protect</w>","vere","fellows</w>","counsel</w>","lic</w>","pronounced</w>","regarded</w>","sail</w>","technolog","lect","terrain:</w>","46</w>","ber","devo","allu","hurri","association</w>","anxiety</w>","leading</w>","access</w>","questions</w>","servant","holder</w>","066","fall,</w>","ease</w>","arranged</w>","ston","electr","therefore</w>","afternoon</w>","9%</w>","belief</w>","affair</w>","2505","dup","945","old</w>","stopped</w>","art</w>","a-","truly</w>","possessed</w>","sang</w>","colon","stem","ments</w>","marine:</w>","declare</w>","wedding</w>","v","consider","sof","comp","although</w>","she","impro","dig","hence</w>","mit","ib","raised</w>","suffrag","reasons</w>","ethiop","asser","ear.</w>","1970</w>","1903</w>","currenc","swept</w>","capital</w>","r.</w>","eu</w>","enormous</w>","ford</w>","finished</w>","ounced</w>","(and</w>","easier</w>","p</w>","ers.</w>","famil","pulling</w>","died.</w>","discus","grap","ava","forc","ulated</w>","8.</w>","fall","28:","parting</w>","_","expense</w>","1039","047","b.,</w>","839","ium</w>","friendly</w>","silence</w>","cruel","swar","unable</w>","opened</w>","este","ross</w>","section</w>","sep","ture,</w>","'tis</w>","vali","grettir</w>","awo","stretched</w>","ours</w>","temperature</w>",":026</w>","might,</w>","holder.</w>","pend","ists</w>","retired</w>","dozen</w>","neither</w>","cruel</w>","leaning</w>","new-","g,</w>","instant</w>","crept</w>","country</w>","perhap","ing;</w>","bin",".)</w>","264","cases,</w>","az","process","commer","sh.</w>","penetr","mani","thr","sach","inhabit","utes</w>","associat","but,</w>","migrant(s)/1,000</w>","wear</w>","fre","here</w>","assembly</w>","hydro","peop","feel","art,</w>","abil","returning</w>","assembl","ago,</w>","speak","fertility</w>","that.\"</w>","forni","ements,</w>","501(c)","easy</w>","1986</w>","implied</w>","016","continu","ball</w>","\"now,</w>","bert</w>","349","permanent</w>","accomp","ire</w>","failure</w>","953","large,</w>","(s)","1,000</w>","l","ever</w>","scor","bi","un","blu","merch","rolled</w>","sacrific","delicate</w>","cutting</w>","troubl","camp,</w>","ell","lat","doc","up;</w>","quarter</w>","tie</w>","fortun","ic</w>","must,</w>","awk","150","las","clergy","u","export","ve;</w>","business,</w>","find</w>","called,</w>","already</w>","fication</w>","itu","go,</w>","203","ffer","non","mere</w>","prepare</w>","doll","pac","ees</w>","24</w>","(3","sick</w>","star</w>",":010</w>","mildred</w>","feared</w>","gry</w>","writ","cities</w>","scul","roar</w>","minute</w>","down,</w>","//","ine","catch</w>","correspond","corner,</w>","\"my</w>","\"perhaps</w>","beauty,</w>","04","common","414","good-by","strait</w>","ed.\"</w>","st","parts</w>","through","6583","87,</w>","her?\"</w>","1407","abomin","circl","obtaining</w>","horse","115</w>","mrs</w>","gone,</w>","rich,</w>","time","me.</w>","1979</w>","aloud</w>","chi","de;</w>","ear","wall.</w>","faint</w>","sum","ric</w>","spectac","woo","received</w>","appoint","0.0","deta","affairs</w>","oured</w>","drinking</w>","\"yes,\"</w>","uncle</w>","out","knows</w>","insist","dated</w>","trag","++++","ka</w>","excep","ful.</w>","(1989</w>","lively</w>","fear</w>","jesus</w>","6987","ster</w>","reality</w>","transgres","suppor","please,</w>","were.</w>","pig","bit</w>","hide",",</w>","phen","the</w>","\"your</w>","ess;</w>","intelligence</w>","two","moreover,</w>","federal</w>","183</w>","ang,</w>","journe","farther</w>","perha","correct</w>","stranger,</w>","073","vel","ement","sin</w>","ems</w>","men;</w>","words</w>","spoken</w>","year:</w>","lie","now.\"</w>","angr","deg.</w>","3%,</w>","trademark.</w>","buck</w>","lived</w>","ty.</w>","copying</w>","126","rainy</w>","weak</w>","queer</w>","refin","sprang</w>","stu","24:","ling","beg</w>","principle</w>","rendered</w>","gloom","pi","gold</w>","bulk</w>","net</w>","an","voice.</w>","dealing</w>","eat,</w>","it</w>","457","147","gre","applicable</w>","absolute</w>","known,</w>","7%</w>","quire","follow","di","chor","congress</w>","(1970-89),</w>","professional</w>","exper","sympath","ences.</w>","enched</w>","volunteer</w>","heal","23","edness</w>","species</w>","occasi","royal</w>","cold,</w>","86</w>","ordin","torn</w>","ings,</w>","generation</w>","cla","qual","circumstances,</w>","prohibition</w>","parted</w>","stat","849","62%</w>","entrance</w>","sad","incre","profit</w>","aar","rushing</w>","letter,</w>","wood","land,</w>","175","me.\"</w>","belong","499","stern</w>","choo","meant</w>","ador","fa","ated,</w>","gun","ily.</w>","another.</w>","fond</w>","doubt</w>","map</w>","ang</w>","disk</w>","309","anni","awful</w>","dead","y.\"</w>","attrac","al,</w>","right.</w>","laughing</w>","reader</w>","reminded</w>","aff</w>","how</w>","ars,</w>","rema","datab","travell","ses,</w>","1989","lasting</w>","track","asked.</w>","higher</w>","separate</w>","1-202-","co,</w>","qua","0.29","garden.</w>","ch</w>","laughter</w>","tropical</w>","\u0003","bring</w>","2,44","persist","upon</w>","test</w>","ony</w>","aff","fore</w>","xi","disappear","telephone:</w>","610","strangers</w>","attached</w>","human","048</w>","136","\"so</w>","612","feet,</w>","charged</w>","ately</w>","primitive</w>","maria</w>","st</w>","-t","afra","ameral</w>","c.,</w>","woman's</w>","long</w>","23%</w>","back,</w>","a,\"</w>","obstac","714","bour","others,</w>","sick","750</w>",":004</w>","figures</w>","serve</w>","foot","itted</w>","society</w>","attack</w>","you've</w>","1033","dire","attracted</w>","on,</w>","secret</w>","66","like","december</w>","dc</w>","courage</w>","girl's</w>","firm","nom","smote</w>","non-","barney</w>","to-day,</w>","ki","revealed</w>","nature</w>","southern</w>","finding</w>","understand</w>","le</w>","units","city,</w>","would</w>","happ","lord;</w>","cook</w>","musi","ative</w>","cabin</w>","path","everything","prices</w>","cross-","adver","million,</w>","909","near,</w>","),</w>","iniqu","manners</w>","343","1901</w>","ement.</w>","129","leg","cargo</w>","on</w>","\"yes,</w>","67","puni","constitu","wto</w>","meat</w>","me!</w>","ko","dat</w>","mn","500</w>","silence.</w>","ack","survi","existence</w>","icious</w>","12:","so.</w>","ilo,</w>","993","error</w>","lines,</w>","picture</w>","explained</w>",":022","29","ton's</w>","diti","sheep</w>","accum","ch","ood</w>","os</w>","40","heav","459","two,</w>","ak,</w>","all.</w>","concern</w>","hither</w>","et's</w>","ah.</w>","mountains,</w>","arg","telecommunic","data</w>","consisted</w>","1976</w>","mother","n't</w>","683","woman","book,</w>","hath</w>","am.</w>","ate.</w>","besides</w>","worth</w>","end,</w>","sorrow</w>","myself</w>","unes","crou","363","damage.</w>","thick</w>","093","202","'.</w>","magn","testi","maybe</w>","en","tor</w>","remember</w>","proceed","cattle</w>","394","castle.</w>","fies</w>","law;</w>","yl","ley</w>","by,</w>","steam</w>","4%,</w>","484","/</w>","den</w>","attention</w>","just</w>","trail</w>","astonished</w>","163","vague</w>","423","millions</w>","turned,</w>","ly","doesn't</w>","deny</w>","ag</w>","\"here</w>","prehen","expedition</w>","orig","man</w>","bag","over","suf","related</w>","aman</w>","notwith","mississipp","1069","look","mosiah</w>","la.</w>","need,</w>","love,</w>","there","meanwhile</w>","mem","bio",":30</w>","this","802","spea","treas","condem","france","river</w>","figure</w>","opportunities</w>","catt","sir","silent,</w>","1914","order","1289","1881</w>","reali","inspec","merci","net,</w>","remember,</w>","system:</w>","exec","24.","useful</w>","service.</w>","il</w>","ingly,</w>","trans","horizontal</w>","forward,</w>","onal</w>","quire</w>","ful,</w>","ward.</w>","64%</w>","levit","flash</w>","859</w>","tons</w>","1027","994","sh,</w>","herself,</w>","receipt</w>","n</w>","embarras","ther","lest</w>","abor","sil","878","pleasant</w>","hood</w>","tore</w>","luci","529","athen","ge","hither","phenomen","pleased</w>","asi","dare</w>","al-","ping</w>","enn","one","brain</w>","die.</w>","dan","dish","larg","tible</w>","surpri","resul","suffici","o-","apply</w>","tank","cryst","percep","pin","throat</w>","es?\"</w>","sam","or","may","power","1987","it,</w>","prejudi","passed,</w>","\"what","dignity</w>","og","fellow","sion,</w>","in,</w>","religi","--a</w>","fores","mus","lightly</w>","granted</w>","friendship</w>","1899","joined</w>","venture</w>","fact</w>","n,</w>","mild</w>","233</w>","australia</w>","187</w>","medit","s.","1835","room,</w>","ight,</w>","812","285","expectancy</w>","couple</w>","\"will</w>","ating,</w>","403","ga","1915","accompani","tish</w>","person.</w>","293</w>","034","ious</w>","crew</w>","major</w>","troy</w>","ted:</w>","mother.</w>","intol","d,</w>","rever","boy","ties</w>","],</w>","subst","psy","assi","685","passeng","na</w>","labor:</w>","involved</w>","167</w>","545","turn,</w>","io","gutenberg-t","agricul","ateral</w>","laugh.</w>","185","eth</w>","nor</w>","pay</w>","eting</w>","509","stre","computers</w>","iaea,</w>","assume</w>","res,</w>","aler","empire</w>","age,</w>","la</w>","ghted</w>","border</w>","sharpl","fault</w>","gen","-1.","ans,</w>","2.7","sorrow","0.09","depend</w>","guest","regular</w>","235","corn,</w>","history,</w>","dine</w>","28.","us)</w>","bullet","sure","ox","revol","{","fall</w>","represent","signs</w>","dress</w>","eth,</w>","684","92%</w>","ows</w>","mes","ble:</w>","nation","unix</w>","lands,</w>","quad","108","1885</w>","http://pglaf.org</w>","tain","ris</w>","30%</w>","029","system.</w>","itual</w>","$2.","god</w>","wit","quiet</w>","13","was","ree</w>","(july</w>","ebooks,</w>","disputes:</w>","parti","0.22","fellow-","angle</w>","avenu","fascin","ses;</w>","church","apri","doroth","network</w>","now","cr","determin","itation</w>","virtu","remembered</w>","267","part,</w>","an;</w>","accomplish","want</w>","english","pa","french</w>","spac","played</w>","shad","789","0563","combin","micro","content","hood","046","feat","trembled</w>","god;</w>","passion","joy</w>","ade</w>","children,</w>","1995","gotten</w>","1633","serv","looking</w>","solid</w>","height","apartment</w>","tail</w>","far","originally</w>","goods</w>","dr.</w>","anyone</w>","john,</w>","an</w>","thre","www.","jerusal","ch-","path</w>","telephone</w>","bet","keeper</w>","l'","equipment,</w>","425","large</w>","savage</w>","open.</w>","(observer","1065","five-","his,</w>","shop","se,</w>","communi","require</w>","tree.</w>","ach","fax","creatures</w>","beli","wilderness</w>","327","maid</w>","!","1533","ect</w>","and--","dex","tired</w>","bre</w>","\"right</w>","1990","up.</w>","asci","mr.</w>","net","pes","talking</w>","range</w>","dings</w>","abroad</w>","exercise</w>","365","ome</w>","selected</w>","ened,</w>","294","fence</w>","bloo","england.</w>","astoni","distribute</w>","company,</w>","not</w>","maur","wish</w>","glow</w>","project</w>","73</w>","change.</w>","company","saul</w>","tirant</w>","told</w>","ea","dwel","sax","dd","sole</w>","t;</w>","sts</w>","group</w>","ines,</w>","acknowledg","close</w>","819","i'm</w>","saw</w>","british</w>","s;</w>","237","circumstances</w>","ashing</w>","question","(january</w>","al.</w>","penn","engine","formation</w>","t-","semi","policem","scheme</w>","charitable</w>","4509","curr","terr","sake</w>","96%</w>","'","income</w>","b</w>","fields,</w>","to.</w>","jon","path.</w>","here's</w>","109","statements</w>","barri","her","sac","ution</w>","ship","size</w>","tun","brilli","ds","lean</w>","f),</w>","54","246","ities,</w>","liv","losing</w>","ne</w>","ept</w>","demand</w>","bod","san</w>","ad</w>","ve.</w>","island","inquir","mining</w>","frequ","aun","ations</w>","extreme</w>","previously</w>","bani","prin","der.</w>","william","job</w>","613","administered</w>","capac","ouri","ania,</w>","importance</w>","beneath</w>","you--","fied,</w>","software</w>","(1990)</w>","1913","observation</w>","de","western</w>","regim","aud","display,</w>","synonymous</w>","den","degree</w>","deput","1933","bending</w>","hoped</w>","27",":012</w>","husband.</w>","ant;</w>","classi","deduc","143</w>","fic","gauge</w>","1,22","answering</w>","gn","1,","ering</w>","nu","decor","ality.</w>","advanc","agreed</w>","responsi","fac","compare</w>","357","ent;</w>","island,</w>","action</w>","breath</w>","anta</w>","startled</w>","husb","gregory</w>","act","storm</w>","using</w>","barely</w>","industrial</w>","inc","bernard</w>","ous</w>","to-morrow","870</w>","miser","\"and</w>","id","smo","break","sket","37</w>","nar","till</w>","too</w>","spare</w>","ate</w>","crops</w>","say</w>","chief","over-","distance</w>","eye,</w>","joy,</w>","side,</w>","complying</w>","charm</w>","sons,</w>","govern</w>","extre","joining</w>","48","capit","went,</w>","mean,</w>","magistr","saying:</w>","climb</w>","satisfy</w>","lying</w>","knees,</w>","fashioned</w>","hol","156","m;</w>","falls</w>","music","behind</w>","obtain</w>","accounts</w>","plainly</w>","wipo,</w>","gle","though,</w>","bers</w>","selec","early</w>","share</w>","explor","truth,</w>","write</w>","migration</w>","ves","lovely</w>","hundreds</w>","absolutely</w>","main","277</w>","started</w>","d'","wilder","sank</w>","'but</w>","germany</w>","'re</w>","some</w>","upper</w>","possibly</w>","begins</w>","^","pers</w>","priv","centre</w>","groan","surprise.</w>","try","remedies</w>","alty</w>","retor","116","neverthel","oil</w>","poss","performing,</w>","745","dele","acqu","046</w>","revenue</w>","night","78","659","moder","determined</w>","1977","knowledg","044","406","trick</w>","ds</w>","asp","food</w>","philip</w>","langu","1885","e?\"</w>","being,</w>","pian","t/","loc","555","telephon","cheap","ase</w>","mc","knowing</w>","4517","touri","steal","chancery</w>","ridicul","encourag","2","lic","yem","eat</w>","difference</w>","way</w>","sir.\"</w>","misery</w>","rus","celebr","moses,</w>","alike</w>","neglig","alo","869","ve-","grain</w>","enorm","assured</w>","thern</w>","30</w>",":022</w>","tor","subject.</w>","itude,</w>","dre","tel","gol","exist","incident</w>","educated</w>","velop","station</w>","ty,</w>","foundation's</w>","--------------------------------","nature,</w>","vap","police</w>","_#_land</w>","alist</w>","males</w>","fire","altern","se:</w>","virtue</w>","delu","awfully</w>","eyes</w>","icial</w>","die,</w>","800","americans</w>","grass,</w>","170</w>","(1991</w>","nonsen","py</w>","prou","\"</w>","understand,</w>","two</w>","purple</w>","maiden</w>","divi","hi</w>","excellent</w>","infin","cry,</w>","uneas","darkness.</w>","900","38","stim","statu","ter</w>","stroke</w>","stri","bs</w>","on's</w>","september</w>","099","elli","copying,</w>","been,</w>","fell</w>","consider</w>","600</w>","edge</w>","additions</w>","aroused</w>","and.</w>","lam","world,</w>","lab","real</w>","royalty</w>","097","uk</w>","ter-","animal</w>","tha</w>","crushed</w>","pretend</w>","energy</w>","begin","both</w>","ay</w>","har","rain</w>","cast</w>","succ","chur","fore","sour","596","belonging</w>","cor","shalt</w>","ca,</w>","capacity</w>","ham","array</w>","possession.</w>","neighbor","=","855","primary</w>",":00","wilbur","(1991),</w>","manifest","cess</w>","},</w>","dat","achiev","brother's</w>","chee","044</w>","291</w>","entertain","tility</w>","quoth</w>","world;</w>","certain</w>","individual</w>","californi","carol","vas","ma.</w>","difficulties</w>","staying</w>","welcom","available</w>","try,</w>","cotton</w>","october</w>","ately,</w>","arrived</w>","massach","tice</w>","led,</w>","ac,</w>","provisions</w>","gorge","eds,</w>","view,</w>","897</w>","lots</w>","\"i'll</w>","45</w>","ender</w>","right,\"</w>","kan","religion</w>","stiff</w>","495","bang","(if</w>","ounc","blance</w>","ations:</w>","harm","ci","muslim</w>","else,</w>","wrea","alexander</w>","thes</w>","drew</w>","1207","flat","remove</w>","522","swit","k","dancing</w>","75","provi","ures:</w>","2,440-3,659</w>","look,</w>","po,</w>","victory</w>","heap","fet","feel</w>","work,</w>","gni","sag","best</w>","insisted</w>","contemp","nations</w>","enco","grac","lofty</w>","niec","we,</w>","].</w>","fer","lad</w>","256</w>","bi</w>","first.</w>","5.","fl","better</w>","nut","ily,</w>","window","fati","ables,</w>","bru","ad","president,</w>","nas","printed</w>","population","buck","uli","restrictions</w>","k.</w>","mass</w>","joe</w>","vent</w>","event</w>","discovered</w>","absorbed</w>","ex-im</w>","trav","complete</w>","keth</w>","\"why</w>","ir,</w>","br","day,</w>","personal</w>","icao,</w>","negle","lyn","226","jas","alleg","compla","avoid</w>","home","thri","fitz","child.</w>","swinging</w>","ef","p,</w>","chemical</w>","appeared,</w>","ably</w>","808","sy","sci","065","thirty</w>","g-","spent</w>","(as</w>","400","agu","flow","ab","ef,</w>","von</w>","ism,</w>","autom","prepar","14%</w>","anything.</w>","gallop","lazar","eb","dian","spr","ow</w>","partners:</w>","...","**</w>","circumst","weather</w>","bla","struct","unlike</w>","bank","resolved</w>","them;</w>","cheeks</w>","shrew","madam</w>","[","nat","likewise</w>","0;</w>","confined</w>","sooner</w>","byr","ud","imperi","red.</w>","replied</w>","times</w>","thee;</w>","pipe</w>","treasure</w>","narr","volume</w>","stern","i</w>","anc","(1990","atory</w>","431</w>","ter.</w>","maintaining</w>","him--","eating</w>","pos","ood","gil","developed</w>","mess","comfortable</w>","worth","concerned</w>","behavi","electric</w>","ago","lucy</w>","anim","centur","mixture</w>","lo","requ","f.","see</w>","ies.</w>","bur","tou","said.</w>","good-","boast","monstr","any","sm,</w>","elements</w>","dealt</w>","177</w>","system","remo","company.</w>","gdp:</w>","righteousness</w>","ana</w>","\"_","habits</w>","firmly</w>","happiness</w>","district</w>","17</w>","moses</w>","m:</w>","sue</w>","ition.</w>","dimin","you!</w>","alist","glori","wmo,</w>","godd","rate:</w>","mad</w>","kil","present.</w>","hart,</w>","colour","master.</w>","emer","location</w>","sugar","of;</w>","124","889","american</w>","throne</w>","committee</w>","1980</w>","exclam","dest</w>","(which</w>","angri","freck","offer","you:</w>","tow","volunte","res</w>","all,\"</w>","'ve</w>","gutenberg-tm</w>","preva","--</w>","thank</w>","him:</w>","in'</w>","light","ess.</w>","cial</w>","tural</w>","conveni","regarding</w>","servant</w>","nothing.</w>","&c.</w>","colour</w>","satisfaction</w>","possess</w>","saying</w>","-meter</w>","slavery</w>","thither</w>","delivered</w>","meaning</w>","27%</w>","time,</w>","tex","entr","app","on-","exerci","dim","parliam","possession</w>","recent</w>","see,</w>","ale</w>","noted</w>","observe</w>","casau","ti","darkness,</w>","mcteague</w>","collect</w>","caused</w>","husband's</w>","killing</w>","editions,</w>","indefin","musical</w>","concei","defi","266","leader","sly</w>","longer.</w>","31</w>","af","forest</w>","arrows</w>","fetch</w>","disciples</w>","zar","20","'t.</w>","\u0002","gather</w>","ked,</w>","swamp</w>","missi","valley,</w>","will","removed</w>","sions.</w>","behold</w>","14:","know.\"</w>","165</w>","ously,</w>","anywhere</w>","gertru","us.\"</w>","incl","d\"</w>","57",":005</w>","signal</w>","virg","fruit,</w>","urged</w>","action,</w>","sent</w>","fruit","[obs3].</w>","stair","851</w>","law.</w>","ant</w>","ili","727","@","val","cra","rough</w>","it!</w>","women.</w>","miri","indones","obliged</w>","18%</w>","leg</w>","fatal</w>","km","touched</w>","[obs","ally.</w>","129</w>","ancest","ety,</w>","understanding</w>","447","1112","489","more</w>","ss,</w>","013","pot","arm.</w>","130</w>","agree</w>","tobac","1075","paper.</w>","polic","fav","ental</w>","took</w>","ation:</w>","red","dreadful</w>","1.15","swif","wherever</w>","communication</w>","kel","distribu","while,</w>","receive</w>","em,</w>","den,</w>","transport</w>","ard</w>","fra","sharing</w>","elphi","north-","1845","........................","05</w>","starting</w>","58","1944</w>","785","iso","ment,</w>","'s.</w>","measure</w>","date</w>","warning</w>","occurred</w>","http://","to-","wait","well.</w>","marri","commodities--","setting</w>","144","ja</w>","kept</w>","d.\"</w>","d;</w>","wheat</w>","repeat","ing's</w>","legs,</w>","suspici","bottom</w>","restra","profes","principles</w>","houses</w>","then</w>","pol","portug","..</w>","rate,</w>","chuck","princip","6</w>","shared</w>","di</w>","state:</w>","patience</w>","143","o.</w>","zam","wouldn't</w>","alarm</w>","067","world's</w>","603","examined</w>","under","believe,</w>","ventured</w>","sleep","plor","require","lish</w>","mail","kin","gesture</w>","($","confused</w>","asle","financial</w>","135","ember</w>","feet</w>","5","tle</w>","attended</w>","message</w>","decl","foodstuff","g","le.</w>","about,</w>","bic","matter.</w>","ent","dam","roof</w>","all;</w>","um</w>","crowded</w>","character","acquaint","claims</w>","\"it's</w>","\"ah,</w>","cape</w>","corrupt</w>","er's</w>","que,</w>","753","lum","transfer","\u0011","mark","shake</w>","shop,</w>","aries</w>","spoke</w>","nam","mean</w>","ara","safety</w>","price</w>","god","breathed</w>","da</w>","marked</w>","individu","octo","ent.</w>","[lat","ple.</w>","1087","promotion</w>","1299","lay</w>",":021</w>","earth;</w>","haven","467","drops</w>","seats</w>","conci","smith,</w>","vised</w>","026","\"not</w>","true.</w>","knocked</w>","enemy</w>","phil","termin","external</w>","sop","supre","have","sake,</w>","farm","mo,</w>","likely</w>","bott","key","ese</w>","sudd","died</w>","kes</w>","sea,</w>","void</w>","avi","landed</w>","079</w>","is;</w>",":002","ele","street</w>","som</w>","jungle</w>","hon","l</w>","what's</w>","habit","restri","noble</w>","harmon","margar","develop","oughly</w>","stated</w>","king.</w>","017","\u0007","head,</w>","himself","091</w>","antly</w>",":024</w>","ise</w>","tain</w>","er;</w>","gosla","dressing","ts,</w>","sle","heard,</w>","sheer</w>","surge","use","angel","mission.</w>","wander","mentioned</w>","53</w>","xx","get</w>","nodded</w>","ken</w>","473","carefully</w>","enabled</w>","suggested</w>","879","handker","lur","edly</w>","\"ah","ows,</w>","peac","1893","psych","reply</w>","gosp","support.</w>","san","007","aid</w>","still.</w>","codes</w>","\"i'm</w>","1229","001</w>","the,</w>","1293","maj","p://","immen","floor,</w>","11","tiv","as","friends,</w>","na%</w>","ls</w>","entity</w>","read</w>","consci","text</w>","slow","088","re.</w>","disappoint","post</w>","in:</w>","en't</w>","vil","testim","secur","tions:</w>","nights</w>","unconsci","beautiful,</w>","aled</w>","including</w>","arch</w>","239</w>","fin","walk</w>","poetry</w>","imagination</w>","e-mail","14.","stronger</w>","news","mother</w>","its.</w>","italy,</w>","application</w>","d!</w>","buried</w>","beginning</w>","gott","mone","essed</w>","plea","anth","talk</w>","copy,</w>","quantity</w>","aver","tra</w>","wret","'d,</w>","performed</w>","er,\"</w>","801</w>","es,\"</w>","snapp",".....</w>","ological</w>",")</w>","wisdom","household</w>","instinct</w>","oak","und</w>","clay</w>","indicate</w>","rust","cattle,</w>","foli","mustn't</w>","ual</w>","gur","glorious</w>","ended</w>","left</w>","refu","ite</w>","ants,</w>","ast","ities</w>","man,</w>","mountain","desig","sage,</w>","object","les;</w>","poverty</w>","193","fiscal</w>","42","mine.</w>","owner</w>","ure","merry</w>","game</w>","eless</w>","qui</w>","avoi","viney","lend</w>","pon","web</w>","\"project</w>","afternoon.</w>","de-","jona","28</w>","seven</w>","laid</w>","rough","\"oh</w>","question.</w>","tak","279","remem","pou","aca","1287","boat</w>","puzzled</w>","eze</w>","ute</w>","begin</w>","ai</w>","wol","it?\"</w>","capable</w>","wonderful</w>","or's</w>","electricity:</w>","satell","be.</w>","pushed</w>","york,</w>","once","mir","buildings</w>","interior</w>","obscure</w>","95","flam","ire,</w>","hotel","who</w>","forest","hill,</w>","alle</w>","pier","\"a</w>","greater</w>","catholic</w>","ic.</w>","tal</w>","neck,</w>","cir","mrs.</w>","folks</w>","sir,</w>","y,\"</w>","was.</w>","vivi","atl","box,</w>","ters</w>","blue,</w>","cheap</w>","1095","t's</w>","ead</w>","ose</w>","tive</w>","somehow</w>","'the</w>","0.00","commission","1967</w>","isi","gatt,</w>","arts</w>","ed!\"</w>","257","crying</w>","holder","photo","numbered</w>","replied,</w>","scarec","equipment</w>","alma</w>","possibility</w>","somewhat</w>","bridg","ask","crime</w>","com","34","stopp","introduc","confeder","t,</w>","269","burden</w>","(1990),</w>","f,</w>","half</w>","plain,</w>","322","adjectiv","dream","triumph","arable</w>","lete,</w>","struggled</w>","ind","................................................","benjam","ular</w>","1023","fran","months,</w>","fred</w>","sco",">","at-","plain","kind.</w>","62","gra","ed,\"</w>","format</w>","000</w>","prospect</w>","dispo","david,</w>","lef","ah,</w>","avo","zen</w>","warri","eding</w>","freed","forty-","quod</w>","e-","rat","way.</w>","expen","defined</w>","[obs3],</w>","invari","959","k-","visible</w>","cried</w>","mon</w>","counc","inclin","perio","tions,</w>","simple</w>","development</w>","mater","stayed</w>","relat","river.</w>","phr.</w>","mai</w>","books</w>","rif","pains</w>","977","ati","gl","shri","vol","?\"</w>","little,</w>","ley","said;</w>","liability,</w>","dinner","894","clam","\"tell</w>","car</w>","centr","temper","kiss</w>","calendar</w>","provo","0.","increased</w>","prud","accur","archi","216","prevent","vigor","duties</w>","prisoner</w>","also</w>","'ll</w>","1.53","ough</w>","ell,</w>","er,</w>","copy","mean?\"</w>","cab","86","audi","169","runways</w>","scar","robert</w>","urg","aaron</w>","opening</w>","appeal</w>","che</w>","desire","lydg","tender</w>","1964</w>","noght</w>","609","honest</w>","inci","vessels</w>","1877","ston</w>","ne.</w>","envir","holi","65","list</w>","institu","charge</w>","charity</w>","colom","ran</w>","hearted</w>","118</w>","at.</w>","on--","nether","dressed</w>","bab","sides</w>","tho</w>","$na</w>","credit</w>","change</w>","les,</w>","itch","pro","sty","sis</w>","skill</w>","ence.</w>","popular</w>","fired</w>","3,","entering</w>","princess</w>","accident</w>","fine,</w>","mam","young","low,</w>","replace</w>","garden","ger,</w>","total</w>","investig","ors,</w>","mission","during</w>","donations</w>","moving</w>","bread","affor","ation.</w>","book","year.</w>","movements</w>","with.</w>","500","temporary</w>",".\"","contra","set","heat</w>","st;</w>","belongs</w>","do.</w>","mala","sav","chamber</w>","ta,</w>","gom","_*","3","land","needn't</w>","ins,</w>","\"now</w>","thur</w>","roused</w>","finish","03","perfor","naval</w>","hungry</w>","slaver","wend","chosen</w>","furnit","here,\"</w>","recovered</w>","sea:</w>","do?</w>","2:","medic","managed</w>","zones</w>","%","gro","bre","property</w>","ville</w>","120","examine</w>","557","doub","indian</w>","begun</w>","seen</w>","effort</w>","dge","649","wonder</w>","meter</w>","er.\"</w>","cared</w>","cil</w>","mi","559","fear,</w>","paragraphs</w>","lor","be,</w>","adap","best,</w>","140","a","steadily</w>","jealous","puzz","companion","cea","whil","interpre","dying</w>","space</w>","true,</w>","j.</w>","modern</w>","1972</w>","s--","sixty</w>","workers</w>","italian</w>","ures</w>",":006","ther.</w>","les","cultiv","gleam</w>","believed</w>","father.</w>","will</w>","chang","\"by</w>","225","sol","ys</w>","954",":019","483","invali","know.</w>","heaven,</w>","key,</w>","eless","ed)</w>","smil","extended</w>","head","accessible</w>","yet.</w>","mountain</w>","fel","poli","tily</w>","tet","clas","embas","net.</w>","stru","et,</w>","ven,</w>","ligi","friend,</w>","cat","hire</w>","foundation","hir</w>","ol","destroy</w>","opposite</w>","ens</w>","usually</w>","0.33","x</w>","request,</w>","861</w>","061</w>","curiosity</w>","la","returned</w>","materi","scription</w>","merc","cooper","only</w>","dev","se?\"</w>","esse</w>","lead</w>","\"there's</w>","oblig","better","ern","draw</w>","189","view</w>","enjo","fully</w>","reach</w>","'\"</w>","splen","enjoy","hunt</w>","deliver","1960</w>","but","mine</w>","registered</w>","steady</w>","ulate</w>","a),</w>","429","usual</w>","446","sensitive</w>","punish","roy","oning</w>","repair","married</w>","wind</w>","bank,</w>","utter","fles","54</w>","open","clung</w>","sister</w>","vaul","694","fanta","lighted</w>","her.</w>","334","wi","chem","suppo","be</w>","sie","water.</w>","15.","edy</w>","ex</w>","expect","ate","hob","e!</w>","gan","besides,</w>","for","from</w>","way,</w>","775","gazing</w>","ey,</w>","minutes</w>","633</w>","cry","dish</w>","adverti","senti","sit</w>","tall,</w>","victim</w>","shops</w>","keep</w>","strugg","interrup","ministers</w>","lowered</w>","irrig","himself,</w>","charac","right,</w>","he's</w>","advent","crossed</w>","scattered</w>","small,</w>","voice</w>","gri","manner</w>","clut","philist","rows</w>","miss</w>","while.</w>","street.</w>","--and</w>","o'er</w>","national","committ","stop</w>","637","cases</w>","satisfac","fair,</w>","1973</w>","on.\"</w>","pretended</w>","swed","bloom","images</w>","better.</w>","cott","eri","part</w>","seventh</w>","covenant</w>","top","sque</w>","(next</w>","laim</w>","precipit","til","escap","per.</w>","dun","woul","nin","madam","plural","_the</w>","attention.</w>","ann</w>","tional</w>","3.16","medicine</w>","benef","fastened</w>","sea","s,--","765","doctrine</w>","into</w>","lords</w>","upward</w>","(c)</w>","soci","moment.</w>","add</w>","cause,</w>","004","states.</w>","shaped</w>","820","elizabeth</w>","el;</w>","vex","74","ver","invol","other's</w>","bosom</w>","paint</w>","star","executive</w>","sky.</w>","513","walking</w>","distin","rab","general","self,</w>","dey</w>","amused</w>","confes","something.</w>","549","physi","former</w>","king","========","(non-us)</w>","relief</w>","cottage</w>","negro</w>","173","unti","wasn't</w>","legisl","ile</w>","disagree","scienti","answered</w>","slowly,</w>","gain</w>","affection","ensur","bless</w>","from.</w>","forever</w>","we'd</w>","21.","1817","601</w>","os,</w>","boys,</w>","improved</w>","rope</w>","teach","ebook,</w>","bed.</w>","walls,</w>","695","covering</w>","searching</w>","679</w>","visit</w>","threatened</w>","fight,</w>","act,</w>","susp","24%</w>","slay</w>","sun.</w>","conducted</w>","satellite</w>","tions.</w>","concealed</w>","box","ying,</w>","african</w>","gold.</w>","ask</w>","whole</w>","per","middle</w>","255","expend","long,</w>","falling</w>","253</w>","chario","license</w>","billion,</w>","beaut","ah</w>","shu","negro","bearing</w>","sympathy</w>","marsh","timber</w>","46","x,</w>","1875","cannot</w>","horses</w>","recei","expected</w>","portion</w>","sight","inhabitants</w>","ark","excell","07</w>","league</w>","vanity</w>","circ","vote</w>","partners--","826","pop","agri","pressure</w>","raim","object</w>","steps</w>","juda","acces","philipp","rock,</w>","uncle","admiration</w>","emerg","et","thing</w>","combined</w>","unido,</w>","industry,</w>","9%,</w>","couldn't</w>","675","quali","breathing</w>","ble</w>","deser","probab","source</w>","periodic</w>","power,</w>","actu","adam","effectu","1099","claim","th-","mariti","arctic</w>","ence</w>","prominently</w>","hear,</w>","1814","854","lock","once.</w>","literary</w>","considering</w>","ran","four</w>","house,</w>","to-morrow</w>","stranger</w>","88","other,</w>","aware</w>","blow</w>","next</w>","fic</w>","ils,</w>","lady's</w>","departure</w>","874","carrie</w>","round","listened</w>","http://www.gutenberg.org/","1029","thanne</w>","why,</w>","exchange</w>","allow","ig","ther,</w>","73","nois","18</w>","thee.</w>","lead","tabernacle</w>","rubbed</w>","ness;</w>","sounds</w>","jar","8%</w>","oun","1987</w>","1929","ms.</w>","geni","28","lear","is","again,</w>","calculate</w>","sible</w>","alex","mademois","them","ented</w>","chance,</w>","replac","knif","houses,</w>","positive</w>","tic,</w>","or,</w>","tribu","coast","y","willi","sword</w>","hole</w>","provision</w>","116</w>","1199","ne","e;</w>","y.</w>",":003","face,</w>","2,439</w>","41</w>","total:</w>","ces</w>","worship</w>","bones</w>","jealous</w>","105","83","collection</w>","sear","republic</w>","cin","f.</w>","gray</w>","120</w>","clever","analy","itu,</w>","separated</w>","tum","escaped</w>","teenth</w>","under</w>","j","chill</w>","224","he","ny","named</w>","erable</w>","sym","brilliant</w>","1969","inf","iled</w>","rho","geor","university</w>","1300","439</w>","distur","unc","deal","son</w>","le,\"</w>","engine</w>","178","spiri","contact</w>","--for</w>","ently.</w>","dle</w>","unicameral</w>","ly--","deliber","sing</w>","ford,</w>","worl","he</w>","means</w>","having</w>","ever.</w>","posing</w>","decre","pen</w>","classes</w>","female:</w>","table.</w>","cep","ed</w>","approached</w>","xvi","considerable</w>","contain","like.</w>","crossing</w>","withou","live</w>","pag","rail","volunteers</w>","shame</w>","bush","5.</w>","thy</w>","glance</w>","people;</w>","4557</w>","processing,</w>","spark","belgi","lling</w>","anne.</w>","product</w>","placed</w>","train</w>","transl","deem","commo","christian</w>","view:</w>","reference</w>","conspic","81</w>","exceed","confirmed</w>","177","kened</w>","attac","uses</w>","paid</w>","15%</w>","antiqu","commun","essential</w>","what</w>","beat</w>","engag","beauti","night;</w>","scop","contract</w>","so;</w>","26.","asian</w>","e.","suspended</w>","room</w>","blood</w>","mor","ring","written</w>","resources:</w>","ants</w>","strained</w>","rice,</w>","gla","stock","teacher</w>","hung</w>","offers</w>","night.</w>","317","stead","england</w>","ards</w>","resem","tang","career</w>","ening</w>","e,</w>","based</w>","sure,</w>","nearest</w>","eaf","vision</w>","can</w>","0.14","ought</w>","ap","895","legi","step","pretty</w>","pir","dispute</w>","$1.","made.</w>","29.","709","mathem","eagerly</w>","arrow</w>","ble.</w>","marie</w>","stir</w>","elnor","mouth</w>","l.</w>","mental</w>","qualities</w>","trademark,</w>","exact</w>","mission:</w>","gest","ctions</w>","eh","commonly</w>","cheerful</w>","instant,</w>","egyp","awoke</w>","dar","284","streets</w>","first</w>","012",":3","away.</w>","milk</w>","fact,</w>","guessed</w>","hackers</w>","again;</w>","giving</w>","[us</w>","ero","conspir","e\"</w>","strangely</w>","government,</w>","railroad</w>","\"of</w>","s.\"</w>","c,</w>","promi","sts,</w>","228","ousness.</w>","off,</w>","ity</w>","timent</w>","compil","driving</w>","resear","1890</w>","083","vering</w>","o","located</w>","816","greatly</w>","wealth</w>","iling</w>","doctor,</w>","repor","?","disapp","solic","699","shining</w>","957","stab","shor","6.</w>","force,</w>","la,</w>","andre","trade","ii</w>","_*_","ano","smiling</w>","40%</w>","conqu","availability:</w>","43</w>","ener","interfer","tre</w>","ideas</w>","appointed</w>","dinner,</w>","loo","14</w>","chlor","held</w>","hills,</w>","\"oh","25","screen</w>","inno","let's</w>","questi","vit","\"--","251</w>","christ","impres","bent</w>","release</w>","names:</w>","fann","crow","814","gho","ened</w>","that?\"</w>","that,\"</w>","anything","row,</w>","parag","lai","countries,</w>","hat,</w>","fir","451</w>","strange</w>","lord</w>","thank","endar</w>","94","sir.</w>","quiet,</w>","fts</w>","3553","ers'</w>","169</w>","ley.</w>","dwelt</w>","lord's</w>","casting</w>","note","pope</w>","vain</w>","',</w>","volu","ght,</w>","en-","finish</w>","1083","water</w>","accepted</w>","wis","a;</w>","child","problem</w>","eyed</w>","gari","run</w>","graceful</w>","payments</w>","appear</w>","kitch","patter","http://pglaf.",",''</w>","stal","kee","477</w>","1949","embarr","distribution</w>","t,\"</w>","introduction</w>","ii.</w>","enced</w>","impor","i,</w>","countr","respect","-2.","burned</w>","trif","john</w>","republic","\"is</w>",":</w>","dal","\";</w>","door</w>","ages.</w>","depar","arrangement</w>","809","london,</w>","gentle","sand","ze","will.</w>","journ","1927</w>",":02","1815","hours.</w>","posses","small</w>","ps</w>","graph","eyes,</w>","nothing","say.</w>","cali","bill","alter","shadows</w>","ple</w>","running</w>","sometimes</w>","1.5","ibrd,</w>","policy</w>","armies</w>","ark</w>","ymous</w>","err","india,</w>","itt","055","weight</w>","594","tale</w>","sq</w>","occur</w>","rebu","exhau","how,</w>","079","it.\"</w>","construction</w>","kor","road","melancho","lord","people","sic","interest.</w>","betw","think","m-","intended</w>","distinct</w>","mystery</w>","19</w>","exclusion</w>","ges</w>","agriculture","beth","limitation</w>","e</w>","indign","shape</w>","driver</w>","step</w>","hands.</w>","leop","fathers</w>","straw</w>","0.10","hall","war,</w>","486","whit","hypo","itive</w>","matters</w>","rose,</w>","tempor","suspec","amp","curiously</w>","raising</w>","condition</w>","smile.</w>","state.</w>","mari","week.</w>","guil","1063","marry</w>","istr","4,</w>","evening.</w>","state</w>","via,</w>","abi","month,</w>","communic","10%</w>","diana</w>","tical</w>","list","ance.</w>","scrip","soft","few</w>","per</w>","samu","mode</w>","pace</w>","pr","uk","closely</w>","bor","precisely</w>","contrast</w>","race","master</w>","ladies</w>","belo","(a)</w>","853</w>","initi","neighbour",":013</w>","obedi","days,</w>","circumstance</w>","earth.</w>","1896</w>","laugh</w>","fourth</w>","sky,</w>","frightened</w>","abs","vari","ats,</w>","not;</w>","carry</w>","rush</w>","jeho","bow,</w>","wist","signific","castle,</w>","problems</w>","prize</w>","store</w>","physici","assumed</w>","d","sati","giant</w>","geography</w>","japan,</w>","te</w>","owed</w>","89)</w>","constitution</w>","guin","child's</w>","story</w>","displaying,</w>","shre","line.</w>","furniture</w>","dness</w>","behin","knife</w>","form,</w>","ape-","less.</w>","jew","high,</w>","ce</w>","paper","claimed</w>","francis","drunk</w>","hand;</w>","shaken</w>","code</w>","goodness</w>","259","23</w>","pep","ied</w>","arms</w>","leave</w>","nea","computer</w>","shoot</w>","cries</w>","pra","ly;</w>","995","fully,</w>","phara","refund</w>","log","priest,</w>","fat","counten","hep","335","nam,</w>",":001:0","virgin</w>","wing","coal</w>","packed</w>","ous,</w>","your","intelsat</w>","shed</w>","irish</w>","ac</w>","presently</w>","nurse</w>","1897","ets,</w>","clean","flo","foo","november</w>","cked</w>","ously</w>","indeed,</w>","flowers</w>","petroleum</w>","fm,</w>","position,</w>","sequ","fresh","loa","germany,</w>","medical</w>","mum","da","stud","s?</w>","879</w>","vio","usu","817","men.</w>","rel</w>","ja","rain","things.</w>","sharp</w>","03</w>","seemed</w>","youth</w>","018","imag","deadly</w>","1307","1946</w>","fying</w>","oul</w>","60</w>","seat","fish,</w>","city</w>","normal</w>","whatsoever.</w>","dogs</w>","sailed</w>","remote</w>","students</w>","0.5","across</w>","vell","133</w>","whatsoever</w>","jonathan</w>","difficulty</w>","get","617","john","(1970-","states</w>","warrant","rejoice</w>","fed","earli","there,</w>","en;</w>","ra</w>","rejec","example</w>","divided</w>","taste</w>","6573","susan</w>","465","then?\"</w>","white-","could</w>","99","r</w>","lies</w>","daugh","\"you're</w>","sume</w>","hate</w>","cle</w>","belonged</w>","delightful</w>","vo","longed</w>","murder</w>","stem</w>","s.'</w>","weep","repeat</w>","ann","alism</w>","watch","idol","1974</w>","ell</w>","ands</w>","they","surely</w>","waves</w>","broad","helen</w>","(the</w>","illicit</w>","commitments</w>","ks,</w>","kni","843","cast","ons</w>","see","ku","ables</w>","row</w>","eleven</w>","shan","stres","colum","bright</w>","der","weap","ro,</w>","15","med","sex</w>","snow</w>","kind","na","ased</w>","stone,</w>","sal","yet,</w>","ec</w>","troop","eag","visi","self-","474","arity</w>","hour</w>","work","side","ved,</w>","faith","cap","ifad,</w>","ents</w>","sleep.</w>","ba,</w>","demonstr","observer","keen","ground.</w>","entitled</w>","indirec","maintained</w>","loved</w>","scent</w>","conviction</w>","lydgate</w>","1995</w>","afraid","spap","281</w>","pool</w>","currency:</w>","08","plac","polit","led.</w>","ten","inv","international</w>","644","straight</w>","sir,\"</w>","thousands</w>","4749","blan","55","contem","plants</w>","fr","func","elev","exac","ure</w>","ful</w>","never","il.</w>","continental</w>","zes</w>","dea","there.</w>","process</w>","univers","man;</w>","least</w>","others.</w>","indon","29:","bai","797","friend","ian</w>","********","christmas</w>","let</w>","away,</w>","marco</w>","\"you</w>","iter","stir","period</w>","gener","person","wro","thou","commercial</w>","stones</w>",":020","consequence</w>","kness</w>","p:","instrum","reflected</w>","honor","aristocr","sat,</w>","50</w>","plates</w>","adv","direction</w>","syn","army,</w>","independent</w>","conscience</w>","empt</w>","silk</w>","1980","wound</w>","23.","je","sel</w>","various</w>","environment:</w>","foot,</w>","ing!</w>","livestock</w>","mexico</w>","ely</w>","agit","ams</w>","est.);</w>","aci","food,</w>","form</w>","several</w>","805","informed</w>","259</w>","25</w>","scal","969","sector</w>","cy","itute</w>","mach",":002</w>","own,</w>","cover</w>","undoubt","nd</w>","61</w>","64</w>","proportion</w>","ing:</w>","ceed</w>","shade</w>","xt</w>","dani","anxi","commitments,</w>","r","old-","wherein</w>","hard,</w>","push</w>","\u001b","der,</w>","expecting</w>","831</w>","philad","pron","yn","thought","holiday:</w>","baby</w>","110</w>","1937</w>","earn","organization</w>","thou</w>","soo","same.</w>","ffed</w>","past","1673","brea","g.</w>","financi","exhib","org.</w>","visitor</w>","whosoever</w>","chap","65%</w>","husband","finds</w>","hardly</w>","majesty</w>","machinery</w>","scarlet</w>","unity</w>","10","ets</w>","references:</w>","boun","2.3","ac","all","phs</w>","739","resumed</w>","35","pic","eve</w>","owner,</w>","shoes</w>","accoun","ze</w>","'what</w>","nam</w>","laugh","malaysi","66</w>",".'</w>","\"well,\"</w>","du</w>","elfri","trunk</w>","did</w>","kinds</w>","jurgis</w>","prot","frequently</w>","haun",":015</w>","intro","lei","pardon","lli","side.</w>","del</w>","mostly</w>","ald</w>","gru","age","tv","low</w>","seem</w>","persi","tail","297","wondered</w>","eyes.</w>","620","jap","roder","8","flouri","pursu","614","wooden</w>","someone</w>","egypti","rap","ade","engaged</w>","bli","food","49,</w>","pocket,</w>","57%</w>","decent</w>","make</w>","dry","%</w>",":--</w>","mount</w>","speaks</w>","ally,</w>","hanna","eventually</w>","501(c)(3)</w>","ets.</w>","back","door,</w>","tick","doro","even</w>","pressed</w>","fathers,</w>","strength</w>","atter</w>","655","slew</w>","bet</w>","elnora</w>","130","mutual</w>","play</w>","suggest","chemicals,</w>","our</w>","fail","smiled</w>","sending</w>","873</w>","other.</w>","788","bro","climate</w>","cross</w>","music</w>","ffled</w>","right</w>","kins</w>","spot</w>","tanker,</w>","confirm","nomin","1994</w>","years........................................","an.</w>","8:","works.</w>","case.</w>","fat</w>","le,</w>","newspaper</w>","groups</w>","high</w>","plague</w>","nerves</w>","jac","%;</w>","mention","together,</w>","rai","roll","soon</w>","535","mann</w>","off</w>","023","me;</w>","1693","20:","political</w>","physical</w>","pain,</w>","blows</w>","micha","play","imagine</w>","z,</w>","fairly</w>","apple</w>","discover</w>","contributions</w>","proper</w>","well</w>","collec","airports:</w>","gover","appropri",":023","trip</w>","either</w>","desk</w>","pick</w>","wore</w>","939","spanish</w>","thought.</w>","emp","ambas","grant</w>","hopes</w>","ignorant</w>","manner.</w>","always</w>","manner","ideal</w>","georgi","ena</w>","remarkable</w>","lain</w>","roderick</w>","th:</w>","descri","examination</w>","prevent</w>","rick","twenty-five</w>","110","207","son.</w>","rates:</w>","deli","israel,</w>","wrong</w>","applied</w>","yed,</w>","ment;</w>","ook</w>","remainder</w>","instrument</w>","produ","290</w>","was,</w>","drank</w>","trun","hers</w>","--------","definite</w>","eighteen</w>","anch","tables</w>","courts</w>","(2)</w>","(from</w>","al","black","last","--not</w>","man,\"</w>","rh","in.\"</w>","batter","files</w>","announced</w>","conduc","wool","stained</w>","here.</w>",":024","counted</w>","provided</w>","butter","strike</w>","olog","perceived</w>","knowle","recep","fly</w>","hr","tuous</w>","derive</w>","challeng","wor","confu","resol","suff","dead.</w>","-and-","keeping</w>","convenient</w>","ding","agreement,</w>","rhy","parties</w>","ped</w>","countri","1894</w>","399","837","10.","please</w>","sincer","again.\"</w>","1869","natur","favour",":010","time;</w>","near","http://pglaf.org/","ns,</w>","rid","stin","ji","principal</w>","37","come,</w>","births/1,000</w>","lov","glas","ho","hast</w>","character</w>","desert</w>","459</w>","replacement</w>","ommun","shoulder.</w>","harvester</w>","ound.</w>","hideous</w>","maced","around</w>","lan","saith</w>","version</w>","2,</w>","ous;</w>","prom","things,</w>","\"at</w>","stood,</w>","ned,</w>","705","death,</w>","long.</w>","ation</w>","location:</w>","came,</w>","availabil","billi","present</w>","light,</w>","knew,</w>","february</w>","extrem","towards</w>","1116","party,</w>","world</w>","shell","039","zi","soldier</w>","press,</w>","ia</w>","observing</w>","program","teach</w>","type:</w>","warm","spirits</w>","feet.</w>","8553","0.27","dared</w>","copied</w>","frame</w>","mock","regar","seized</w>","me?</w>","spo","96","strict</w>","duke</w>","nap","digit","514","duc","scep","over.</w>","d:</w>","ftu,</w>","ily</w>","remarked</w>","ates</w>","za","amid","sull","midd","tan","family,</w>","119","sa</w>","mono","fai","likes</w>","fro</w>","commandment</w>","itions</w>","eful</w>","ter,</w>","ture","closed</w>","toler","weapons</w>","021</w>","strick","humor","over)</w>","\",</w>","praise</w>","sheep","-18","ear,</w>","snat","schal</w>","steep","sher","!--","deep,</w>","reigned</w>","ben","ym","gi","0","establish","gs</w>","ways;</w>","657</w>","oce","grati","lied,</w>","asked,</w>","moment</w>","sleep</w>","educ","repro","ved.</w>","fao,</w>","itali","saw,</w>","meri","science</w>","sure.</w>","him.\"</w>","hat","me</w>","sense,</w>","dies</w>","effor","grace</w>","22.","ground</w>","d!\"</w>","ent</w>","ons,</w>","confir","enable</w>","generally</w>","le","3,659</w>","cum</w>","strength,</w>","morn","hell","riding</w>","opportun","gradu","hand","things</w>","licensed</w>","depends</w>","roads</w>","800</w>","foundation,</w>","privi","wast","comfort","eye.</w>","establishment</w>","eu","................","atlan","\u001c","gay</w>","unctad,</w>","tan</w>","197</w>","dy</w>","conver","4,","request</w>","tree,</w>","le's</w>","bit","wot</w>","flag","marine</w>","dged</w>","tire","d,\"</w>","israel.</w>","ench</w>","faint","harmless</w>","machin","free,</w>","treat","produced,</w>","keen</w>","softly</w>","goin'</w>","debt</w>","1279","usel","philadelphi","noticed</w>","state,</w>","gor","le;</w>","forth</w>","0.12","silver,</w>","fli","\"go</w>","plains</w>","u.","elec","guilty</w>","deeply</w>","doorway</w>","china</w>","helpl","fallen</w>","we'll</w>","monsie","water","billion;</w>","426","ard,</w>","``","dust</w>","six","realized</w>","attend</w>","moon,</w>","appro","camp","cable</w>","1884","em","arch","lord,</w>","might</w>","ability</w>","meeting</w>","anything</w>","ay,</w>","ashamed</w>","headed</w>","0.13","east","loss</w>","spoke,</w>","use</w>","when","noun","tering</w>","user</w>","church.</w>","ea,</w>","special</w>","dit","the-","winds</w>","375","ibr","ch.</w>","sanctu","said,</w>","_</w>","noti","solicit</w>","shed,</w>","oppos","vanilla</w>","itor</w>","status</w>","17.","horses,</w>","lin</w>","siah</w>","arm,</w>","eph","genu","umin","girl","saw","weakness</w>","ugh","prison</w>","stol","smile</w>","tionary</w>","earnest</w>","ass</w>","053</w>","favourite</w>","damages</w>","735","141</w>","87","livest","gain","o'</w>","193</w>","hop","at</w>","cal","dear","whisper","community</w>","railroads:</w>","yesterday</w>","1905</w>","pau","m's</w>","tom</w>","contented</w>","evening</w>","hope,</w>","obsc","trumpet","(1991)</w>",":016</w>","partner","templ","i.</w>","4599","famous</w>","born,</w>","wandered</w>","ock</w>","mix","pay","sweet</w>","drun","tier</w>","ach</w>","po","began</w>","hour","different</w>","style</w>","laws.</w>","environ","mother,</w>","lev","beck","encour","birds</w>","mate</w>","africa,</w>","library</w>","address</w>","081</w>","604","gram</w>","leaves</w>","1958</w>",":009","conversion</w>","river","idea,</w>","dir","jacob","hud","--or</w>","custom</w>","oc","fashion","her--","ago</w>","impossi","proble","501","s/1,000</w>","dress,</w>","damaged</w>","imagin","ah","ma,</w>","u.s.","ard.</w>","ale","217","ve</w>","es)</w>","easi","answer</w>",",\"</w>","ears</w>","cho","jes","shoulders</w>","theor","memor","treatment</w>","dic</w>","ls,</w>","ense</w>","carp","ick,</w>","kid","158","sitting</w>","ons.</w>","buffal","hel","emo","interven","ke,</w>","(b","whose</w>","tax","525","field</w>","pe.</w>","omatic</w>","re,</w>","you;</w>","apparent</w>","als,</w>","narrow</w>","imp","gat","thor","per,</w>","ray</w>","thought,</w>","thusi","cloth</w>","reward</w>","127</w>","got","artif","for,</w>","ences,</w>","latin</w>","1,220-2,439</w>","touch</w>","sement</w>","unfortun","rejoic","pressing</w>","yo","oath</w>","47</w>","apparently</w>","benefit</w>","ne,</w>","ids</w>","forget</w>","reduced</w>","added</w>","mouth","herself</w>","des,</w>","tarz","once,</w>","staring</w>","million</w>","boundary</w>","consideration</w>","subject,</w>","inter",".''</w>","bilateral</w>","rebec","estate</w>","leads</w>","eye</w>","passionate</w>","rooms</w>","century,</w>","holy</w>","wick","upon,</w>","then,</w>","primar","curse</w>","359","cu","ici","bility</w>","journey</w>","of:</w>","worn</w>","boy's</w>","speaking</w>","creating</w>","palac","license.</w>","acy,</w>","1.00","dres","wise</w>","intel","tin","my</w>","color","critic","1.e.7</w>","times.</w>","rowed</w>",":017</w>","tract</w>","establish</w>","rules</w>","crat","tained</w>","since</w>","births</w>","ratt","260</w>","ice.</w>","answered,</w>","satur","emotion</w>","gen</w>","uminous</w>","1968</w>","0.3","125","zer","root</w>","836","265","railway</w>","ves</w>","digraph","mult","communist","sen</w>","romantic</w>","mou","says</w>","ste</w>","om","grows</w>","ors</w>","ature</w>","laughed</w>","practical</w>","right","cei","trusted</w>","shut","ery</w>","mel","complet","lled</w>","flight</w>","points</w>","apprehen","captain","ju","tried</w>","ream</w>","third</w>","oof</w>","ong</w>","gates</w>","utenber","break</w>","should</w>","w.</w>","finally</w>","transpor","it--",":001</w>","fanc","diamon","structure</w>","643","shill","8%,</w>","stub","ing-room,</w>","1975","ting","world","leather</w>","indu","aro","overwhel","fam","15:","ut","exists</w>","--if</w>","nation</w>","dol","1898</w>","844","ab,</w>","1905","1953","win","flor","slaves</w>","revolu","date:</w>","when</w>","completely</w>","gab","reaching</w>","hur","yourself","rod","instance,</w>","way;</w>","ss.</w>","ised</w>","soldi","picked</w>","75</w>","rut","057</w>","ce;</w>","o'clo","hab","pill","un,</w>","afternoon,</w>","badly</w>","n't.</w>","chief</w>","purpo","s-","to,</w>","bern","them:</w>","rapi","fears</w>","218","temper</w>","put","male:</w>","rays</w>","face;</w>","ic","red</w>","incidental</w>","of","that?</w>","pakist","americ","mom","arkw","permission.</w>","petroleum,</w>","devil","inkled</w>","editions</w>","ur</w>","below</w>","where.</w>","857</w>","--but</w>","\b","marin","fice</w>","william</w>","ites,</w>","enc","shouted</w>","s's</w>","dition</w>","cursed</w>","fancy</w>","hte</w>","highways:</w>","tear","sufficiently</w>","3:","dram","fresh</w>","vivid</w>","nobody</w>","167","twenty-","port</w>","behold,</w>","frau","sur","|","ba","grown</w>","overview:</w>","white","humi","1055","slow</w>","rot","asper","cann","279</w>","mechanical</w>","dur","together</w>","year</w>","archit","1255","contain</w>","knowledge</w>","paul,</w>","it:</w>","fle","abandoned</w>","striking</w>","scan","igh","534","elling</w>","near</w>","readable</w>","apart</w>","ents.</w>","wine,</w>","thir</w>","deserted</w>","terms</w>","breath","270</w>","nature","sed.</w>","expan",".'\"</w>","quis","lit</w>","stolen</w>","before,</w>","effective</w>","domest","yar","-","talked</w>","sc","248","ary,</w>","kes","we","here","emplo","father's</w>","806","1822","murder","system,</w>","restaur","......</w>","remaining</w>","int</w>","slightly</w>","arise</w>","tary</w>","olo","shoulder","ever","bar","gordon</w>","hun","jude</w>","go.</w>","was</w>","heads</w>","happens</w>","last</w>","84</w>","027","anced</w>","discipl","154","manu","rapidly</w>","hen</w>","join</w>","1]</w>","1809","chall","tap","743","people's</w>","stum","enem","tall</w>","itself,</w>","apt</w>","conven","0.69","kh","934","responsible</w>","hat</w>","cely</w>","textiles,</w>","aged</w>","(19","hours</w>","ity:</w>","unless</w>","89</w>","conventional</w>","flashed</w>","1.9","king-","oak</w>","dem","pass","$5","k</w>","ef</w>","milli","hes","decide</w>","one.</w>","1.f.3,</w>","373","furni","lifting</w>","instead</w>","059</w>","novel","inten","se-","garden,</w>","dorothe","favorite</w>","783","their</w>","provide</w>","ar.</w>","above,</w>","christop","business</w>","because</w>","confin","entire</w>","ing--","sion.</w>","africa</w>","rode</w>","ssipp","92","darkn","stirred</w>","scri","poet</w>","projec","genous</w>","sory</w>","captain,</w>","subm","burn","n'","\\","ually</w>","chin</w>","beast</w>","b","however,</w>","spite</w>","479","ned.</w>","s</w>","miles</w>","fool</w>","fitted</w>","station",":","pes</w>","sey</w>","ahead</w>","mut","uring</w>","port","0-","1897</w>","tremendous</w>","bow</w>","distinc","cl","1945","end","tot","rude</w>","advoc",",--","ain't</w>","o</w>","permission</w>","where</w>","997","ject","additi","increasing</w>","essing</w>","score</w>","ousness,</w>","ending</w>","digits)</w>",":008</w>","ea</w>","tas","de.</w>","metho","dropped</w>","thing","fit</w>","2.9","myself.</w>","color</w>","possible,</w>","+","'d</w>","\"what</w>","fu","least","health</w>","region</w>","ordered</w>","hollow</w>","bell</w>","refund.</w>","ded;</w>","pled</w>","accepted,</w>","bertram</w>","cost,</w>","infl","contains</w>","edu","f</w>","attend","acquainted</w>","business.</w>","drou","sing","humili","islam","bby</w>","letter</w>","some","soft</w>","ment.</w>","birth</w>","proprietary</w>","il,</w>","ing","im","prepared</w>","percei","veget","(3)</w>","ft.</w>","property,</w>","sen","actual</w>","may,</w>","ew","435","43%</w>","ined</w>","peas","all-","\"but,</w>","1984</w>","lost.</w>","bill</w>","050","ge.</w>","president</w>","2,440-","i--","bridge</w>","indic","1991</w>","point,</w>","annually</w>","smoking</w>","s.</w>","promp","season</w>","ability,</w>","sorts</w>","van","wire</w>","phra","914","180</w>","grief</w>","harvest","ingly</w>","diplomatic</w>","tim","hy","end.</w>","floor.</w>","715","374","es:</w>","fear","industri","ternal</w>","ing,</w>","leon</w>","grave,</w>","scrat","promised</w>","negoti","1867","brand","nit","ble,</w>","moun","partic","contained</w>","speak,</w>","454","wh</w>","deep</w>","040</w>","19:","tes</w>","stor","ministr","sche</w>","happi","bow","no!</w>","heavi","ure.</w>","ary.</w>","august</w>","chose</w>","585","rur","1100","tv;</w>","tide</w>","co","week</w>","ing.\"</w>","cup","afraid</w>","beside</w>","395","until</w>","countries</w>","memory</w>","compas",",7","626","silently</w>","6%,</w>","serves</w>","b.</w>","\"no","almost</w>","oz","match</w>","d</w>","arm","declared</w>","destro","consulat","second","print</w>","kingdom","itor","av","curious</w>","i've</w>","gas","wil","judicial</w>","neck</w>","ken.</w>","171</w>","marvel","........","703",",4","strange,</w>","ond</w>","glad</w>","846","pursuit</w>","reco","slender</w>","acts</w>","mak","laur","ck,</w>","faced</w>","runways;</w>","dinner</w>","ds.</w>","propos","\"oh!</w>","reports,</w>","ebr","civi","ned</w>","00000</w>","added,</w>","security</w>","attacked</w>","seeming</w>","our.</w>","gam","heed</w>","1","reas","dered</w>","supposed</w>","changing</w>","night,</w>","been</w>","imple","en</w>","ser</w>","1043","mil","entered</w>","forth","<unk>","p),</w>","77</w>","des","approach</w>","tively</w>","ess,</w>","understood</w>","bou","bure","act</w>","ssi","t</w>","s,\"</w>","897","if,</w>","capita:</w>","prohib","israel","ties,</w>","strong,</w>","agon","hastened</w>","jor","trees.</w>","elu","ator,</w>","589","tell","rant</w>","stuff</w>","exclaimed</w>","723","envi","smile,</w>","takes</w>","ters,</w>","her:</w>","seriously</w>","pp","thom","mechan","self.</w>","division","men,</w>","waiting</w>","\"because</w>","lad","where","627","due</w>","me--","imo,</w>","not,\"</w>","changed</w>","country","day.</w>",":003</w>","doctr","iv.</w>","wonder","works,</w>","elections:</w>","data,</w>","to;</w>","spring</w>","experienced</w>","rele","approaching</w>","ech</w>","----","tion.</w>","fees,</w>","1.e.1.</w>","bound","parl","443","599","boat,</w>","endure</w>","timi",").</w>","sort</w>","conse","1214","well","people,</w>",":011</w>","feast</w>","lucky</w>","toni","surprise</w>","ida,</w>","s........................................","waist","flat</w>","exclusive</w>","nich","wes","es</w>","rel","built</w>","again.</w>","training</w>","bac","floor</w>","wher","election</w>","tribe</w>","dg","can","150</w>","rarely</w>","soul","503","refer","quain","436","shir","sovi","place.</w>","amount</w>","windows</w>","ire","once</w>","child</w>","nific","reig","wheat,</w>","ial</w>",":015","dge,</w>","billy,</w>","ing?</w>","en,</w>","1222","differ","quietly</w>","o'","gress</w>","fee","eternal</w>","aspect</w>","whom</w>","tu","arri","page</w>","michael</w>","bathsheba</w>","recall</w>","iv","foul</w>","ded.</w>","........................................","welcome</w>","pav","hours,</w>","family</w>","sara</w>","admitted</w>","11%</w>","ot</w>","church</w>","pull</w>","0549","see,\"</w>","eping</w>","friend</w>","painted</w>","keep","not.</w>","won't</w>","legislat","note</w>","inbur","name.</w>","85</w>","clum","after</w>","pea","h,</w>","059","use:</w>","one.\"</w>","load","denied</w>","sensible</w>","show</w>","preserved</w>","rag","gretti","ough","waved</w>","part","associated</w>","asc","girl,</w>","reg","49</w>","second</w>","counsel","partly</w>","utter</w>","shadow","word</w>","law,</w>","makes</w>","firm</w>","577","moor","273","clear","2.40","7,","574","coast</w>","grim</w>","teaching</w>",",9","rober","you?</w>","give</w>","ler,</w>","1887","ed","1:00","dious</w>","bosom","'em</w>","';</w>","118","--to</w>","1973","con","abo","sand</w>","harm</w>","places,</w>","accor","fro","tion:</w>","ely.</w>","series</w>","2;</w>","dus","life;</w>","evol","exactly</w>","273</w>","breath,</w>","places</w>","risk</w>","aen","or.</w>","set,</w>","saudi</w>","population........................","serious</w>","64","vel</w>","++","licen","effect</w>","him</w>","cel","lof","efforts</w>","ures.</w>","outw","servant,</w>","herself","safely</w>","question</w>","no.</w>","calcul","lands</w>","strether</w>","blew</w>","used</w>","#","lips</w>","ty","ward,</w>","ed-","vi","289","middle-","shew</w>","(","given</w>","cried.</w>","necessarily</w>","roll</w>","kindness</w>","shoulders,</w>","new</w>","pierre</w>","resourc","bank</w>","behind,</w>","084","113","after","fairy</w>","1313","27</w>","ye","ple,</w>","h","et</w>","93","interest","elt</w>","operations</w>","ill","lanter","cabin","sed</w>","speci","95</w>","consu","preced","22:","ve","account</w>","set</w>","bitter</w>","pom","25.","spect","dangerous</w>","deman","depri","portugu","suppose,</w>","bear","eous</w>","ry.</w>","(1992)</w>","b.","righteous</w>","chances</w>","disc","hospit","letting</w>","hint</w>","ble;</w>","unknown</w>","%,</w>","mounted</w>","so.\"</w>","ste","honest","case</w>","s--the</w>","by.</w>","spe","chairman</w>","offici","equi","1.7","theory</w>","0000","slum","pgla","song","tast","crowd</w>","itself</w>","return,</w>","607","feels</w>","02","point","inven","reason,</w>","blanc","nel</w>","915","soon","think,</w>","them</w>","result</w>","erly</w>","every","ming</w>","9:","(c)","displa","d?</w>","paris</w>","vessel</w>","christ,</w>","conclusion</w>","lord.</w>","inn</w>","59</w>","clim","enjoyed</w>","clever</w>","agent</w>","desperate</w>","society,</w>","branches</w>","everything</w>","regre","settled</w>","georg",");</w>","burn</w>","coa","they'd</w>","707","exerc","word.</w>","doors</w>","success</w>","queen</w>","mail</w>","t.\"</w>","atmo","﻿","for</w>","uni","whi","inde","presence</w>","money","80</w>","patri","whel","soviet</w>","tar","ound</w>","rub","danger</w>","tered</w>","287","bath","inclu","whe","forto</w>","tram</w>","brother","elect</w>","1303","age</w>","intru","139</w>","jews</w>","chapter</w>","plate</w>","sir</w>","!'</w>","commanded</w>","ses","ob</w>","signed</w>","window.</w>","lead,</w>","second,</w>","dy,</w>","suit</w>","edition</w>","sore</w>","much,</w>","create</w>","brut","manufactured</w>","1947</w>","courtes","cee","ww","intellectual</w>","gabri","pipelin","nov","invisible</w>","a</w>","der</w>","ers</w>","white</w>","surface</w>","race</w>","copyright</w>","jacob</w>","accep","strat","permit</w>","tes","hir","shone</w>","186","nice</w>","enter","line</w>","view.</w>","beds</w>","................................","pu","announc","165","ation;</w>","ly-","109</w>","\u000f","impul","s),</w>","641</w>","1073","1907</w>","099</w>","ino","sed,</w>","woman</w>","453","exclaim","thereof</w>","connec","flower</w>","resolution</w>","women,</w>","egypt,</w>","i","003","quickly</w>","wa","pical</w>","wis</w>",",'</w>","(1987)</w>","another","laws</w>","do","consol","than","reform</w>","\"can</w>","1982</w>","side</w>","1089","ascii</w>","hart</w>","pow","served</w>","med,</w>","supply</w>","talk","rapid</w>","resent","fare","county</w>","funny</w>","islands</w>","s,</w>","ds;</w>","32</w>","ad,</w>","vin","absence</w>","chri","els,</w>","solomon</w>","ie,</w>","793","by</w>","paused</w>","'twas</w>","ses.</w>","173</w>","dity</w>","banan","admit</w>","know,\"</w>","stairs.</w>","ebooks</w>","regions</w>","irrigated</w>","forming</w>","move</w>","bear</w>","immediate</w>","nal</w>","471</w>","shows</w>","enemies</w>","tains</w>","government:</w>","argument</w>","if","val</w>","corn</w>","uk,</w>","depres","238","don","criminal</w>","occasionally</w>","english</w>","rum","master,</w>","stout</w>","thought</w>","417","scre","lac","prac","superi","waters</w>","955","shout</w>","fied</w>","poor","safe</w>","danger","ws</w>","isra","es!\"</w>","coming</w>","democratic</w>","me?\"</w>","col","\"it</w>","288","ly</w>","struck</w>","97","h</w>","heaven","defe","phi","listen</w>","percent</w>","largest</w>","views</w>","problem.</w>","\"yes.</w>","love</w>","disclaim","dum","evi","stuff","(202","ser","goti","wishing</w>","ative.</w>","274","4.</w>","thel","compani","fruit</w>","weary</w>","dazz","th.</w>","va</w>","1948</w>","hit","dou","er.</w>","egg","lig","ebook</w>","weal","ff,</w>","constitutional</w>","pain","prosper","hom","peace,</w>","km2;</w>","chain</w>","1,</w>","ly,\"</w>","gets</w>","experience,</w>","69","idea</w>","943","bed,</w>",",--and</w>","resist</w>","lines</w>","ages,</w>","identi","ia,</w>","tis</w>","hall</w>","faith</w>","prime</w>","nose</w>","plu","family.</w>","consul","bea","astic</w>","behol","marriage,</w>","total,</w>","ye</w>","party</w>","ers,</w>","ness</w>","disposed</w>","das</w>","pun","9","holding</w>","elop","steps,</w>","gained</w>","sne","qu","liability</w>","let,</w>","lun","warriors</w>","..","241</w>","ine.</w>","ist","majest","air,</w>","virgini","darkness</w>","composed</w>","monum","hau","ch;</w>","hated</w>","could,</w>","stopped,</w>","mat","4.","deeper</w>","despi","you'd</w>","--","085","475","exposed</w>","girl</w>","477",".]</w>","mur","feather","chel","head;</w>","1277","1;</w>","voices</w>","1117","cro","ated</w>","unusual</w>","pped</w>","thro","myster","local</w>","seas</w>","lives</w>","balance</w>","elessly</w>","ot","sign</w>","troops</w>","ful;</w>","syri","examin","electronic</w>","travel</w>","ole</w>","foundation.</w>","forgive</w>","693","mind,</w>","fees</w>","bore</w>","scand","23:","creation</w>","thrown</w>","ain,</w>","grand","ami","roger</w>","ling,</w>","arly</w>","65</w>","ish","evil","um.</w>","venge","danc","que","eigh","breaking</w>","si</w>","use.</w>","sist","telec","7717","idle</w>","cros","ner</w>","stories</w>","confidence</w>","tales</w>","actions</w>","now;</w>","fanny</w>","1876</w>","quick","jack","051</w>","incredi","war","183","lim","handi","quit</w>","ocr","type","ner.</w>","neck","wheel</w>","advi","ee,</w>","543","area</w>","trouble,</w>","nw,</w>","endless</w>","produc","novel</w>","alt</w>","let","they'll</w>","637</w>","'a</w>","1879</w>","gone</w>","faithful</w>","forty</w>","disap","industries:</w>","wretched</w>","compet","les</w>","voc","artic","original</w>","tear</w>","sat</w>","is.</w>","impulse</w>","one,</w>","(in</w>","oun</w>","display</w>","nm;</w>","exquisite</w>","ston,</w>","illu","black,</w>","ms,</w>","famili","claims:</w>","mau","pe,</w>","doubt","pointing</w>","carib","slo","activity</w>","871</w>","ney</w>","763","continued</w>","busin","snow","smar","haste</w>","bil","preferred</w>","389","assur","included</w>","washington,</w>","window,</w>","abrup","got</w>","copyright","miserable</w>","face.</w>","this.</w>","satis","es'</w>","liquid</w>","part.</w>","scot","fed</w>","mountains</w>","pedi","helpless</w>","ght","convinced</w>","1225","nationality:</w>","in's</w>","red-","limit","1939</w>","occur","uc","94%</w>","requirements</w>","chemic","seeking</w>","course,</w>","anded</w>","d),</w>","244","goods,</w>","z","064","dread</w>","other;</w>","modification,</w>","ed:</w>","correspon","ants.</w>","stick","243","wea","yea,</w>","contin","content</w>","quickly,</w>","1965",",000</w>","joy","need</w>","117","sentence</w>","1.e.8.</w>","generations</w>","centered</w>","bred</w>","(observer),</w>","161</w>","europe","judi","0.16","p:</w>","449","ver</w>","esdr</w>","busy</w>","catho","cad","towns</w>","li","y;</w>","--the</w>","(1988","hitherto</w>","short,</w>","victor</w>","advers","punishment</w>","success.</w>","conclu","method</w>","office.</w>","1978</w>","spring,</w>","tai","hack","liam","line,</w>","timber,</w>","walk","ani","pass,</w>","now?\"</w>","friends.</w>","stared</w>","contribu","dream</w>","taber","clear</w>","198","mind.</w>","rooms,</w>","es!</w>","muse","1963","153</w>","stac","ner,</w>","pum","woods</w>","stag","insur","who","labour</w>","save</w>","037","3,</w>","anything,</w>","export</w>","owing</w>","antly.</w>","co.</w>","ven","145","b,</w>","ern</w>","al:</w>","20</w>","minds</w>","depth</w>","awakened</w>","pat","is'</w>","own;</w>","town</w>","3.","26</w>","title</w>","demois","wherof</w>","0.83","od","compreh","god's</w>","thum","discovery</w>","mitt","y:</w>","constant</w>","obstin","he.</w>","them,</w>","4353","natural</w>","1993</w>","377","soever</w>","freder","uncta","bull","you're</w>","generous</w>","level</w>","270","dollars</w>","coffee,</w>","glasses</w>","naturally</w>","aded</w>","624","government</w>","article</w>","spain</w>","accordingly</w>","hood.</w>","brother.</w>","mid-","little</w>","ary</w>","past</w>","bits</w>","gun</w>","character.</w>","rigi","'it</w>",":017","137","inquire","faul","gul","to-day</w>","hong</w>","mus</w>","ice</w>","trademar","cop","num","erous</w>","domestic</w>","habit</w>","vice</w>","chorus</w>","expenses,</w>","275","roman</w>","details</w>","(1990</w>","you'","draw","solitary</w>","supp","thorpe</w>","ses</w>","tr","673</w>","pit","jur","e.'</w>","obli","1.0000%</w>","play,</w>","5</w>","wer","803","school</w>","explan","ridi","it'll</w>","725","24","prices):</w>","ow","km;</w>","amaz","de's</w>","8793","tumul","england","tears</w>","115","this,</w>","easy.</w>","clara</w>","committed</w>","minist","fug","reput","brac","future</w>","134","825","tion</w>","ore</w>","ton</w>","moment","\"but</w>","mercy</w>","eg","revenues</w>","works</w>","fram","itself.</w>","mist</w>","return.</w>","street","zing</w>","answer.</w>","capital:</w>","0.03","$","176","(c.i.","240</w>","095","franc","ent:</w>","stiff","633","infring","ancing</w>","temp","born</w>","garden</w>","ines</w>","dirty</w>","music,</w>","1902</w>","six</w>","knew","del","619","holds</w>","clothes</w>","salvation</w>","superior</w>","live,</w>","hus","242","links</w>","ching</w>","less","replied.</w>","nes</w>","found,</w>","595","sing.</w>","1923","desol","01:","oll","y!\"</w>","bat","pl","arm</w>","\"no,</w>","watching</w>","ould</w>","ra","ely,</w>","adop","much","card</w>","quant","rect","j</w>","would,</w>","es","theat","evidence</w>","france</w>","dict","804","straight","derivative</w>",":006</w>","enough","ble","fee</w>","heaven</w>","rig","luck","escor","1989</w>","ruin</w>","o'clock</w>","long-","proof","413","dead</w>","cents</w>","181</w>","touch","rank</w>","grasp</w>","noun:</w>","solicited</w>","there's</w>","ic,</w>","nothing,</w>","expenditures</w>","enth</w>","that","traditi","off","made,</w>","saint","languages:</w>","sal</w>","imprison","rivers</w>","return</w>","0575","963","race,</w>","paradi","forgott","----\"</w>","imports:</w>","indem","extra</w>","nical</w>","econ","light</w>","arrang","433</w>","neth</w>","thur","island</w>","in","your</w>","don't</w>","york</w>","destruc","ding</w>","nobl","ar","thomas","fiel","nations,</w>","world.</w>","2%</w>","wife","liber","loy","bade</w>","commoditi","th","chim","middle-aged</w>","ouring</w>","consent","thiev","fling</w>","e!\"</w>",",--</w>","quarter","confi","tz","1884</w>","(consumer</w>","carried</w>","sharply</w>","prevented</w>","out.</w>","ats</w>","owned</w>","sevent","thick","686","yours</w>","98","ascii\"</w>","room.</w>","disturbed</w>","abu","log</w>","hair.</w>","hired</w>","ma","beaten</w>","confron","brings</w>","ency.</w>","just","conf","ph</w>","home,</w>","fea","twenty</w>","toward</w>","turning</w>","hone</w>","carrying</w>","fix","st.</w>","me,</w>","posed</w>","shoo","isn't</w>","ders</w>","(see</w>","oo","tells</w>","trembling</w>","juli","ture</w>","\"this</w>","mis","\"'","greec","bath</w>","recalled</w>","ken,</w>","banks,</w>","691</w>","cks,</w>","cock","345","exc","name:</w>","a.","29</w>","ocean,</w>","rich","preh","angels</w>","019","ai","ject</w>","w","sugar</w>","when,</w>","<p</w>","chicago</w>","iu","ving</w>","0%</w>","becomes</w>","ety</w>","worst</w>","anatom","compilation</w>","against</w>","ken","sou","754","million;</w>","por","ready</w>","in;</w>","damage</w>","427","ounds</w>","ven</w>","writer</w>","wind,</w>","ere,</w>","point.</w>","earliest</w>","206","68%</w>","523","ition</w>","dim</w>","223</w>","side;</w>","reason</w>","tribes</w>","height</w>","neg","corrid","ey</w>","2%,</w>","(1985","233","km,</w>","atic","507","q.","n.","mingled</w>","chat","ill</w>","republic,</w>","prince</w>","vis","his</w>","form.</w>","appears,</w>","1843","ged</w>","ch,</w>","c.</w>","\"in</w>","containing</w>","1800","dding</w>","christi","fire</w>","population</w>","subject","e","respectable</w>","waste</w>","earn</w>","042</w>","650</w>","muttered</w>","issued</w>","fruits</w>","mutter","1943","cam","product:</w>","blank","thousand</w>","ologi","ex-","vessel","ravensw","elected</w>","appearance</w>","repe","out;</w>","runways:</w>","ft","cut</w>","imposed</w>","chain","pus</w>","313","l,</w>","passe","cover","sion</w>","wild</w>","pose</w>","him,\"</w>","real","whatso","magic</w>","blossom","lott","hope.</w>","(s)/1,000</w>","ul","home.</w>","overcome</w>","execu","hin","prep","relieved</w>","proved</w>","0.77","wish","17:","014","815","jam","among</w>","includes</w>","coul","igned</w>","plur","lec","2.","spir","glory</w>","arou",":020</w>","fal","103</w>",":005","desper","ved</w>","fulness</w>","truth","industr","blin","lem","travel","befor","suddenly</w>","13.","compan","women</w>","fishing</w>","ioc,</w>","do.\"</w>","his","0.04","difficul","sold</w>","lion,</w>","glass,</w>","brass</w>","ninet","helping</w>","fell,</w>","thunder</w>","don,</w>","she'd</w>","woodland</w>","ah!</w>","orang","twice</w>","g-77,</w>","1966</w>","ns</w>","433","if</w>","dred</w>","ornam","waving</w>","stret","tone</w>","asleep","discussion</w>","clothing,</w>","floating</w>","ar</w>","features</w>","shouldn't</w>","breit","sel","thed</w>","winter","madame</w>","him","86%</w>","roughly</w>","depths</w>","offered</w>","trial</w>","indeed</w>","spar","494","desired</w>","central</w>","688","sister,</w>","warned</w>","fame</w>","dark</w>","desir","nm</w>","desire</w>","democr","decided</w>","rich</w>","12%</w>","rectly</w>","\"do</w>","full</w>","attempted</w>","749","rest","acquired</w>","trained</w>","me:</w>","life","distres","fine</w>","14","lovel","oursel","wrapped</w>","earthly</w>","ning,</w>","fort</w>","individuals</w>","discre","lost,</w>","appreci","door.</w>","sad</w>","sees</w>","utmost</w>","live","servic","forget","minut","tit","fortune</w>","masters</w>","contradi","debt:</w>","leap</w>","confer","yu","lamp</w>","desc","los</w>","astonish","er</w>","enterpri","tent</w>","perman","servants,</w>","oh!</w>","official</w>","itude.</w>","bing</w>","teen</w>","horrid</w>","697</w>","325","bright,</w>","alas!</w>","834","archive</w>","other</w>","do,</w>","ries</w>","door","continued,</w>","in.</w>","ships</w>","egy","perform</w>","formal</w>","ue</w>","program</w>","assist</w>","mista","ight</w>","to</w>","dom</w>","numerous</w>","@pglaf.","_#_","ance,</w>","mark</w>","stupid</w>","757","\u0005","nes","dark,</w>","ute,</w>","litt","605","threw</w>","swe","libr","933","adi","form:</w>","evening,</w>","founded</w>","conne","hope</w>","1939","three</w>","vent","shaking</w>","fix</w>","concept</w>","betra","mul","atic</w>","offer</w>","done,</w>","es;</w>","885","eight","historical</w>","roses</w>","humanity</w>","gazed</w>","pet","submarine</w>","199","spa","ers;</w>","573",",","kis","625","interested</w>","charming</w>","thus,</w>","!\"</w>","yed</w>","bread</w>","847","ends</w>","brit","2.5","average</w>","sex","forth,</w>","bough","rest</w>","bel","afterno","irs</w>","\"yes;</w>","o.","sli","search</w>","more,</w>","\"don't</w>","e:</w>","accordance</w>","47","mailing</w>","type</w>","plan","happen","cri","d?\"</w>","universal</w>","count","youn","horror</w>","switzer","interpreted</w>","\"you'll</w>","wrong.</w>","cabinet</w>","\"","rad","'r","liked</w>","restless</w>","om</w>","1045","ke;</w>","commission</w>","us--","indemnity</w>","36","ly,</w>","98%</w>","allow</w>","learn","clear,</w>","foundation</w>","hugh","ob","stain","10:","maxim","137</w>","tears.</w>","wept</w>","os","36</w>","host</w>","fication,</w>","august","plunged</w>","a's</w>","667","mr</w>","folded</w>","gu","him?\"</w>","effort,</w>","great","states,</w>","-5.","'t</w>","scribe</w>","though","a,</w>","ins</w>","terror</w>","dawn</w>","sig","mouth,</w>","enclo","pleas","friends</w>","deriv","ourselves</w>","cool","alled</w>","trouble.</w>","concer","struction</w>","hang","4416","pardon</w>","rejo","(1988),</w>","fe</w>","hou","are.</w>","presid","fax:</w>","tess</w>","broad</w>","chard</w>","ce,</w>","latter</w>","distinguished</w>","ored</w>","largely</w>","69</w>","fate</w>","els</w>","677</w>","aling</w>","circul","independ","digraph:</w>","sovere","ared</w>","guar","distributed</w>","sunshine</w>","234","shes</w>","work</w>","person</w>","383","metal","treated</w>","ministered</w>",".--","bly</w>","ance;</w>","ll","\"if</w>","glo","ites</w>","lon","thin","represented</w>","plans</w>","thanks</w>","tos","240","contempl","boards</w>","1981</w>","homo","constit","four","fit","whence</w>","9.","advantage</w>","e--","themselves,</w>","anci","certainty</w>","years.</w>","fought</w>","older</w>","2813","picture","~","\"well,</w>","ina</w>","word","mention</w>","196","009","cry</w>","brown","subdu","pleasure,</w>","plant</w>","pray","tiles,</w>","reti","grad","zip</w>","518","every</w>","washing","survive</w>","order,</w>","notice</w>","ining</w>","interesting</w>","003</w>","1849","and","ten</w>","xxxi","imper","ine</w>","lied</w>","clean</w>","kingdom</w>","countenance</w>","--that</w>","resi","sy,</w>","open,</w>","bal</w>","rac","answer","stone</w>","warran","permanent-","climbed</w>","88</w>","valley</w>","nation.</w>","comply</w>","crop","portun","chec","resc","gentlemen</w>","tic</w>","each</w>","an-","majority</w>","mic","76","dist","l-","male</w>","at;</w>","contr","effect","853","re-use</w>","of.</w>","kin</w>","ents,</w>","hang</w>","s:</w>","ggy</w>","nephi</w>","dily</w>","fad","929","re-","ow.</w>","1093","4:","addressed</w>","ption</w>","substanti","evil,</w>","fo","cut","ish</w>","ors.</w>","es.\"</w>","gon","a.</w>","13</w>","schol","member","tures</w>","to","don</w>","ao,</w>","accurate</w>","view","outside</w>","longer</w>","fire,</w>","cit","asking</w>","died,</w>","impossible</w>","borne</w>","great</w>","look</w>","0.9","'you</w>","proof</w>","clou","unto</w>","ties.</w>","drink</w>","000000</w>","ces","fanci","inev","turk","glimpse</w>","sch","m.</w>","popul","wan","alone.</w>","isol","a'</w>","cont","an'</w>","sacri","n","house;</w>","ella</w>","any</w>","drag","student</w>","1986","\"dear</w>","y-","whisp","revenu","beating</w>","063",".;</w>","intense</w>","0.23","known.</w>","031</w>","fast","rest,</w>","afford</w>","787",":012","ou","ences:</w>","most</w>","734","grt/","more.</w>","obs","cat</w>","10</w>","ations;</w>","tribun","construc","lau","1016","ania</w>","champi","came.</w>","inch</w>","rom","ack</w>","demanded</w>","ances</w>","sul","body</w>","kno","wiz","810","sheep,</w>","tv</w>","line:</w>","6.","thing,</w>","ality,</w>","vain","winter</w>","exten","by-","equality</w>","ir</w>","minister</w>","its</w>",";</w>","05","aw","struc","stock</w>","rising</w>","diction</w>","bun","'t","527","k,</w>","remark</w>","boys</w>","nerv","adventure</w>","struggling</w>","refr","1.f.3.</w>","messeng","and,</w>","ness","wr","mex","sing,</w>","notwithstanding</w>","ski","eti","favor</w>","multi","knew</w>","change,</w>","quis</w>","oppres","wings</w>","elder</w>","peace</w>","lake</w>","explo","887","leng","as,</w>","surr","diam","ka","ential,</w>","zz","refuge</w>","marrying</w>","ph","}</w>","dread","intimate</w>","watched</w>","noise</w>","2000</w>","grate","ant's</w>","helped</w>","enlight","swor","zeal","mo","wrath</w>","us</w>","f","growth</w>","wre","you,</w>","ie</w>","argum","law","gif","444","0.06","published</w>","i'","bey","\"we</w>","now</w>","native</w>","double</w>","12.","colored</w>","calm</w>","--as</w>","sar","pre","\"just</w>","spec","1077","ifc,</w>","young,</w>","0.15","david</w>","v</w>","tin</w>","505","stations--","distinction</w>","tone.</w>","met</w>","party","prisoners</w>","``the</w>","peculi","quick</w>","clasped</w>","carri","ed?</w>","her.\"</w>","travelling</w>","speech,</w>","wall","throughout</w>","land:</w>","she,</w>","859","ings.</w>","sett","worshi","917","soul,</w>","employed</w>","yell","paper</w>","bound</w>","refuse</w>","today</w>","embrac","augu","more","deliver</w>","vi</w>","argent","cometh</w>","camp</w>","represent</w>","ports:</w>","ene</w>","1.4","s/","ator</w>","829","ship.</w>","check</w>","http://www.gutenberg.","133","manif","ato","perpet","or</w>","vac","least,</w>","south,</w>","ze.</w>","much</w>","republi","kind,</w>","invited</w>","meadows</w>","hidden</w>","deth</w>","cious</w>","0.88","life,</w>","year,</w>","age;</w>","speech</w>","islands,</w>","fifteen</w>","mother's</w>","\"she</w>","technical</w>","forward</w>","economic</w>","tarzan</w>","cand","born","pglaf.","industry</w>","inquired</w>","edly.</w>","practic","quired</w>","branch</w>","telling</w>","mistres","def","within</w>","thru","therefore,</w>","reli","words,</w>","moved</w>","quo","insul","they</w>","im</w>","lap","cost</w>","mysterious</w>","hell</w>","anybody</w>","sity</w>",":023</w>","6793","det","measured</w>","659</w>","ash,</w>","le-","foolish</w>","respon","led;</w>","wed","escape</w>","beat","commodities:</w>","103","everything,</w>","for.</w>","revolutionary</w>","ist,</w>","surrounded</w>","hid</w>","1889","hul","of,</w>","answer,</w>","medium</w>","scarce</w>","(1)</w>","seri","}.</w>","ras","do,\"</w>","rare</w>","frightful</w>","488","clothing</w>","engagement</w>","ge</w>",",000","disclaimer</w>","vely,</w>","chann","comman","u,</w>","facil","exceedingly</w>","school.</w>","west","o,</w>","</w>","st,</w>","sh","sense</w>","ler</w>","one</w>","a:</w>","judg","lose</w>","force</w>","south","jim","better,</w>","widest</w>","bears</w>","remain</w>","swung</w>","attering</w>","everywhere</w>","quarrel","ign","1988","dimen","567",":014","gossi","\"how</w>","ill-","burden","congres","indicated</w>","experim","leaned</w>","abide</w>","anal","geo","le.\"</w>","305","iness</w>","village</w>","127","bitter","hurry</w>","enthusias","kes,</w>","wand","thee:</w>","palm</w>","lady</w>","conditions</w>","law</w>","education</w>","er--","angu","exports:</w>","ks.</w>","tele","paul","divine</w>","do?\"</w>","streng","onia</w>","obso","tation</w>","compu","lish","purpose</w>","stop","pink</w>","ning.</w>","combination</w>","strongly</w>","characteristic</w>","(s)</w>","nex","power</w>","acade","additional</w>","ure,</w>","manag","416","respec","condemned</w>","reduc","13:","\"have</w>","7","tim</w>","mine,</w>","master's</w>","569","615","conserv","scott</w>","180","leban","minister,</w>","kic","flesh</w>","must","779","come.</w>","479</w>","parall","trina</w>","haunted</w>","reason","ed,</w>","shin","profound</w>","petro","499</w>","branch:</w>","til</w>","ative,</w>","sound,</w>","ized</w>","rec","deem</w>","ence","treat</w>","believe</w>","saying,</w>","caught</w>","loose</w>","om.</w>","63","aim","princ","ham,</w>","zone:</w>","turn</w>","ears,</w>","ghost</w>","hoo","jeff","v.;</w>","ec","deci","value</w>","actually</w>","bottle</w>","539","usable;</w>","another</w>","our","ted.</w>","\"as</w>","reach","\"yes.\"</w>","position</w>","tili","0.65","month","may</w>","sa","asked</w>","fright","28%</w>","re","77","123","ation","table,</w>","ests</w>","visited</w>","oh","wine</w>","83</w>","21:","fif","can't</w>","governor</w>",":019</w>","chron","magnificent</w>","ari","indicating</w>","guns</w>","celi","bot","rest.</w>","tree</w>","618","alternate</w>","service</w>","flowing</w>","moments</w>","argu","shaggy</w>","bathshe","gas,</w>","att","who,</w>","slave</w>","presented</w>","227","ity;</w>","despite</w>","593","testimony</w>","established</w>","tic","maintain</w>","lou","neigh","defective</w>","bapti","jec","616","clay","perplex","dise","commit</w>","greeted</w>","water,</w>","8,","s)</w>","grat","delighted</w>","gas</w>","ein</w>","print","materials</w>","triumph</w>","117</w>","gren","ulous</w>","legis","fied.</w>","me!\"</w>","16</w>","es,</w>","1999","wife</w>","-like</w>","bbed</w>","vir","fas","doctor</w>","promo","green","enjoy</w>","showing</w>","say","yield</w>","usual,</w>","gate.</w>","[fr","dry,</w>","its,</w>","ech","4963","dom","cal</w>","heart,</w>","reserv","n't","brown</w>","scarcely</w>","sens","according</w>","mont","owns</w>","would","cous",":016","thyself</w>","acy:</w>","beyon","leaf</w>","wel","recogn","imagined</w>","panam","pleasure</w>","brown,</w>","126</w>","processing</w>","divisions:</w>","happy</w>","peter</w>","ones</w>","sto","steep</w>","ry,</w>","brother</w>","opinions</w>","gather","tongue</w>","notion</w>","migrant","truth</w>","shelf:</w>","three-","vy,</w>","rying</w>","characterist","docum","civili","remark","1873","stairs</w>","spani","or;</w>","paper,</w>","nature.</w>","stole</w>","unhappy</w>","edward</w>","espec","bbing</w>","recor","gross</w>","ting</w>","stered</w>","forgotten</w>","flew</w>","maril","valuable</w>","ro","eness</w>","aband","train","sill","city.</w>","ado","907","300</w>","pret","instance</w>","kir","1.000000</w>","1962</w>","office</w>","drove</w>","authority</w>","cks</w>","advanced</w>","perm","dwell</w>","result","\"you've</w>","corners</w>","walks</w>","mac</w>","dance</w>","tane","za</w>","one;</w>","council</w>","d)</w>","occasions</w>","vill","singular</w>","trust","ysi","mistress</w>","hum","years,</w>","annual</w>","hed","sought</w>","information</w>","thiop","dra","spirit</w>","quality</w>","057","pastures</w>","ting,</w>","numbers</w>","kep","v.</w>","1990</w>","587","accepting</w>","statement</w>","passes</w>","key</w>","enter</w>","defect</w>","widely</w>","rugged</w>","subsist","bringing</w>","evidently</w>","ffs</w>","dic","laying</w>",":007","medium,</w>","publish","knight","835","event","ethnic</w>","has","aes","book.</w>","smell</w>","there;</w>","branches:</w>","wet</w>","site</w>","on,\"</w>","1893</w>","course.</w>","earl</w>","thea</w>","tossed</w>","114","833","689","5%</w>","here,</w>","nod","isa","bag</w>","ms</w>","regret</w>","house</w>","[footnote</w>","ira","25%</w>","pipelines:</w>","evil</w>","68</w>","breach</w>","day,\"</w>","42</w>","tech","e.\"</w>","proceeded</w>","turned</w>","simply</w>","ways:</w>","monsieur</w>","1.e.","gradually</w>","493</w>","types</w>","marvell","forgot</w>","justice,</w>","slain</w>","effec","ft</w>","names</w>","directed</w>","people</w>","anti","se","ory</w>","mun","atta","tram","servants</w>","despair","successful</w>","vere</w>","happy.</w>","illed</w>","phon","copper,</w>","247","century</w>","stick</w>","singul","077","angel</w>","animals</w>","wide</w>","son's</w>","dri","terrible</w>","(1989)</w>","333","might","ghter</w>","describe</w>","coloured</w>","very</w>","nic</w>","cour","he'll</w>","dul","exquis","lips,</w>","verse</w>","mill","true</w>","trad","x.</w>","q</w>","sacred</w>","compulsory</w>","ht</w>","salo","conv","quiet","thresh","simplic","meal</w>","8</w>","began,</w>","1022","6%</w>","filling</w>","sweet,</w>","rice</w>","\u0001","agger","little.</w>","ples</w>","hour.</w>","shoul","eloqu","strain</w>","morning.</w>","se.</w>","reve","material</w>","water-","legal</w>","dost</w>","paragra","nine</w>","paragraph</w>","common</w>","hotel</w>","799","elabor","crowds</w>","comple","nur","ron</w>","calm","instinc","protec","corner</w>","323","2.15","came</w>","masses</w>","ited</w>",":011","weakn","extensive</w>","order</w>","pas","cking</w>","ght</w>","kissed</w>","supplied</w>","twisted</w>","performances</w>","market</w>","russian</w>","louis</w>","lips.</w>","shoulders.</w>","highly</w>","ate;</w>","phosp","appet","dissol","ana,</w>","dn't</w>","ture.</w>","tax</w>","ism</w>","ically</w>","elin","ext</w>","money,</w>","injur","production,</w>","appear","lieuten","fi","croo","fri","half-","odd</w>","ky","140</w>","college</w>","654","wolde</w>","boy</w>","blood,</w>","ility</w>","415","propri","cc","bibli","us;</w>","'n","i'd</w>","93</w>","as</w>","quite</w>","ements</w>","freedom</w>","emperor</w>","fur","golden</w>","forced</w>","done.</w>","summer","nau","kn","performan","1900","degre","apes</w>","did","iron</w>","];</w>","resist","ks</w>","1113","you</w>","min","ness,</w>","joh","202-","clearly</w>","reflec","money</w>","677","lifted</w>","sm</w>","par","became</w>","piece</w>","earlier</w>","pounds</w>","know",":009</w>","ambiti","631</w>","lux","jumped</w>","113</w>","erg","exact","etext</w>","peter","merely</w>","there.\"</w>","15-","neu","afghan","front,</w>","distr","comprehen","him,</w>","felic","59","face</w>","stan","beha","preceding</w>","indians</w>","tri","skul","mortal</w>","mer</w>","remov","over</w>","839</w>","mann","\"for</w>","comfort</w>","oil","convers","ley,</w>","3.</w>","wall,</w>","ply</w>","89","gall","slim</w>","wave</w>","f.,</w>","simul","corporation</w>","esome</w>","basis</w>","errors,</w>","(199","boo","despair</w>","ifa","fy</w>","wag","marti","domini","strum","frank</w>","dang","swift</w>","tab","hast","?'</w>","p","mas</w>","037</w>","ently,</w>","many</w>","command</w>","results--","sters</w>","uttered</w>","necessary</w>","defec","eth.</w>","1917","107","pound</w>","themsel","shot</w>","objec","ps.</w>","jane</w>","kw</w>","dispos","son,</w>","|</w>","constantly</w>","\"wh","8.","solem","childr","army</w>","return","al</w>","ker","cause</w>","bad","lang","silver</w>","ving,</w>","35%</w>","given","thou,</w>","087","eleg","disgu","69%</w>","oh,</w>","employment</w>","intellig","oni","bron","care,</w>","activ","over,</w>","ous.</w>","chair.</w>","bundle</w>","indirectly</w>","inland</w>","deep","shall</w>","visit","myself,</w>","familiar</w>","organized</w>","dr","wood,</w>","sim","newspap","haz","else","precis","mo</w>","flowers,</w>","622","representation:</w>","229</w>","edinbur","intim","licit</w>","power.</w>","flushed</w>","cordi","copy</w>","become</w>","now,</w>","82","pup","681</w>","(official","stand","societ","taken</w>","red,</w>","tt","atively</w>","prices","feed</w>","compres","thanked</w>","469","figure,</w>","bia</w>","ceed","opini","children.</w>","plain</w>","read,</w>","90</w>","agre","y)</w>","1:","extraordinary</w>","temple</w>","fe","like</w>","asing</w>","thoughts</w>","midst</w>","yester","washington</w>","fancied</w>","staff.</w>","pock","summ","peri","whenever</w>","piti","dism","strode</w>","bra",":03","cold</w>","ounce</w>","serge","poured</w>","_#_total</w>","alized</w>","yard</w>","dw","them.\"</w>","acquaintance</w>","'s,</w>","late,</w>","she</w>","perfectly</w>","murmur","unic","clif","books,</w>","laimed,</w>","bon</w>","putting</w>","subjec","democracy</w>","2,","area:</w>","service,</w>","holder,</w>","acquain","stoo","wher</w>","walked</w>","ron","stam","283","697","gr","driven</w>","van</w>","weather","ency</w>","january</w>","shore</w>","broken</w>","pse</w>","ction</w>","cloud</w>","improv","irrit","rather</w>","chin","ior</w>","horiz","rested</w>","ment","dly</w>","age.</w>","expression</w>","jung","dan</w>","nevertheless,</w>","speak</w>","graphy</w>","rul","letter","fill</w>","tro","485","foll","te,</w>","ancient</w>","woods,</w>","happened,</w>","appeared</w>","depos","ty-","matter","guous</w>","x","1992),</w>","wat","whol","ang","813","loving</w>","dollar</w>","sive,</w>","nor","deceived</w>","distant</w>","nearly</w>","corn","persons</w>","pulled</w>","learning</w>","indemn","administration</w>","won","men</w>","--what</w>","duct","able</w>","tile</w>","abraham</w>","\"only</w>","long","blue</w>","hit</w>","--i</w>","ca</w>","taught</w>","beautiful</w>","024","increase</w>","sna","green</w>","modi","bau","colleg","quot","produced</w>","200","ances,</w>","guardi","300","self","haw","hill</w>","affec","covered</w>","organiz","293","disa","prove</w>","big,</w>","253","4733","babyl","north,</w>","794","seldom</w>","febru","separ","far-","down","stones,</w>","387","033","specul","chil","cess","unit","expor","th's</w>","hall,</w>","ential</w>","perf","shepher","royal","interpol,</w>","disappeared</w>","depart","away</w>","fast,</w>","1983</w>","875","attitude</w>","reported</w>","press</w>","vely</w>","687","accustomed</w>","judgment</w>","ted</w>","ways,</w>","occupi","62</w>","vi.</w>","down</w>","flood</w>","487","daw","thinks</w>","1793","295","y's</w>","thee</w>","\"where</w>","atom","arab</w>","yp","around,</w>","cap</w>","ounding</w>","hasti","foolish","074","bot</w>","ingen","alone</w>","www.gutenberg.","entre","thoughts,</w>","prof","drin","trium","ousness</w>","04%</w>","--you</w>","dull</w>","centuri","concluded</w>","vered</w>","s--(","corrup","research</w>","don't","import","lie</w>","y,</w>","afflic","velv","attered</w>","air","se,\"</w>","hills</w>","money.</w>","file</w>","837</w>","no;</w>","gdp</w>","1203","beau","299","fifty</w>","unfortunate</w>","philosophi","no","not","nevertheless</w>","show","achi","charles</w>","hour,</w>","sively</w>","s","ion</w>","221</w>","birth","start","compelled</w>","guide</w>","and</w>","then","phili","rob</w>","prec","1900</w>","relations</w>","missed</w>","tropic","recognize</w>","lady,</w>","p.","again</w>","6","you","license,</w>","economy</w>","copies</w>","scene</w>","assistance</w>","communications</w>","ali","otherwise</w>","glit","bridge,</w>","ery,</w>","231</w>","expla","his.</w>","sup","sometimes,</w>","suggest</w>","radio</w>","1),</w>","'and</w>","sigh","two-","ever,</w>","eral</w>","intelligent</w>","exclu","viet","ship,</w>","07","pur","repl","1.e.9.</w>","him.</w>","equival","thee,</w>","assure</w>","secon","1903","said</w>","1213","open</w>","track</w>","aim</w>","hou</w>","tion","bon","kindly</w>","occasional</w>","widow</w>","stable</w>","ant.</w>","699</w>","aut</w>","convic","tool","everything.</w>","locked</w>","2)</w>","dem</w>","bury</w>","3.22","lessly</w>","win</w>","brave</w>","(1987","som",":007</w>","convinc","looked</w>","ped","determine</w>","679","important</w>","0.55","here?\"</w>","electri","profits</w>","subscribe</w>","bever","[obs3];</w>","7.","shar","sorry</w>","935","sun","bus</w>","in</w>","persu","weigh","poster","wicked</w>","assum","bul","ations,</w>","2845","lav","mainly</w>","embassy</w>","but</w>","car,</w>","roo","yourselves</w>","cave</w>","serp","eved</w>","time.\"</w>","mind</w>","oper","ez","eager</w>","turn","coastline:</w>","hi","ying</w>","laim","1.f.","200</w>","dog</w>","est","spoil</w>","ings</w>","described</w>","roll-","document</w>","cent.</w>","84116","ice,</w>","agree","leaped</w>","groups:</w>","charges.</w>","empha","wages</w>","we're</w>","\"very</w>","wait,</w>","standing</w>","comes</w>","suddenly,</w>","distingu","head</w>","1223","chad","mich","probably</w>","ebooks.</w>","silent</w>","22</w>","go","morning</w>","husband,</w>","657","867","18:","like,</w>","have,</w>","ches,</w>","painful</w>","disea","ts","citi","remember","house.</w>","tu</w>","formed</w>","impatient</w>","foun","here.\"</w>","something,</w>","ation,</w>","(1985)</w>","image</w>","measures</w>","language</w>","oned</w>","pursued</w>","general,</w>","olly</w>","chan","needs</w>","spor","secured</w>",".............................</w>","creat","iii.</w>","bling</w>","clar","hearts</w>","se</w>","shel","good,</w>","afri","won</w>","tender","ce","rose</w>","west,</w>","self</w>","speak.</w>","533","100","coming,</w>","85","893</w>","drug","877","into",":0","stopping</w>","sk","wall</w>","tu,</w>","earth,</w>","could.</w>","dru","1233","professor</w>","497","bir","start</w>","considered</w>","827","ame</w>","aming</w>","33</w>","country.</w>","it?</w>","judah</w>","pound","agriculture:</w>","sti","twel","has</w>","labor","know</w>","k;</w>","now,\"</w>","conflic","slip</w>","consulate</w>","post","pap","80","eat","tre","045","fool","!</w>","production:</w>","report","prospec","fitness</w>","afterwards</w>","where,</w>","interpret","locations</w>","doct","say,</w>","\"never</w>","cried,</w>","spi","1925","salv","ked</w>","friend.</w>","town","0.05","reveng","edly,</w>","chamber","influ","cent</w>","discour","160","generations.</w>","bold</w>","expec","brought</w>","references</w>","ence,</w>","laughed.</w>","tongu","relative</w>","tyr","treaty</w>","himself;</w>","gentle</w>","hill","pain</w>","hadn't</w>","origin</w>","gli","cost","1269","park</w>","repul","suffrage:</w>","delight</w>","war</w>","arms.</w>","known</w>","employees</w>","brethren,</w>","1653","ex","atmosphere</w>","vast","they're</w>","prefer","later,</w>","ali</w>","hall.</w>","bis","us.</w>","628","jour","pear","\"mr.</w>","probable</w>","trying</w>","08</w>","a)</w>","vehi","fy,</w>","eleph","my","329","257</w>","1.</w>","\"he's</w>","england,</w>","that,</w>","iel","vis</w>","ances.</w>","--she</w>","sight</w>","229","sage</w>","cul","ank</w>","trade</w>","au","soli","that.</w>","vers","austri","position.</w>","blos","mixed</w>","gulf</w>","abstr","repent","wrong,</w>",".</w>","russi","ure;</w>","sea-","1907","au,</w>","instruc","gives</w>","french","ommunic","murmu","139","op</w>","pec","ters.</w>","help</w>","butt","responsibility</w>","ere</w>","pile</w>","bel</w>","away;</w>","violent</w>","rach","navy,</w>","385","dashed</w>","products,</w>","inclined</w>","tau","rome</w>","70","deal</w>","*****</w>","(since</w>","render</w>","voy","wn</w>","m,</w>","obvious</w>","ignorance</w>","well,</w>","roots</w>","day:</w>","'</w>","comparatively</w>","adv.</w>","damages,</w>","east,</w>","head.</w>","608","daily</w>","mission</w>","hor","poe","court,</w>","last,</w>","themselves.</w>","come</w>","dreamed</w>","gutenberg</w>","`","scen","ins.</w>","fields</w>","off.</w>","smooth</w>","sensi","de</w>","touching</w>","home</w>","confirmation</w>","trademark</w>","1500</w>","her</w>","fy","departed</w>","chau","mit</w>","record</w>","aut","nephi","hearing</w>","norm","ities.</w>","disco","1209","6029","events</w>","(s","particular</w>","swam","regi","ay","man","sect","impression</w>","63</w>","rang</w>","gret","90%</w>","(1986","somewhere</w>","040","planted</w>","weeks</w>","767","producing</w>","ab</w>","ign</w>","out</w>","15</w>","aunt</w>","85%</w>","kitt","hoping</w>","griev","direc","noon</w>","ishing</w>",".i.","ground","showed</w>","sons</w>","careful</w>","mark,</w>","brethr","atter","heart</w>","continue</w>","vy</w>","vagu","character,</w>","1985</w>","dishon","assem","coco","ccc,</w>","repeated</w>","clock</w>","proph","too.</w>","wondering</w>","112</w>","infinite</w>","years</w>","ths</w>","specified</w>","an,</w>","sho","les.</w>","minutes,</w>","spur","trick","git</w>","inform","s'</w>","entirely</w>","1273","charg","anne","shiel","pieces</w>","184</w>","us:</w>","cun","captain</w>","033</w>","199</w>","ais","\"when</w>","super","fierce</w>","ways.</w>","india</w>","blood.</w>","hadde</w>","offic","fore,</w>","false</w>","proces","language,</w>","really</w>","north</w>","ep</w>","myself","assembled</w>","aid","]","tha","cid","inherit","ek","rob","89),</w>","clouds</w>","dela","answ","integr","squ","437","invest","149","pil","emma</w>","adam</w>","says,</w>","justi","hunting</w>","mississippi</w>","compared</w>","sleev","lip","build","suggesti","rushed</w>","performance</w>","anger</w>","waited</w>","adj","0.17","ific</w>","493","824","737","++++++++","while</w>","grin","detec","tured</w>","1-202-225-","(1988)</w>","107</w>","climate:</w>","treati","chast","4083","8507","understand.</w>","redd","664","playing</w>","husband</w>","fury</w>","japan</w>","gau","1883</w>","phr","d.</w>","attempt</w>","looks</w>","what,</w>","constitution:</w>","est,</w>","ators</w>","citiz","ed.</w>","went</w>","impati","day;</w>","volcan","story,</w>","far,</w>","raise</w>","(f.","id,</w>","philosoph","303","jah</w>","voic","700","representatives</w>","ge;</w>","ink</w>","1889</w>","1)</w>","..........................</w>","philosophy</w>","coven","ram",":018</w>","33","ben</w>","on.</w>","tiny</w>","joshu","horr","put</w>","death</w>","officer</w>","pri","ester</w>","shou","ite.</w>","navig","314","(1993</w>","hurst","occasion</w>","wood</w>","wisdom</w>","[lat];</w>","lonely</w>","777","bable</w>","prince,</w>","km</w>","letters</w>","_.</w>","preserv","1983","el,</w>","send</w>","woodland:</w>","1904</w>","increa","pping</w>","es.</w>","slipped</w>","_,</w>","as.</w>","itting</w>","trouble","hide</w>","wandering</w>","seem","char","wife,</w>","necessity</w>","rolling</w>","jerusalem</w>","(17","occupied</w>","floo","able;</w>","attribu","unesco,</w>","ff","profession","0</w>","um,</w>","correc","ev","addition</w>","renew","1114","ow-","1047","hundred</w>","occup","188","sign","inte","clerk</w>","simp","happin","force","refun","gras",":027</w>","sound","femal","run","along","rebecca</w>",".\"</w>","om,</w>","present","rebel","quar","five</w>","design","ambassad","foreign</w>","remain","awar","phone</w>","ash","gathered</w>","lege</w>","begged</w>","5:","vers</w>","(f.o.b.,</w>","sai","defence</w>","hair,</w>","84","639</w>","1:0","does</w>","leader</w>","fashion</w>","lover</w>","massachuse","alou","night.\"</w>","drawing</w>","ology</w>","skin","craw","calculated</w>","ashes</w>","reven",".","oul","poor</w>","87</w>","thi","commit","imf,</w>","some,</w>","lu","perhaps,</w>","accustom","eni","together.</w>","adj.</w>","appearing</w>","gabriel</w>","bishop</w>","owe</w>","building</w>","hands</w>","ft,</w>","knock</w>","canada</w>","ama","c","eas","ear</w>","sor","sta","henry</w>","row.</w>","frank","w.","sw","79","439","\"come</w>","continually</w>","year","general</w>","choice</w>","leth</w>","sab","wanting</w>","nec</w>","none;</w>","number,</w>","wearing</w>","(fy","ten,</w>","predomin","armed</w>","restor","0.18","111</w>","1883","y?</w>","gree","cau","dead,</w>","clu","ugly</w>","yourself,</w>","een</w>","leys</w>","ashed</w>","ei","migr","++++++++++++++++","him?</w>","delic","(202)</w>","035","people.</w>","ench",".......</w>","burst</w>","group","vest","yard,</w>","fled</w>","reading</w>","sympa","oy","stati","up","\u001e","this</w>","done</w>","that's</w>","hosp","wants</w>","connected</w>","ax","fail</w>","405","intend</w>","ight","seeing</w>","sugg","bia,</w>","cheek</w>","grim","threat","899","buy</w>","sm","devoted</w>","ates,</w>","king,</w>","deemed</w>","work.</w>","ics,</w>","secretary</w>","unemployment</w>","179</w>","marc","6703","845","front</w>","totaling</w>","tion,</w>","ies,</w>","coo","than</w>","dwt;</w>","found","left,</w>","months</w>","ite,</w>","afterward</w>","am</w>","handsome</w>","676","territorial</w>","sever","ys","throwing</w>","apo","brother,</w>","515","adul","illa</w>","equip","wee","provides</w>","utterly</w>","sure</w>","ep","war-","nigh</w>","buff","weir","turkish</w>","imit","883","e,\"</w>","am","fig","864","maid","with</w>","able.</w>","dr</w>","pages</w>","adequ","dark","volun","atten","liberty</w>","thence</w>","\"with</w>","53","fol","white,</w>","estab","boar","inst","suffering</w>","allowed</w>","liable</w>","shock</w>","00","green,</w>","down.</w>","socialist</w>","deputy</w>","308","could","together","ner","em</w>","directly</w>","month</w>","long-form</w>","operation</w>","brun","email</w>","gal","territory</w>","coal","free</w>","ride</w>","self-sufficient</w>","daughter,</w>","betrayed</w>","scrut","however</w>","consumption</w>","himself</w>","ralph</w>","knight</w>","ans</w>","plant","pass</w>","online</w>","un</w>","less,</w>","recognized</w>","leagu","bec","surprise,</w>","________","ey","even","whist","before.</w>","too,</w>","hunger</w>","scho","fill","followed</w>","\"all</w>","ected</w>","eds</w>","beasts</w>","shep","studi","const","1</w>","mer","ced</w>","observed</w>","bowed</w>","ill,</w>","4%</w>","distri","py","doing</w>","ther</w>","ures,</w>","them.</w>","man.</w>","kin'</w>","succeeded</w>","ising</w>","adjective:</w>","m</w>","about","scrup","bol","years...........................................</w>","\"i'd</w>","sub","shelter</w>","opportunity</w>","sion;</w>","cum","lane</w>","est.)</w>","electron","you.</w>","su","dry</w>","kwh</w>","fain","prai","obey</w>","proceed</w>","068","gathering</w>","besi","strong</w>","young</w>","ker</w>","gate</w>","1.94","reflection</w>","these</w>","pack","felt</w>","matthew</w>","kat","beloved</w>","man's</w>","bed","ago.</w>","late.</w>","infant</w>","mov","hand,</w>","eter","\"y","pride</w>","destruction</w>","author</w>","whatever</w>","angry</w>","avail","-in-","peculiar</w>","you!\"</w>","final</w>","affected</w>","commands</w>","(p","073</w>","among","land</w>","60","bar</w>","explanation</w>","249","(1,000</w>","inging</w>","hem","stra","spl","calls</w>","fellow,</w>","example,</w>","abra","proc","men's</w>","representation</w>","ide","1017","exam","0.0000%</w>","products</w>","guine","protection</w>","cease</w>","me,\"</w>","bad</w>","c</w>","interests</w>","fair</w>","rock</w>","sam</w>","progress</w>","design</w>","israel</w>","w</w>","7</w>","public","round</w>","ordinary</w>","1949</w>","466","remin","outer</w>","shine</w>","''</w>","7%,</w>","prea","perfec","forward.</w>","supper</w>","ended,</w>","407","oil,</w>","factor","mer,</w>","alco","1895</w>","none</w>","resp","compar","yellow</w>","zy</w>","3.4","characters</w>","blam","main</w>","round,</w>","reluct","307","99</w>","*","collected</w>","ves;</w>","substance</w>","compo","assaul","1993","rea","ing-room</w>","furnished</w>","celebrated</w>","slave","kar","gate,</w>","acc","smoo","thunder","thirty-","underst","know,</w>","n.</w>","44","...</w>","htt","honour</w>","pt</w>","th'</w>","james</w>","i.","sus","air:</w>","----</w>","205","exer","fan","were</w>","sat","herte</w>","so</w>","yor","influence</w>","listening</w>","glor","453</w>","f:</w>","1285","moment's</w>","victor","thes","lay","presum","singing</w>","yoursel","spake</w>","exhi","edi","consciousness</w>","rachel</w>","exul","gui","conc","ched</w>","937","ck.</w>","blo","agreement.</w>","severe</w>","189</w>","attach","encoun","prett","1);</w>","utely</w>","ints</w>","1979","554","woman.</w>","s\"</w>","ave</w>","1952</w>","merchant</w>","squar","cred","description</w>","songs</w>","y</w>","same</w>","liberal</w>","reply.</w>","sun,</w>","foc","el's</w>","you,\"</w>","form","18","105</w>",".);</w>","rout","553","doubtless</w>","amer","hear</w>","dut","human</w>","he'd</w>","closer</w>","boy.</w>","wh","member</w>","crit","nic","inspir","circle</w>","guer","(non-","ength</w>","ences</w>","cur","moon</w>","center</w>","dly,</w>","accu","effort","651</w>","forti","language:</w>","youth","1909","luc","010","gram","high","crack","vol.</w>","ously.</w>","conceal</w>","gratefully</w>","_#","1911</w>","sanc","jaw","mid","fier","um","1115","ested</w>","another,</w>","tive,</w>","891</w>","amed.</w>","housing</w>","emi","wear","amidst</w>","reck","joseph</w>","ban</w>","pictures</w>","explanation.</w>","you.\"</w>","191</w>","it's</w>","ton,</w>","100</w>",":013","illumin","fem","arse</w>","\u0012","promoting</w>","is</w>","en.</w>","briti","circu","south</w>","bs,</w>","growing</w>","hard","de,</w>","ha,</w>","lights</w>","occupation</w>","mistake</w>","you'll</w>","dependent</w>","sn","mented</w>","soul.</w>","want","think</w>","clerg","nearer</w>","ruined</w>","ished</w>","total;</w>","question,</w>","ways</w>","families</w>","drink,</w>","el</w>","dick","547","mr","life</w>","heart","seat,</w>","cunning</w>","ched,</w>","plat","179","mean","shed.</w>","linked</w>","6:","aren't</w>","back.</w>","trees</w>","ve--","jeal","altar</w>","entit","government","ading</w>","lea","desp","enough.</w>","art.</w>","fight"],"merge_rules":[["e","</w>"],["t","h"],["d","</w>"],["s","</w>"],["t","</w>"],["i","n"],["a","n"],[",","</w>"],["e","r"],["th","e</w>"],["o","n"],["y","</w>"],["e","n"],[".","</w>"],["o","u"],["o","r"],["o","</w>"],["f","</w>"],["an","d</w>"],["a","r"],["e","d</w>"],["o","f</w>"],["a","l"],["r","e"],["in","g"],["t","o</w>"],["h","i"],["s","t"],["er","</w>"],["a","</w>"],["a","t"],["a","t</w>"],["ing","</w>"],["in","</w>"],["a","s</w>"],["i","t"],["o","m"],["e","l"],["h","e</w>"],["e","s"],["c","h"],["on","</w>"],["l","</w>"],["h","a"],["o","w"],["w","i"],["or","</w>"],["en","</w>"],["i","</w>"],["th","</w>"],["r","i"],["l","i"],["l","e"],["g","h"],["s","e"],["t","i"],["w","h"],["r","o"],["y","ou"],["th","e"],["th","at</w>"],["i","s</w>"],["\"","</w>"],["a","c"],["a","s"],["w","as</w>"],["b","e"],["an","</w>"],[".","."],["u","n"],[";","</w>"],["m","</w>"],["d","i"],["v","e</w>"],["i","r"],["l","y</w>"],["s","h"],["i","t</w>"],["n","o"],["d","e"],["u","r"],["hi","s</w>"],["s","a"],["e",",</w>"],["o","l"],["wi","th</w>"],["e","s</w>"],["s","i"],["k","</w>"],["d",",</w>"],["b","u"],["ch","</w>"],["s",",</w>"],["a","m"],["f","or</w>"],["er","e</w>"],["o","o"],["i","c"],["l","e</w>"],["a","b"],["-","-"],["a","g"],["1","9"],["you","</w>"],["at","i"],[":","</w>"],["al","</w>"],["0","0"],["a","d"],["v","er"],["n","e"],["ha","d</w>"],["en","t"],["s","t</w>"],["s","u"],["f","or"],["al","l</w>"],["i","l"],["c","on"],["s","e</w>"],["ou","l"],["no","t</w>"],["f","r"],["s","he</w>"],["e","c"],["c","om"],["w","hi"],["b","e</w>"],["h","er</w>"],["r","a"],["e","m"],["bu","t</w>"],["o","p"],["en","t</w>"],["y",",</w>"],["p","ro"],["om","</w>"],["oul","d</w>"],["1","8"],["e","ar"],["'","s</w>"],["s","p"],["u","p"],["ow","</w>"],["ou","n"],["l","a"],["..",".."],["s",".</w>"],["m","a"],["t","er"],["e",".</w>"],["n","</w>"],["b","y</w>"],["e","x"],["gh","t</w>"],["e","d"],["l","o"],["w","or"],["the","y</w>"],["ou","t</w>"],["q","u"],["c","e</w>"],["u","l"],["ha","ve</w>"],["ou","r"],["th","er</w>"],["1","2"],["on","e</w>"],["th","is</w>"],["m","o"],["fr","om</w>"],["m","e</w>"],["a","p"],[".","\"</w>"],["w","a"],["1","7"],["1","3"],["1","5"],["1","0"],["i","s"],["k","e</w>"],["p","o"],["1","</w>"],["1","4"],["1","6"],["m","y</w>"],["whi","ch</w>"],["g","</w>"],["t","a"],["sa","i"],["ar","e</w>"],["t","r"],["p","er"],["s","o</w>"],["e","a"],["th","er"],["u","t"],["ir","</w>"],["2","2"],["v","er</w>"],["m","e"],["8","9"],["an","d"],["p","re"],["w","</w>"],["4","3"],["4","9"],["6","5"],["8","7"],["g","o"],[",","\"</w>"],["t",",</w>"],["w","ere</w>"],["4","7"],["4","5"],["v","i"],["l","l</w>"],["8","3"],["6","9"],["6","7"],["6","3"],["2","3"],["8","5"],["%","</w>"],["0","3"],["2","7"],["p","ar"],["0","</w>"],["2","5"],["ati","on"],["y",".</w>"],["s","el"],["2","9"],["m","an"],["t","er</w>"],["f","f"],["d","a"],["e","st"],["0","9"],["0","5"],["es",",</w>"],["e","p"],["0","7"],["m","or"],["i","m"],["t","ed</w>"],["i","f</w>"],["0","."],["hi","m</w>"],["m","u"],["ou","gh"],["c","i"],["s","om"],["w","e</w>"],["f","i"],["b","o"],[")","</w>"],["hi","m"],["wh","en</w>"],["the","ir</w>"],["ati","on</w>"],["b","er"],["al","l"],["es","s</w>"],["e","t</w>"],["a","u"],["d","er"],["e","t"],["m","i"],["g","r"],["p","l"],["ow","n</w>"],["sai","d</w>"],["k","n"],["th","ere</w>"],["g","re"],["t","o"],["w","ould</w>"],["d","e</w>"],["n","o</w>"],["wh","at</w>"],["4","</w>"],["s","o"],["d","o"],["'","t</w>"],["h","er"],["c","o"],["d",".</w>"],["u","m"],["ver","y</w>"],["'","</w>"],["ar","</w>"],["8","</w>"],["2","</w>"],["6","</w>"],["e","d,</w>"],["....","...."],["be","en</w>"],["m","ar"],["el","l"],["1","."],["k","ed</w>"],["at","e</w>"],["b","r"],["an","g"],["wh","o</w>"],["wi","ll</w>"],["s","ed</w>"],["f","a"],["t","w"],["f","e"],["g","i"],["st","r"],["you","r"],["l","oo"],["it","t"],["e","v"],["it","i"],["t","ur"],["ec","t</w>"],["k","ing</w>"],["m","in"],["p","e"],["s","c"],["9","3"],["en","d"],["ough","</w>"],["ing",",</w>"],["u","s</w>"],["our","</w>"],["ol","d</w>"],["am","e</w>"],["?","\"</w>"],["th","ing</w>"],["o","ther</w>"],["es","t</w>"],["d","u"],["a","in"],["4","4"],["c","l"],["on",",</w>"],["8","8"],["an","y</w>"],["gh","t"],["on","g</w>"],["a","f"],["in","to</w>"],["up","</w>"],["d","o</w>"],["ou","s</w>"],["7","7"],["5","3"],["c","e"],["b","l"],["2","6"],["your","</w>"],["j","u"],["?","</w>"],["ti","on</w>"],["c","ould</w>"],["9","9"],["up","on</w>"],["!","</w>"],["an","t</w>"],["the","m</w>"],["it","y</w>"],["th","ou"],["ab","out</w>"],["8","6"],["t","s</w>"],["oo","d</w>"],["7","3"],["2","4"],["re","a"],["p","u"],["d","r"],["as","t</w>"],["0","6"],["m","an</w>"],["mor","e</w>"],["th","en</w>"],["f","ac"],["ab","le</w>"],["oun","d</w>"],["5","5"],["h","ear"],["c","hi"],["s","er"],["0","4"],["ed",".</w>"],["som","e</w>"],["9","</w>"],["el","l</w>"],["c","k"],["n","i"],["d","s</w>"],["p","p"],["p","</w>"],["it","s</w>"],["li","ke</w>"],["p","r"],["7","</w>"],["8","4"],["ic","</w>"],["c","ar"],["d","er</w>"],["es",".</w>"],["y","s</w>"],["pre","s"],["sh","all</w>"],["an","c"],["th","an</w>"],["j","ect</w>"],["f","l"],["l","itt"],["d","on"],["f","u"],["ti","on"],["the","m"],["m","r"],["3","3"],["m","on"],["p","h"],["al","ly</w>"],["w","ar"],["o","b"],["f","ir"],["\"","i</w>"],["th","r"],["p","a"],["f","in"],["h","as</w>"],["ut","en"],["di","d</w>"],["er","s</w>"],["litt","le</w>"],["c","ame</w>"],["at","ed</w>"],["7","5"],["com","p"],["for","e</w>"],["6","6"],["v","ed</w>"],["c","an</w>"],["g","e</w>"],["ad","e</w>"],["9","5"],["wa","y</w>"],["uten","ber"],["g","utenber"],["wi","th"],["0","2"],["p","ri"],["li","c"],["el","y</w>"],["h","e"],["on","ly</w>"],["en",",</w>"],["u","re"],["ur","e</w>"],["f","ul"],["sh","</w>"],["e","y"],["t",".</w>"],["mo","st</w>"],["c","r"],["com","e</w>"],["l","or"],["p","or"],["er",",</w>"],["c","oun"],["!","\"</w>"],["sel","f</w>"],["pro","ject</w>"],["en","ce</w>"],["a",",</w>"],["k","s</w>"],["s","w"],["n","ow</w>"],["ac","k</w>"],["en","c"],["el","</w>"],["u","s"],["ma","y</w>"],["es","s"],["se","e</w>"],["t","e</w>"],["0","8"],["m","ent"],["an","ce</w>"],["ne","w</w>"],["c","au"],["th","in"],["g","u"],["k",",</w>"],["t","y</w>"],["o","ver</w>"],["2","8"],["es","e</w>"],["ar","y</w>"],["m","is"],["h","ou"],["po","s"],["af","ter</w>"],["c","or"],["h","ow</w>"],["t","ing</w>"],["il","l"],["o","f"],["3","</w>"],["n","ed</w>"],["i","'"],["y","ear"],["6","4"],["h","ea"],["d","es"],["o","se</w>"],["le",",</w>"],["in","ter"],["t","ri"],["m","ade</w>"],["ag","ain"],["th","ing"],["s","in"],["su","ch</w>"],["st","ri"],["2","."],["wh","ere</w>"],["19","9"],["be","fore</w>"],["it","e</w>"],["for","m"],["d","ing</w>"],["mu","st</w>"],["pl","ac"],["c","re"],["en","g"],["7","9"],["k","e"],["sh","ould</w>"],["h","ar"],["th","ese</w>"],["a","m</w>"],["d","ed</w>"],["ti","m"],["el","i"],["com","m"],["an","t"],["3","5"],["v","ing</w>"],["j","o"],["ti","c"],["ti","me</w>"],["gre","at</w>"],["pe","op"],["se",",</w>"],["oo","k</w>"],["som","e"],["ch","ar"],["tw","o</w>"],["fu","l</w>"],["c","an"],["ow","n"],["o","ff"],["h","el"],["on","g"],["p","as"],[")",",</w>"],["d","own</w>"],["ne","ver</w>"],["an","d,</w>"],["d","re"],["gutenber","g"],["li","f"],["g","o</w>"],["t","re"],["en","d</w>"],["w","e"],["ag","e</w>"],["s",":</w>"],["e",":</w>"],["ol","l"],["kn","ow</w>"],["si","on</w>"],["y","ing</w>"],["g","e"],["con","t"],["c","ap"],["in","e</w>"],["-","t"],["s","m"],["n","'t</w>"],["2","0"],["g","a"],["6","8"],["wor","k</w>"],["it",",</w>"],["o","c"],["b","le</w>"],["e","ver"],["ev","en</w>"],["mu","ch</w>"],["in","t"],["w","om"],["l","l"],["t","al"],["w","ent</w>"],["c","er"],[":","0"],["on","s</w>"],["f","ri"],["h","o"],["th","at"],["p","le"],["p","i"],["re","e</w>"],["--","--"],["c","ol"],["........","........"],["ta","in"],["t","ra"],["at","t"],["g","ood</w>"],["fir","st</w>"],["c","t"],["s",";</w>"],["m","ent</w>"],["v","en"],["c","lo"],["sel","f"],["ic","e</w>"],["n","ing</w>"],["h","and"],["g","en"],["9","7"],["5","</w>"],["ex","p"],["b","er</w>"],["w","at"],["be","g"],["v","o"],["ma","ke</w>"],["i","d</w>"],["b","ro"],["ing",".</w>"],["thr","ough</w>"],["i","g"],["il","l</w>"],["4","6"],["w","ell"],["d","d"],["un","to</w>"],["4","8"],["di","s"],["m","en</w>"],["v","es</w>"],["ow",",</w>"],["c","ri"],["e","ver</w>"],["t","t"],["w","r"],["gutenberg","-t"],["-","</w>"],["da","y</w>"],["don","'t</w>"],["ju","st</w>"],["m","at"],["ri","ght</w>"],["ation","s</w>"],["a","st"],["c","u"],["er","ed</w>"],["se","s</w>"],["cau","se</w>"],["mi","ght</w>"],["c","our"],["it",".</w>"],["e",";</w>"],["th",",</w>"],["ap","p"],["mr",".</w>"],["man","y</w>"],["se","em"],["tr","u"],["3","9"],["with","out</w>"],["e","very</w>"],["c","op"],["s","ur"],["le","s</w>"],["l","ong</w>"],["i","st"],["em","p"],["an","y"],["ar","d</w>"],["de","a"],["on",".</w>"],["gutenberg-t","m</w>"],["k","in"],["el","ec"],["o","ther"],["g","et</w>"],["ou","ght</w>"],["5","9"],["cl","u"],["5","7"],[":","00"],["b","ack</w>"],["th","ose</w>"],["st","or"],["f","t</w>"],["3","7"],["ther","e"],["ep","</w>"],["l","and</w>"],["w","in"],["s","hi"],["th","y</w>"],["l","ess</w>"],["chi","l"],["c","ur"],["ch","ed</w>"],["le","t</w>"],["him",",</w>"],["m","il"],["h","or"],["l","ed</w>"],["l","y,</w>"],["r","u"],["un","der</w>"],["re","ad"],["ta","ke</w>"],["wa","ys</w>"],["s","ha"],["st","at"],["du","c"],["thou","</w>"],["ar","i"],["th","ough</w>"],["ser","v"],["peop","le</w>"],["s","on</w>"],["thin","k</w>"],["s","y"],["g","l"],["c","k</w>"],["b","ar"],["s","s</w>"],["al","i"],["a","in</w>"],["t","e"],["4","0"],["l","and"],["oun","d"],["be","ing</w>"],["ta","in</w>"],["x","</w>"],["g","ra"],["sh","ed</w>"],["it","ed</w>"],["l","at"],["f","ound</w>"],["b","i"],["hi","gh"],["n","or"],["st","re"],["you","n"],["whi","le</w>"],["ar","m"],["su","b"],["k",".</w>"],["m","em"],["f","re"],["b","a"],["in","di"],["h",",</w>"],["p","s</w>"],["ex","c"],["ou","s"],["u","gh"],["4","2"],["p","la"],["thou","ght</w>"],["l","y.</w>"],["s","en"],["ent",",</w>"],["le","a"],["l","ast</w>"],["er",".</w>"],["3","."],["h","</w>"],["be","cause</w>"],["sa","w</w>"],["n","at"],["wor","l"],["qu","i"],["an","i"],["b","ur"],["him",".</w>"],["gi","ve</w>"],["8","0"],["6","0"],["m","e,</w>"],["por","t"],["6","2"],["v","e"],["ou","t"],["s","or"],["1","1"],["le",".</w>"],["8","2"],["y",";</w>"],["kn","ow"],["h","un"],["s","ol"],["w","ell</w>"],["h","om"],["k","en</w>"],["as","e</w>"],["loo","ked</w>"],["it","u"],["st",",</w>"],["sai","d,</w>"],["a","ir"],["an",",</w>"],["sp","ec"],["again","st</w>"],["h","ol"],["h","ere</w>"],["pu","t</w>"],["tur","ned</w>"],["v","en</w>"],["o","ver"],["ce","i"],["*","*"],["un","der"],["n","ess</w>"],["pu","b"],["ha","pp"],["gen","er"],["c","le"],["t","ook</w>"],["b","rea"],["sa","y</w>"],["b","or"],["en","ed</w>"],["st","ar"],["h","al"],["se",".</w>"],["g","ir"],["e","en</w>"],["w","on"],["g","ar"],["n","a"],["m","er"],["st","ill</w>"],["r","e</w>"],["al","so</w>"],["pr","in"],["d","ar"],["le","t"],["go","t</w>"],["m","y"],["00","0</w>"],["p","hi"],["f","oll"],["00","</w>"],["c","all"],["v","el"],["him","self</w>"],["mr","s.</w>"],["lor","d</w>"],["r","ed</w>"],["d","n't</w>"],["ation",",</w>"],["b","ri"],["se","t</w>"],["d","y</w>"],["y","et</w>"],["sp","o"],["youn","g</w>"],["ac","c"],["seem","ed</w>"],["ep","t</w>"],["st","e"],["w","as"],["r","y</w>"],["oo","d"],["un","i"],["c","a"],["_","#"],["_#","_"],["so","ci"],["ow","ed</w>"],["fac","e</w>"],["w","al"],["si","de</w>"],["t","ell</w>"],["g","g"],["sa","me</w>"],["s","ou"],["i","d"],["l","in"],["f","er"],["ent","ly</w>"],["t","ow"],["thing","s</w>"],["si","l"],["ing","s</w>"],["p","ow"],["m","om"],["s","on"],["es","s,</w>"],["y","e</w>"],["a","way</w>"],["s","ing</w>"],["ea","ch</w>"],["i","l</w>"],["wi","l"],["gh","t,</w>"],["si","st"],["al","ways</w>"],["in","st"],["b","el"],["di","stri"],["in","de"],["ey","es</w>"],["o",",</w>"],["en","ti"],["as","i"],["ic","i"],["em","ent</w>"],["an","sw"],["to","o</w>"],["d","g"],["t","u"],["di","ff"],["9","4"],["or",",</w>"],["th","ree</w>"],["hou","se</w>"],["r","un"],["al",",</w>"],["l","ar"],["c","tion</w>"],["de",",</w>"],["go","ing</w>"],["v","ol"],["e","f"],["n","ation"],["loo","k</w>"],["lif","e</w>"],["7","6"],["str","u"],["s","k"],["b","il"],["no","thing</w>"],["le","ft</w>"],["(","19"],["ent","s</w>"],["7","4"],["--","</w>"],["in","ed</w>"],["be","tw"],["me","an"],["hea","d</w>"],["ch",",</w>"],["3","4"],["be","t"],["es",":</w>"],["an","n"],["s","ch"],["of","f</w>"],["b","eli"],["n","am"],["ch","ang"],["s","l"],["\"","you</w>"],["year","s</w>"],["ic","al</w>"],["v","al"],["betw","een</w>"],["5","4"],["s","un"],["you","'"],["p","ur"],["pub","lic"],["3","6"],["t","or"],["9","6"],["t","old</w>"],["se","e"],["it","'s</w>"],["plac","e</w>"],["h","ow"],["m","en"],["app","ear"],["po","in"],["ful","l</w>"],["su","m"],["%",",</w>"],["p","op"],["1",","],["sh","e"],["f","el"],["an","other</w>"],["f","am"],["h","op"],["st","ood</w>"],["on","ce</w>"],["sin","ce</w>"],["l","u"],["hear","d</w>"],["in","clu"],["them",",</w>"],["l","ong"],["k","new</w>"],["elec","tr"],["la","w"],["(","199"],["distri","bu"],["a","wa"],["t","en</w>"],["electr","on"],["u","se</w>"],["5","8"],["fe","w</w>"],["r","at"],["par","t</w>"],["b","oo"],["5","6"],["re","p"],["iti","on</w>"],["it","y,</w>"],["m","s</w>"],["am","ong</w>"],["n","um"],["go","ver"],["some","thing</w>"],["y",":</w>"],["7","0"],["3","8"],["le","g"],["c","ent"],["li","ght</w>"],["ac","e</w>"],["h","and</w>"],["i","s,</w>"],["n","or</w>"],["di","st"],["ow","ing</w>"],["at","ing</w>"],["p","ed</w>"],["9","8"],["7","8"],["t","y"],["v","e,</w>"],["li","m"],["you",",</w>"],["ac","k"],["st","er"],["re","cei"],["u","e</w>"],["pro","duc"],["c","ul"],["est","i"],["st","and"],["h","on"],["i","ther</w>"],["i","es</w>"],["su","l"],["c","ess"],[")",";</w>"],["st","a"],["pro","vi"],["ne","x"],["sh","or"],["3","0"],["ag","ain</w>"],["per","i"],["p","er</w>"],["l","ad"],["5","0"],["well",",</w>"],["me","di"],["i'","m</w>"],["de","s</w>"],["ati","ve</w>"],["chil","dr"],["th",".</w>"],["f","ar</w>"],["un","ti"],["ther",",</w>"],["13","</w>"],["sp","ea"],["f","ound"],[".",")</w>"],["d",";</w>"],["call","ed</w>"],["electron","ic</w>"],["par","t"],["ad","v"],["1","1</w>"],["ga","ve</w>"],["h","in"],["cont","in"],["u","s,</w>"],["10","</w>"],["c",".</w>"],["wor","ks</w>"],["u","m</w>"],["bo","th</w>"],["f","oo"],["rea","d</w>"],["b","</w>"],["man",",</w>"],["oc","c"],["re","c"],["si","on"],["ag","re"],["al","most</w>"],["w","ant</w>"],["c","</w>"],["wh","om</w>"],["pos","si"],["m","e.</w>"],["17","</w>"],["d","ou"],["z","ed</w>"],["qu","ite</w>"],["d","ra"],["to","ge"],["s","--"],["go","d</w>"],["wor","k"],["d","in"],["unti","l</w>"],["wh","y</w>"],["tion","s</w>"],["fin","d</w>"],["9","2"],["tr","an"],["b","as"],["3","2"],["5","2"],["for","t"],["hel","d</w>"],["la","ugh"],["them",".</w>"],["li","ght"],["tr","y</w>"],["ro","om"],["9","0"],["t","en"],["as","ked</w>"],["pop","ul"],["c","al"],["de","f"],["in",",</w>"],["12","</w>"],["her",",</w>"],["fri","end"],["b","ir"],["lo","ve</w>"],["c","ro"],["ri","ed</w>"],["u","sed</w>"],["19","</w>"],["7","2"],["ol","e</w>"],["ne","w"],["pr","om"],["d","en"],["it","er"],["beg","an</w>"],["ow","s</w>"],["h","u"],["es",";</w>"],["ec","t"],["st",".</w>"],["fel","t</w>"],["mis","s</w>"],["d","om"],["ch","e"],["f","ur"],["her",".</w>"],["st","ra"],["ple","as"],["at",",</w>"],["bo","dy</w>"],["st","u"],["tur","n</w>"],["d","ly</w>"],["e","f</w>"],["su","p"],["ever","y"],["br","ought</w>"],["nex","t</w>"],["nation","al</w>"],["b","le"],["on","e"],["wom","an</w>"],["ha","ving</w>"],["ti","ve</w>"],["wh","er"],["whi","te</w>"],["se","en</w>"],["tim","es</w>"],["str","ang"],["15","</w>"],["ab","o"],["m",",</w>"],["con","si"],["s","le"],["re","as"],["ation",".</w>"],["n","er</w>"],["ar","ly</w>"],["no","t"],[".","'</w>"],["la","y</w>"],["p","ic"],["a","ff"],["ent",".</w>"],["f","ear"],["ure","s</w>"],["wh","e"],["g","er"],["k","m</w>"],["sm","all</w>"],["l","ab"],["s","at</w>"],["he","ad"],["s","ing"],["18","</w>"],["f","un"],["si","g"],["en","se</w>"],["e","w"],["p","ol"],["read","y</w>"],["----","----"],["st","i"],["ever",",</w>"],["a",".</w>"],["th","or"],["bet","ter</w>"],["n","ow"],["th","us</w>"],["\"","and</w>"],["co","ver"],["c","am"],["public","</w>"],["da","y"],[",","'</w>"],["ni","ght</w>"],["d","ro"],["re","ma"],["war","d</w>"],["y","ed</w>"],["a","d</w>"],["all",",</w>"],["gutenber","g</w>"],["89","</w>"],["da","ys</w>"],["1","00"],["gover","n"],["an","k</w>"],["fa","ther</w>"],["th","ough"],["on","e,</w>"],["o","h,</w>"],["1","16"],["per","ha"],["n","ow,</w>"],["su","dd"],["c","al</w>"],["so","on</w>"],["wor","d</w>"],["ch","ri"],["'","d</w>"],["ke","ep</w>"],["ter","ms</w>"],["14","</w>"],["es","s.</w>"],["ri","ght"],["e","."],["p","al"],["s","ci"],["s","al"],["li","on</w>"],["er","s,</w>"],["wh","at"],["ar","r"],["b","es"],["n","ame</w>"],["d","own"],["b","ed</w>"],["mon","e"],["loo","king</w>"],["ra","ther</w>"],["ch","ing</w>"],["en",".</w>"],["c","la"],["h","um"],["ter",",</w>"],["p","ra"],["l","y"],["i","ght</w>"],["end","ed</w>"],["di","sc"],["enc","e,</w>"],["f","ic"],["23","</w>"],["for","th</w>"],["e","-"],["g","ent"],["ter","s</w>"],["worl","d</w>"],["l","iter"],["in","c"],["nat","ur"],["su","ff"],["qu","esti"],["se","con"],["s","ent</w>"],["sa","y"],["with","in</w>"],["]","</w>"],["m","oun"],["ti","on,</w>"],["s","ure</w>"],["self",",</w>"],["27","</w>"],["1","14"],["d","one</w>"],["d","ge</w>"],["d","eli"],["hal","f</w>"],["th","ir"],["am","er"],["b","en"],["m","al"],["k","es</w>"],["win","d"],["ro","om</w>"],["wh","ole</w>"],["1","18"],["or","s</w>"],["how","ever,</w>"],["\"","the</w>"],["si","m"],["i","de"],["any","thing</w>"],["1","13"],["su","c"],["e","t,</w>"],["est",".)</w>"],["gi","ven</w>"],["m",".</w>"],["1","17"],["\"","but</w>"],["min","d</w>"],["n","er"],["16","</w>"],["e","con"],["anc","e,</w>"],["1","12"],["wa","y"],["en","ough</w>"],["g","ed</w>"],["econ","om"],["1","15"],["b","ab"],["t","al</w>"],["i'","ll</w>"],["re","mem"],["x","i"],["a","ir</w>"],["\"","y"],["*","</w>"],["di","sp"],["en","ing</w>"],["po","or</w>"],["as","s</w>"],["j","ec"],["d","ri"],["da","y,</w>"],["v","is"],["wi","f"],["gir","l"],["do","es</w>"],["d","s,</w>"],["dre","s"],["contin","u"],["d","ur"],["n",",</w>"],["29","</w>"],["diff","er"],["se","ver"],["r","an"],["pro","f"],["f","."],["ta","ken</w>"],["w","an"],["49","</w>"],["it","y.</w>"],["b","it"],["e","ff"],["ac","t</w>"],["ti","ll</w>"],["childr","en</w>"],["or","g"],["t","oo"],["1","19"],["k","ing"],["b","re"],["t","el"],["p","ap"],["i","ly</w>"],["dou","b"],["d","iti"],["po","se</w>"],["ph","</w>"],["con","st"],["op","</w>"],["l","ing</w>"],["b","ook</w>"],["can","not</w>"],["cer","tain</w>"],["e","ve</w>"],["li","st"],["th","en,</w>"],["sai","d.</w>"],["f","o"],["that",",</w>"],["su","pp"],["e","vi"],["re","li"],["&","c.</w>"],["be","hin"],["st","ate</w>"],["s","la"],["ver","s"],["for","m</w>"],["e","u"],["v","ic"],["consi","der"],["p",",</w>"],["ha","th</w>"],["ment","s</w>"],["87","</w>"],["z","e</w>"],["f","ell"],["high","</w>"],["b","ra"],["gre","at"],["ed",";</w>"],["kn","own</w>"],["y","-"],["hand","s</w>"],["pres","ent"],["hear","t</w>"],["st","and</w>"],["wh","ose</w>"],["ful","ly</w>"],["47","</w>"],["c","ir"],["g","et"],["r","ound</w>"],["tow","ard</w>"],["re","g"],["g","la"],["h","ur"],["43","</w>"],["mo","ther</w>"],["them","sel"],["1.","e."],["1","10"],["\"","it</w>"],["67","</w>"],["d","am"],["83","</w>"],["f","le"],["br","an"],["f","ar"],["69","</w>"],["fi","ed</w>"],["d",":</w>"],["63","</w>"],["m","ur"],["i","al</w>"],["li","ed</w>"],["93","</w>"],["--","and</w>"],["e",".\"</w>"],["bu","il"],["t","ro"],["in","i"],["t","ar"],["pp","ed</w>"],["bl","ack</w>"],["hear","</w>"],["st","ed</w>"],["wi","ll"],["tur","e</w>"],["ni","ght"],["qu","ir"],["il","ed</w>"],["ar","chi"],["m","ag"],["le","ar"],["b","est</w>"],["or",".</w>"],["i'","ve</w>"],["p","le</w>"],["oul","dn't</w>"],["y","'s</w>"],["qu","e</w>"],["that","'s</w>"],["af","ter"],["ous","ly</w>"],["d","el"],["bu","sin"],["cop","y"],["in","form"],["mom","ent</w>"],["pl","an"],["fi","el"],["fe","el"],["is","ed</w>"],["tion",".</w>"],["st","ro"],["fa","ther"],["22","</w>"],["2","00"],["25","</w>"],["amer","ic"],["s","mi"],["v","ir"],["lar","ge</w>"],["s",".\"</w>"],["rat","e:</w>"],["on","i"],["in","v"],["gener","al</w>"],["wor","ds</w>"],["g","ood"],["ob","s"],["won","der"],["ure",",</w>"],["iti","es</w>"],["i","f"],["st","ep"],["un","ited</w>"],["par","ty</w>"],["a","w"],["n","one</w>"],["t","ou"],["hel","p</w>"],["perha","ps</w>"],["hom","e</w>"],["ar","ds</w>"],["as","h"],["al","s</w>"],["sp","ir"],["19","5"],["g","ri"],["li","sh</w>"],["on","d</w>"],["p","e</w>"],["1","%</w>"],["th","re"],["[","obs"],["[obs","3"],["it","ing</w>"],["[obs3","]"],["com","ing</w>"],["cap","it"],["si","d"],["e","th</w>"],["do","or</w>"],["09","</w>"],["h","old</w>"],["t","em"],["im","port"],["thou","s"],["ac","cor"],["dr","ed</w>"],["or","y</w>"],["ic","k"],["ne","cess"],["+","+"],["er","ing</w>"],["ac","coun"],["v","a"],["for","c"],["inclu","ding</w>"],["n",".</w>"],["pow","er</w>"],["19","3"],["sw","e"],["de",".</w>"],["p","ec"],["p","end"],["tic","</w>"],["al","ong</w>"],["ch","ap"],["p","en"],["h","our"],["p",".</w>"],["i","se</w>"],["h","en"],["be","au"],["r","om"],["re","sp"],["\"","what</w>"],["fr","on"],["abo","ve</w>"],["tr","ou"],["se","d,</w>"],["behin","d</w>"],["d","en</w>"],["kin","d</w>"],["pre","t"],["ne","ar</w>"],["t","on"],["18","9"],["d","-"],["ex","pres"],["ad","m"],["re","ally</w>"],["--","the</w>"],["her","self</w>"],["of","ten</w>"],["an","k"],["le","ad"],["cr","u"],["e","g"],["gir","l</w>"],["inter","est"],["f","lo"],["can","'t</w>"],["th","o"],["jo","h"],["m","ou"],["19","7"],["ti","es</w>"],["re","l"],["col","le"],["ro","ss</w>"],["su","re"],["min","ut"],["ul","ar</w>"],["in","du"],["03","</w>"],["the","e</w>"],["emp","lo"],["pos","s"],["07","</w>"],["sever","al</w>"],["el",",</w>"],["as",",</w>"],["char","ac"],["pas","sed</w>"],["v","e.</w>"],["tim","e,</w>"],["i",",</w>"],["ch","in"],["p","ul"],["p","at"],["per","f"],["g","one</w>"],["p","et"],["an","s</w>"],["e","qu"],["st","er</w>"],["im","ag"],["as","k</w>"],["di","dn't</w>"],["w","est"],["p","ain"],["c","all</w>"],["ch","ur"],["f","our</w>"],["4","."],["par","tic"],["v","ari"],["we","e"],["fort","un"],["ch","es</w>"],["comm","un"],["fi","ve</w>"],["_","</w>"],["b","loo"],["dur","ing</w>"],["h","us"],["c","at"],["sc","ar"],["self",".</w>"],["in","s</w>"],["qu","ar"],["k","e,</w>"],["ap","pro"],["vo","ice</w>"],["i","de</w>"],["lea","ve</w>"],["beli","eve</w>"],["b","ac"],["gr","ow"],["dra","w"],["to","-"],["mone","y</w>"],["l","on"],["is","ra"],["sudd","en"],["lo","c"],["li","ve</w>"],["wher","e"],["fl","u"],["ter","r"],["br","ing</w>"],["19","8"],["chang","e</w>"],["secon","d</w>"],["si","ve</w>"],["mis","sion</w>"],["l","ine</w>"],["hun","dred</w>"],["ou","t,</w>"],["wi","sh</w>"],["num","ber</w>"],["ang","u"],["th","s</w>"],["be","came</w>"],["toge","ther</w>"],["fr","a"],["ow",".</w>"],["ing","-"],["da","ugh"],["year","</w>"],["on","e.</w>"],["fe","el</w>"],["w","ea"],["so",",</w>"],["fi","g"],["f","ell</w>"],["l","am"],["'","ll</w>"],["2","1</w>"],["enc","e.</w>"],["con","cer"],["re","sul"],["op","en</w>"],["stor","y</w>"],["li","sh"],["di","re"],["f","ree</w>"],["cour","se</w>"],["at","e,</w>"],["ch","o"],["i",".</w>"],["sh","o"],["natur","al</w>"],["par","ag"],["found","ation</w>"],["18","5"],["\"","no"],["r","ate</w>"],["i","gh"],["5","."],["18","7"],["chi","ef</w>"],["u","su"],["sh","ar"],["a","ut"],["r","up"],["s","ir"],["18","3"],["h","y"],["ill","ed</w>"],["int","el"],["45","</w>"],["cri","ed</w>"],["t","ly</w>"],["65","</w>"],["ter","ed</w>"],["t","ab"],["hus","b"],["whe","ther</w>"],["hop","e</w>"],["hea","v"],["mar","k"],["k","ept</w>"],["pol","it"],["di","sa"],["vo","ic"],["ag","e,</w>"],["j","an"],["c","um"],["85","</w>"],["m","ad"],["in",".</w>"],["coun","try</w>"],["al","ready</w>"],["cer","tain"],["st","op"],["mean","s</w>"],["you",".</w>"],["po","sed</w>"],["f","all"],["be","for"],["v","ely</w>"],["ac","ross</w>"],["g","ol"],["ic","k</w>"],["i","ous</w>"],["at","ely</w>"],["as","soci"],["ch",".</w>"],["mo","ther"],["copy","right</w>"],["dea","th</w>"],["di","vi"],["an",".</w>"],["it","ted</w>"],["liter","ary</w>"],["ne","ither</w>"],["b","al"],["4","%</w>"],[")",".</w>"],["fa","i"],["cover","ed</w>"],["ar",",</w>"],[",","000</w>"],[".",",</w>"],["e",",\"</w>"],["beau","ti"],["fr","en"],["to","tal</w>"],["sh","oul"],["up",",</w>"],["ment",",</w>"],["poin","t</w>"],["\"","oh,</w>"],["se","cre"],["sp","e"],["i","ght"],["stat","es</w>"],["occ","up"],["c","ity</w>"],["parag","ra"],["pro","t"],["per","son</w>"],["con","sci"],["tr","ac"],["d","or"],["am",",</w>"],["ar","ound</w>"],["an","'</w>"],["again",",</w>"],["e","'s</w>"],["le","ast</w>"],["2","0</w>"],["fi","re"],["n","a</w>"],["ec","ted</w>"],["at","ic</w>"],["e","as"],["govern","ment</w>"],["shi","p</w>"],["se","m"],["ag","es</w>"],["ex","am"],["l","ow"],["ma","king</w>"],["hou","se"],["e","ither</w>"],["tw","ent"],["w","ood"],["l","and,</w>"],["la","w</w>"],["1,","000</w>"],["vi","ew"],["wat","er</w>"],["recei","ved</w>"],["pr","ac"],["de","d,</w>"],["o","g"],["f","ol"],["wa","y,</w>"],["et",".</w>"],["il",",</w>"],["se","ar"],["anc","e.</w>"],["ck",",</w>"],["spea","k</w>"],["19","6"],["be","y"],["be","come</w>"],["don","ations</w>"],["d","'s</w>"],["c","ast"],["re","al</w>"],["ear","th</w>"],["per","son"],["17","9"],["18","8"],["as","k"],["bu","l"],["................","................"],["in","ing</w>"],["sa","y,</w>"],["occ","asi"],["a","h</w>"],["s","li"],["19","4"],["re","st</w>"],["wor","k,</w>"],["n","on"],["bi","g</w>"],["ter",".</w>"],["al",".</w>"],["themsel","ves</w>"],["my","self</w>"],["mor","n"],["gr","ou"],["har","d</w>"],["et","y</w>"],["mo","v"],["at","es</w>"],["sp","r"],["de","m"],["r","en"],["mat","ter</w>"],[",","--"],["1",":"],["ce","ed"],["p","au"],["g","n"],["pres","ent</w>"],["pas","s</w>"],["an","ti"],["me","t</w>"],["`","`"],["w","w"],["lo","st</w>"],["\"","well,</w>"],["s","ati"],["m","a</w>"],["gent","le"],["v","es,</w>"],["an","ci"],[".",".</w>"],["e","--"],["exc","ept</w>"],["mor","ning</w>"],["s","es,</w>"],["at","s</w>"],["ation",":</w>"],["re","present"],["de","ar</w>"],["oo","d,</w>"],["there","fore</w>"],["ter","min"],["sc","ri"],["re","turn</w>"],["e","m</w>"],["clo","se</w>"],["tal","k</w>"],["comp","ani"],["ar","t</w>"],["thous","and</w>"],["ag","ed</w>"],["t","s,</w>"],["w","ear"],["..",".</w>"],["or","der"],["archi","ve</w>"],["s","ons</w>"],["popul","ation</w>"],["min","ist"],["or","ig"],["tre","m"],["i","ri"],["off","ic"],["pre","sid"],["c","ra"],["th","ing,</w>"],["lor","d,</w>"],["lad","y</w>"],["05","</w>"],["s","on,</w>"],["end","ing</w>"],["2",","],["ic","ul"],["b","ly</w>"],["sudden","ly</w>"],["ther","e,</w>"],["sur","pri"],["n","al</w>"],["all",".</w>"],["u","se"],["sor","t</w>"],["comm","and"],["j","e"],["inform","ation</w>"],["i","ed</w>"],["wom","en</w>"],["pi","ec"],["wr","itt"],["i","m</w>"],["ha","m"],["on",";</w>"],["h","and,</w>"],["wan","ted</w>"],["g","er</w>"],["possi","ble</w>"],["strang","e</w>"],["know","le"],["s","ac"],["poss","es"],["man",".</w>"],["hum","an</w>"],["de","ci"],["foll","owing</w>"],["vel","op"],["l","angu"],["la","im"],["c","e,</w>"],["\"","that</w>"],["str","ong</w>"],["stand","ing</w>"],["c","ase</w>"],["y",".\"</w>"],["fa","ir"],["s",",\"</w>"],["sou","th</w>"],["de","cl"],["j","un"],["hou","se,</w>"],["i","li"],["other","s</w>"],["shor","t</w>"],["fi","f"],["s","'</w>"],["own",",</w>"],["dr","in"],["im","medi"],["g","ro"],["ou","s,</w>"],["for","e"],["pro","per"],["mil","lion</w>"],["ut","e</w>"],["m","en,</w>"],["al","t</w>"],["he","'s</w>"],["was",",</w>"],["an","ts</w>"],["diff","icul"],["fa","v"],["s","ent"],["eng","th</w>"],["evi","d"],["j","er"],["car","e"],["l","ou"],["n","s</w>"],["ment",".</w>"],["an","im"],["answ","ered</w>"],["oun","ded</w>"],["fe","et</w>"],["n","e</w>"],["serv","ic"],["pa","id</w>"],["00","00"],["12","3"],["is","land"],["car","ri"],["sh","ing</w>"],["sati","s"],["d","ang"],["sen","se</w>"],["prin","ci"],["some","times</w>"],["re","turned</w>"],["acc","ess</w>"],["ro","y"],["b","an"],["again",".</w>"],["bo","y</w>"],["ex","t"],["chap","ter</w>"],["rep","lied</w>"],["le","y</w>"],["er","y</w>"],["00","0"],["em","ent,</w>"],["cur","r"],["2","4</w>"],["b","on"],["oun","d,</w>"],["t",";</w>"],["st","o"],["'","'</w>"],["ne","ed</w>"],["ure",".</w>"],["ne","arly</w>"],["ab","il"],["me","an</w>"],["n","ess,</w>"],["10","3"],["in","t</w>"],["th","i"],["differ","ent</w>"],["or","der</w>"],["ne","ed"],["6","."],["des","cri"],["fri","end</w>"],["boo","k"],["mi","d"],["do","ct"],["18","4"],["ju","dg"],["19","0"],["0.","0"],["y","si"],["10","5"],["est",".</w>"],["u","c"],["fin","e</w>"],["ea",",</w>"],["ma","j"],["ep","ing</w>"],["con","f"],["m","ac"],["th","en"],["bran","ch"],["fl","ow"],["coun","tr"],["r","an</w>"],["1",")</w>"],["z","z"],["um",",</w>"],["tra","de"],["st","em"],["c","are</w>"],["mo","ved</w>"],["emplo","y"],["you'","re</w>"],["a","fra"],["des","ir"],["18","6"],["rea","ched</w>"],["supp","or"],["ro","ll"],["there","'s</w>"],["resp","on"],["y",",\"</w>"],["bu","t,</w>"],["an","t,</w>"],["s","our"],["v","in"],["t","on</w>"],["di","rec"],["ch","am"],["re","gi"],["accor","ding</w>"],["in","cre"],["c","ab"],["cr","ow"],["\"","if</w>"],["foll","owed</w>"],["pre","par"],["hal","f"],["itt","ing</w>"],["sa","f"],["c","ent</w>"],["22","5"],["ag","ri"],["es","cap"],["y","--"],["?","'</w>"],["s","/"],["c","as"],["sa","ys</w>"],["char","ge</w>"],["se","c"],["ta","king</w>"],["th","is,</w>"],["beli","ev"],[":","03"],["er","s.</w>"],["lic","ense</w>"],["every","thing</w>"],["tran","s"],["qu","e"],["oo","l</w>"],["c","ou"],["ear","ly</w>"],["sh","ow</w>"],["st","s</w>"],["wal","ked</w>"],["ar","ea"],["re","co"],["qu","ick"],["il","ing</w>"],["ig","n</w>"],["thing",".</w>"],["go","d,</w>"],["fear","</w>"],["et","s</w>"],["grow","th</w>"],["comm","on</w>"],["car","ried</w>"],["p","t</w>"],["t","ell"],["reas","on</w>"],["si","on,</w>"],["paragra","ph</w>"],["li","shed</w>"],["ti","l"],["v","il"],["re","tur"],["ro","se</w>"],["d","oll"],["tow","ards</w>"],["s","ir</w>"],["2","05"],["dea","d</w>"],["14","9"],["anc","es</w>"],["beg","in"],["to","tal"],["se","tt"],["gre","en</w>"],["w","o"],["ing",";</w>"],["da","vi"],["h","our</w>"],["a","h,</w>"],["sl","ow"],["ex","peri"],["2","6</w>"],["hi","ll"],["17","5"],["won","'t</w>"],["dar","k</w>"],["dre","w</w>"],["bu","t"],["man","'s</w>"],[":","02"],["writt","en</w>"],["fac","t</w>"],["ti","v"],["u","</w>"],["12","5"],["l","an"],["99","</w>"],["bey","ond</w>"],["or","din"],["me","et</w>"],["si","ons</w>"],["da","y.</w>"],["se","qu"],["bl","ed</w>"],["fron","t</w>"],["cu","t</w>"],["ev","en"],["phi","li"],["de","velop"],["on","al</w>"],["on","s,</w>"],["agri","cul"],["si","on.</w>"],["im","p"],["45","5"],["b","att"],["b","it</w>"],["ex","ist"],["m","el"],["so","f"],["tri","ed</w>"],["happ","y</w>"],["al","ity</w>"],["ef","for"],["eng","lish</w>"],["j","our"],["k","ing,</w>"],["al","one</w>"],["ab","ly</w>"],["t","emp"],["ser","ved</w>"],["10","9"],["53","</w>"],["wif","e</w>"],["c","ast</w>"],["sy","stem"],["r","ow"],["ag","ree</w>"],["**","**"],["ing","ly</w>"],["reli","gi"],["su","gg"],["run","</w>"],["e","w</w>"],["be","ar"],["busin","ess</w>"],["indi","vi"],["z","</w>"],["16","9"],["est","ab"],["er","'s</w>"],["law","s</w>"],["43","5"],["ber","s</w>"],["li","k"],["ne","t</w>"],["67","3"],["indu","stri"],["l","ess"],["sh","u"],["indivi","du"],["area",":</w>"],["u","s.</w>"],["moun","tain"],["all","y,</w>"],["i","a</w>"],["est",",</w>"],["en","ce"],["let","ter</w>"],["ju","st"],["stru","c"],["p","ing</w>"],["2","49"],["--","i</w>"],["tru","e</w>"],["h","e,</w>"],["16","5"],["se","a</w>"],["be","hol"],["des","er"],["15","3"],["ro","ad</w>"],["\"","he</w>"],["nor","th</w>"],["14","5"],["v","ent"],["s","end</w>"],["it","ary</w>"],["ch","a"],["w","el"],["room",",</w>"],["bo","d"],["2","85"],["op","ened</w>"],["ar","ri"],["m","as"],["65","3"],["la","id</w>"],["her","e,</w>"],["au","thor"],["12","9"],["i","sh</w>"],["2","%</w>"],["r","ow</w>"],["g","lor"],["ou","t.</w>"],["com","es</w>"],["pro","bab"],["li","ber"],["10","7"],["o","ce"],["c","ess</w>"],["seem","s</w>"],["f","ut"],["f","al"],["cl","as"],["t","wi"],["ni","ght,</w>"],["sum","m"],["63","3"],["p","ac"],["joh","n</w>"],["13","5"],["wor","k.</w>"],["exp","la"],["cu","ri"],["16","3"],["z","e"],["w","er"],["si","ght</w>"],["17","3"],["si","x</w>"],["dire","ct"],["2","07"],["sch","o"],["13","3"],["15","9"],["77","</w>"],["89","5"],["en","em"],["1",".</w>"],["to",",</w>"],["see","m</w>"],["em","ber</w>"],["i","re"],["beauti","ful</w>"],["l","ow</w>"],["cop","y</w>"],["--------","--------"],["fren","ch</w>"],["2","8</w>"],["sup","pose</w>"],["y","ell"],["sa","ve</w>"],["o","d"],["v","es"],["con","ven"],["as","ed</w>"],["b","y"],["at","e"],["0","%</w>"],["agre","ement</w>"],["u","al</w>"],["in","'</w>"],["14","3"],["e","ag"],["li","g"],["t","able</w>"],["mi","ght"],["fir","e</w>"],["i","ally</w>"],["ro","ad"],["ne","igh"],["s","co"],["65","5"],["pos","ition</w>"],["63","5"],["ter","ri"],["a","h"],["17","7"],["acc","ep"],["p","s,</w>"],["x","ed</w>"],["cre","at"],["g",",</w>"],["lif","e,</w>"],["the","y"],["other",",</w>"],["73","</w>"],["2","47"],["shoul","der"],["t","ear"],["p","it"],["ag","e.</w>"],["2","09"],["se","ction</w>"],["f","ing"],["wh","y,</w>"],["lo","s"],["o","'"],["0","87"],["pa","y</w>"],["0","25"],["appro","a"],["er","al</w>"],["wi","se</w>"],["de","ep</w>"],["fam","ily</w>"],["al","e</w>"],["arm","s</w>"],["i","str"],["m","es"],["f","as"],["d","ul"],["cu","st"],["2","83"],["tain","ed</w>"],["get","ting</w>"],["pre","ci"],["re","fun"],["it",".\"</w>"],["b","our"],["s","mo"],["6","27"],["af","ri"],["tim","e.</w>"],["de","termin"],["di","ed</w>"],["69","3"],["ci","vi"],["wa","y.</w>"],["cir","cum"],["16","7"],["trade","mar"],["it",";</w>"],["y","or"],["remem","ber</w>"],["ser","ve</w>"],["sh","alt</w>"],["0","23"],["appear","ed</w>"],["re","fu"],["de","mo"],["p","ast</w>"],["de","c"],["dea","th"],["ed",":</w>"],["ra","di"],["it","y:</w>"],["ti","ce</w>"],["s","y</w>"],["anc","ed</w>"],["ide","a</w>"],["f","all</w>"],["ne","t"],["43","3"],["enc","es</w>"],["un","less</w>"],["15","5"],["mi","dd"],["12","7"],["eu","ro"],["r","</w>"],["op","er"],["d","s.</w>"],["gr","ound</w>"],["br","u"],["e","qui"],["a","z"],["67","5"],["pos","iti"],["2","87"],["bes","ide</w>"],["ing","s,</w>"],["for","ce</w>"],["ha","st"],["ci","d"],["45","3"],["i","v"],["es","pec"],["qui","re"],["inde","pend"],["vi","ol"],["43","7"],["i'","d</w>"],["nat","ure</w>"],["sha","d"],["ex","ec"],["2","03"],["un","</w>"],["was","h"],["de","d.</w>"],["s","oul"],["li","v"],["m","ul"],["vol","un"],["econom","ic</w>"],["de","stro"],["st","air"],["--","a</w>"],["pret","ty</w>"],["t","om"],["feel","ing</w>"],["bl","ue</w>"],["gla","d</w>"],["13","7"],["g","am"],["65","9"],["s","ound</w>"],["89","3"],["too",",</w>"],["t","ex"],["a","k"],["ba","d</w>"],["orig","in"],["w","all"],["se","d.</w>"],["d","on</w>"],["sh",",</w>"],["p","in"],["sy","m"],["const","itu"],["!","'</w>"],["le","d,</w>"],["13","9"],["mar","ri"],["en","s</w>"],["ph","ysi"],["s/","1,000</w>"],["fr","u"],["americ","an</w>"],["b",",</w>"],["com","par"],["polit","ical</w>"],["ar","ed</w>"],["no","t,</w>"],["the","e,</w>"],["it","self</w>"],["65","7"],["adm","ir"],["0","27"],["ent","ered</w>"],["b","le,</w>"],["6","22"],["lif","e.</w>"],["c","es"],["69","7"],["gr","ac"],["e","book</w>"],["b","ack"],["g","d"],["remem","ber"],["att","emp"],["commun","ic"],["29","5"],["tel","ep"],["ver",",</w>"],["str","ong"],["in","f"],["lat","er</w>"],["m","ed</w>"],["poin","ted</w>"],["49","5"],["49","9"],["14","7"],["8","83"],["t","own</w>"],["il","s</w>"],["6","23"],["[obs3]",",</w>"],["p","an"],["comp","le"],["er","i"],["si","ble</w>"],["an","ce"],["lab","or</w>"],["spo","ke</w>"],["li","ving</w>"],["anc","y</w>"],["47","5"],["15","7"],["cro","s"],["wr","it"],["answ","er"],["67","9"],["49","3"],["fur","ther</w>"],["85","3"],["\"y","es,</w>"],["63","9"],["85","7"],["continu","ed</w>"],["69","9"],["be",",</w>"],["ch","air"],["45","7"],["dre","am"],["cle","ar</w>"],["s",")</w>"],["re","vol"],["8","07"],["43","9"],["f","em"],["bor","n</w>"],["8","87"],["de","ep"],["chri","sti"],["peop","le,</w>"],["off","ici"],["\"","we</w>"],["mu","si"],["at",".</w>"],["you'","ll</w>"],["behol","d,</w>"],["0.","9"],["ri","s"],["d","om</w>"],["sub","ject</w>"],["45","9"],["fa","ir</w>"],["vi","ew</w>"],["69","5"],["man","ner</w>"],["self","-"],["6","%</w>"],["33","</w>"],["85","5"],["cla","im"],["under","stand</w>"],["sim","p"],["bo","tt"],["no","te</w>"],["63","7"],["pri","v"],["w","it"],["89","9"],["out","side</w>"],["t","in"],["29","3"],["con","ne"],["47","3"],["e","asi"],["whi","ch,</w>"],["me",".\"</w>"],["r","ac"],["dre","ss</w>"],["j","am"],["hea","d,</w>"],["ol","og"],["ea","d</w>"],["ha","st</w>"],["c","t</w>"],["f","illed</w>"],["sai","d:</w>"],["li","ved</w>"],["p","ut"],["el","se</w>"],["re","pe"],["0","83"],["89","7"],["pro","du"],["prac","tic"],["t","ea"],["ste","m</w>"],["att","en"],["8","00"],["09","5"],["2",")</w>"],["6","05"],["d","at"],["0","1</w>"],["re","spec"],["coun","tri"],["us","ing</w>"],["a","-"],["6","83"],["10","4"],["ma","kes</w>"],["1.","f."],["o","t"],["85","9"],["do","ing</w>"],["certain","ly</w>"],["th","ro"],["o",".</w>"],["wil","d</w>"],["c","li"],["sou","l</w>"],["per","man"],["w","est</w>"],["ant","ly</w>"],["25","3"],["ent","er"],["mil","li"],["boo","ks</w>"],["friend","s</w>"],["c","le</w>"],["ar","s</w>"],["h","an"],["es","--"],["8","27"],["say","ing,</w>"],["ha","ir"],["15","4"],["ev","ening</w>"],["6","00"],["d",".\"</w>"],["chil","d</w>"],["n","arr"],["c","y"],["espec","ially</w>"],["47","9"],["long","er</w>"],["47","7"],["un","g</w>"],["v","ill"],["questi","on</w>"],["8","23"],["07","3"],["29","7"],["8","05"],["fl","ag"],["import","ant</w>"],["=","="],["g","or"],["0.","3"],["k","is"],["sun","</w>"],["8","."],["er","r"],["en","ough"],["6","87"],["fam","ili"],["75","</w>"],["22","3"],["w","ar</w>"],["v","el</w>"],["cour","se,</w>"],["29","9"],["67","7"],["03","3"],["org","ani"],["'","i</w>"],["2","17"],["b","in"],["ap","par"],["afra","id</w>"],["him","self,</w>"],["be","ar</w>"],["22","9"],["c","ted</w>"],["half","-"],["one","'s</w>"],["r","am"],["gra","ph"],["u","g"],["go",",</w>"],["ey","es,</w>"],["st","ill"],["ma","in"],["w","ouldn't</w>"],["ut","ter"],["ab","le,</w>"],["++","++"],["ma","ster</w>"],["uni","vers"],["cour","t</w>"],["t","ure"],["12","4"],["it","ation</w>"],["scho","ol"],["25","5"],["thin","king</w>"],["8","09"],["si","de,</w>"],["ac","qu"],["2","16"],["dom","ain</w>"],["peri","o"],["3",","],["s","ar"],["be","aut"],["ther",".</w>"],["inter","est</w>"],["s","at"],["after","no"],["su","sp"],["quir","ed</w>"],["sp","iri"],["cap","tain</w>"],["ck","s</w>"],["s","it</w>"],["2","02"],["tain","ing</w>"],["c","ked</w>"],["spiri","t</w>"],["al","though</w>"],["on","ed</w>"],["cl","ou"],["f","our"],["fac","e,</w>"],["cau","ght</w>"],["un","t</w>"],["op","ini"],["di","e</w>"],["ne","y</w>"],["ther","n</w>"],["in","flu"],["wr","ite</w>"],["port","s:</w>"],["ne","ar"],["de","al</w>"],["sy","stem</w>"],["gre","w</w>"],["thr","ough"],["har","dly</w>"],["w","ood</w>"],["ha","ir</w>"],["b","ol"],["me","as"],["s","an"],["03","5"],["mar","ked</w>"],["me","tho"],["min","e</w>"],["49","7"],["b","ill"],["man","u"],["f","ood</w>"],["im","pres"],["ur","</w>"],["ck",".</w>"],["li","fe"],["en","jo"],["it","or"],["do",",</w>"],["95","</w>"],["sh","el"],["03","7"],["stre","et</w>"],["er","n</w>"],["port","un"],["exp","end"],["op","portun"],["serv","ice</w>"],["i","shed</w>"],["is","n't</w>"],["bloo","d</w>"],["st","ing</w>"],["(199","0"],["hor","se</w>"],["g",".</w>"],["inde","ed,</w>"],["g","e,</w>"],["whi","sp"],["on","es</w>"],["2","14"],["partic","ular</w>"],["expend","it"],["y","es,</w>"],["plac","ed</w>"],["fe","e</w>"],["%",";</w>"],["con","fi"],["sa","v"],["25","9"],["sa","ge</w>"],["spe","e"],["plac","e,</w>"],["probab","ly</w>"],["o","s"],["sc","en"],["a","ch"],["c",",</w>"],["you",".\"</w>"],["6","09"],["ple","ase</w>"],["2","65"],["e","?\"</w>"],["en","d,</w>"],["itu","de</w>"],["associ","ated</w>"],["n","ess.</w>"],["oun","ds</w>"],["stru","ck</w>"],["st","e</w>"],["see","ing</w>"],["awa","y,</w>"],["gr","as"],["l","en"],["03","9"],["ma","y"],["a","va"],["twent","y</w>"],["demo","cr"],["mil","itary</w>"],["6","07"],["t","-"],["ben","ea"],["se","ven</w>"],["w",",</w>"],["wal","k</w>"],["re","fer"],["g","lo"],["2","63"],["ann","e</w>"],["2","67"],["le",";</w>"],["es",",\"</w>"],["b",".</w>"],["com","e,</w>"],["/","/"],["0","14"],["vari","ous</w>"],["er","ous</w>"],["wor","th</w>"],["cust","om"],["m","un"],["li","es</w>"],["as","sem"],["ci","al</w>"],["answ","er</w>"],["branch",":</w>"],["mo","der"],["es","sed</w>"],["g","ni"],["disp","la"],["2","89"],["at","e.</w>"],["pla","in</w>"],["23","5"],["'","re</w>"],["comp","ut"],["an","xi"],["\"","how</w>"],["cop","ies</w>"],["de","b"],["c","ouldn't</w>"],["distribu","ting</w>"],["2","13"],["83","5"],["c","es</w>"],["6","1</w>"],["down",",</w>"],["0000","%</w>"],["87","5"],["l","ate</w>"],["e","?</w>"],["83","3"],["recei","ve</w>"],["provi","de</w>"],["2","43"],["s","?</w>"],["exc","laim"],["oun","d.</w>"],["55","</w>"],["ar","ti"],["ch","ance</w>"],["doub","t</w>"],["wh","o,</w>"],["j","es"],["inst","ead</w>"],["ho","ly</w>"],["bl","u"],["17","4"],["k","m"],["distribu","tion</w>"],["87","3"],["heav","y</w>"],["suff","ici"],["oc","cur"],["t","y,</w>"],["2","45"],["05","3"],["t","ed,</w>"],["wi","d"],["v","an"],["s","an</w>"],["me",";</w>"],["re","fle"],["ga","ther"],["th","is"],["necess","ary</w>"],["p",":"],["t","e,</w>"],["sh","owed</w>"],["27","3"],["circum","st"],["p:","//"],["\"","my</w>"],["8","1</w>"],["s","light"],["83","9"],["2","12"],["e","k</w>"],["h","tt"],["car","ry</w>"],["re","sol"],["est","ed</w>"],["thir","d</w>"],["di","es</w>"],["off","ice</w>"],["li","e</w>"],["soci","al</w>"],["htt","p://"],["dr",".</w>"],["f","arm"],["sco","t"],["accoun","t</w>"],["co","ast"],["ful",",</w>"],["sp","or"],["s","qu"],["s","itting</w>"],["0","16"],["ar","y,</w>"],["own",".</w>"],["knowle","dge</w>"],["bro","ther</w>"],["volun","te"],["b","ell"],["22","7"],["(","c"],["de","ta"],["25","7"],["awa","y.</w>"],["inter","national</w>"],["tar","z"],["6","0</w>"],["se","i"],["wat","er"],["s","itu"],["begin","ning</w>"],["rema","ined</w>"],["for","ward</w>"],["ra","il"],["room",".</w>"],["ation","s.</w>"],["ed","uc"],["com","mo"],["other",".</w>"],["ad","dres"],["k","ne"],["0","12"],["exp","ect"],["re","ly</w>"],["ad","ed</w>"],["ac","tu"],["k","en"],["ne","phi"],["bl","in"],["ag","u"],["2","69"],["st","one</w>"],["form","ed</w>"],["im","pro"],["00","3"],["0","13"],["ge","or"],["23","3"],["x","x"],["partic","ul"],["def","ense</w>"],["and","s</w>"],["ju","di"],["arr","ang"],["27","9"],["8","65"],["23","9"],["h","es"],["ex","ac"],["lo","t</w>"],["head",".</w>"],["lim","ited</w>"],["c","old</w>"],["e","!</w>"],["s","n"],["29","4"],["ar","ab"],["el","s</w>"],["00","5"],["sol","di"],["g","oo"],["sear","ch</w>"],["re","gar"],["po","int"],["2","15"],["con","tr"],["j","ur"],["0","69"],["do","or"],["imag","in"],["0","67"],["0","65"],["bro","ken</w>"],["gr","and"],["pur","su"],["7","."],["ar","d"],["se","par"],["con","sum"],["27","5"],["8","15"],["foll","ow</w>"],["sing","le</w>"],["'","t"],["}","</w>"],["\"","it's</w>"],["lo","ved</w>"],["wh","o"],["ma","chin"],["su","per"],["go","tt"],["00","000</w>"],["m","ed"],["leg","is"],["ra","pi"],["re","por"],["de","ad"],["mi","les</w>"],["8","12"],["ing","ing</w>"],["x",",</w>"],["po","ck"],["bil","ity</w>"],["con","sequ"],["might","y</w>"],["rea","m</w>"],["8","49"],["in","ess</w>"],["0.","5"],["p","gla"],["hand",".</w>"],["g","le"],["al","s,</w>"],["pla","y</w>"],["up",".</w>"],["con","ver"],["him",";</w>"],["05","5"],["good","-"],["es",".\"</w>"],["ra","in"],["what","ever</w>"],["ey","e</w>"],["23","7"],["min","istr"],["a","'s</w>"],["w","ro"],["leg","al</w>"],["sle","ep"],["05","9"],["me","et"],["hea","ven"],["you'","ve</w>"],["prin","ce</w>"],["hour","s</w>"],["he","al"],["07","5"],["oce","an</w>"],["eas","y</w>"],["end","er</w>"],["ad","diti"],["our","ed</w>"],["sta","y</w>"],["0","49"],["cent","r"],["v","al</w>"],["distribu","te</w>"],["kn","ess</w>"],["benea","th</w>"],["09","3"],["b","le.</w>"],["no","v"],["ey","es.</w>"],["6","14"],["inde","ed</w>"],["0","47"],["ir","on</w>"],["econom","y</w>"],["6","45"],["k","e.</w>"],["fas","hi"],["sc","re"],["daugh","ter</w>"],["z","ing</w>"],["fac","e.</w>"],["ph","o"],["se","as"],["wi","de</w>"],["0","89"],["00","9"],["27","7"],["now",".</w>"],["con","v"],["chri","st"],["j","ac"],["87","9"],["g","old</w>"],["0","63"],["ri","ver</w>"],["stop","ped</w>"],["0","45"],["fiel","d</w>"],["west","ern</w>"],["8","16"],["no",",</w>"],["run","ways</w>"],["provi","ded</w>"],["wa","it</w>"],["6","25"],["t","op</w>"],["kin","d"],["\"","i'm</w>"],["go","d"],["man","n"],["comp","li"],["mou","th</w>"],["0","22"],["13","4"],["p","on"],["int","en"],["ne","d,</w>"],["m","ir"],["chur","ch</w>"],["eff","ec"],["6","49"],["6","47"],["u","tion</w>"],["ph","r"],["6","16"],["prof","ess"],["f","ast</w>"],["b","ound</w>"],["wr","iting</w>"],["ch","ec"],["star","ted</w>"],["e","at</w>"],["el","y,</w>"],["09","9"],["8","22"],["0","43"],["concer","ning</w>"],["e","e</w>"],["8","%</w>"],["0","29"],["t","on,</w>"],["de","p"],["kn","ow,</w>"],["ordin","ary</w>"],["ent","s,</w>"],["8","67"],["enc","y</w>"],["she","'s</w>"],["8","85"],["c","ed"],["sa","ying</w>"],["fut","ure</w>"],["hou","se.</w>"],["d","ut"],["com","pu"],["8","69"],["ent","al</w>"],["fa","ther,</w>"],["8","47"],["pr","ou"],["comput","er</w>"],["em","ent.</w>"],["87","7"],["stre","t"],["tur","ning</w>"],["f","ed"],["d","'"],["ar","d,</w>"],["n","ess"],["wom","an"],["pri","son"],["05","7"],["ra","ised</w>"],["fre","qu"],["bir","th"],["06","4"],["tion","al</w>"],["stra","ight</w>"],["great","er</w>"],["s","wor"],["po","t"],["b","un"],["as","h</w>"],["6","69"],["bil","lion</w>"],["0","15"],["elec","tri"],["bro","ther"],["re","quire"],["mar","i"],["6","65"],["ed","iti"],["09","7"],["6","63"],["e","ast</w>"],["8","63"],["laugh","ed</w>"],["individu","al</w>"],["le","d.</w>"],["presid","ent</w>"],[":","3"],["y","p"],["b","lo"],["comp","any</w>"],["83","7"],["k","s,</w>"],["8","45"],["l","es,</w>"],["foo","t</w>"],["6","03"],["07","9"],["2","18"],["8","89"],["gi","ving</w>"],["8","43"],["ta","x</w>"],["pe","ac"],["for","e,</w>"],["00","7"],["i","sh"],["0","85"],["ation",";</w>"],["confi","d"],["der",",</w>"],["ber",",</w>"],["reas","on"],["6","67"],["t","op"],["6","89"],["fri","ght"],["wil","li"],["el",".</w>"],["ell","ed</w>"],["ju","ly</w>"],["bas","ed</w>"],["con","diti"],["ar","m</w>"],["refun","d</w>"],["07","7"],["35","</w>"],["de","ar"],["**","*</w>"],["sa","d"],["\"","a</w>"],["ther","e.</w>"],["no","tice</w>"],["tr","ying</w>"],["r","ing</w>"],["8","25"],["per","mission</w>"],["f","y</w>"],["th",";</w>"],["pow","er"],["de","part"],["6","85"],["tre","es</w>"],["no","tic"],["26","4"],["pap","er</w>"],["bl","ing</w>"],["8","14"],["\"no",",</w>"],["w","and"],["f","it</w>"],["slow","ly</w>"],["my","ster"],["t","it"],["worl","d,</w>"],["mi","sta"],["l",",</w>"],["any","one</w>"],["u","ally</w>"],["acqu","ain"],["tri","bu"],["6","12"],["il","y,</w>"],["stu","d"],["con","vers"],["ation","s,</w>"],["86","4"],["em","ents</w>"],["gre","s"],["sudd","en</w>"],["mar","ch</w>"],["won","der</w>"],["re","ali"],["v",".</w>"],["6","43"],["li","ght,</w>"],["si","gh"],["evi","l</w>"],["s","!</w>"],["sh","op"],["8","03"],["6","29"],["well","-"],["6","13"],["v","</w>"],["6","15"],["est","s</w>"],["u","ri"],["lear","ned</w>"],["mo","ve</w>"],["2","10"],["w","."],["i","an</w>"],["win","d</w>"],["tre","e</w>"],["--","\"</w>"],["me","ant</w>"],["chi","ef"],["8","0</w>"],["oun","c"],["44","4"],["d","ition</w>"],["ex","change</w>"],["se",";</w>"],["in","e"],["b","ound"],["fr","ag"],["all","ow</w>"],["easi","ly</w>"],["yell","ow</w>"],["ob","serv"],["swe","et</w>"],["com","fort"],["rea","ch</w>"],["th","el"],["reco","gni"],["(","since</w>"],["le","-"],["per","m"],["z","en</w>"],["tion",":</w>"],["88","4"],["n","ic"],["ap","</w>"],["work","s,</w>"],["................","........"],["8","29"],["y","n"],["mer","ely</w>"],["b","b"],["b","right</w>"],["u","d"],["si","x"],["st","ly</w>"],["hi","stor"],["re",",</w>"],["fr","anc"],["happ","ened</w>"],["ear","</w>"],["sh","ook</w>"],["war","d,</w>"],["it","y;</w>"],["peop","le"],["_",",</w>"],["perf","ect"],["ob","jec"],["..","..</w>"],["ab","sol"],["immedi","ately</w>"],["con","clu"],["f","ro"],["8","17"],["form","er</w>"],["8","13"],["of",",</w>"],["ment","s,</w>"],["1",",</w>"],["thin","e</w>"],["lic","en"],["occup","ied</w>"],["consider","able</w>"],["le","an"],["bac","k,</w>"],["in","e,</w>"],["k","m,</w>"],["0","10"],["ab","le.</w>"],["pro","ph"],["ava","il"],["16","4"],["ri","ch</w>"],["des","c"],["ig","nor"],["that",".</w>"],["int","ro"],["ha","m</w>"],["n","y</w>"],["2",".</w>"],["manu","fac"],["c","ely</w>"],["you","?\"</w>"],["str","ength</w>"],["9","."],["\"","do</w>"],["der","ed</w>"],["secre","t</w>"],["re","sour"],["ww","w."],["sc","or"],["bro","ke</w>"],["b","ow"],["charac","ter</w>"],["pro","ble"],["grou","p</w>"],["exp","ected</w>"],["tru","th</w>"],["b","ad"],["z","i"],["j",".</w>"],["fe","at"],["ar","tic"],["for","est</w>"],["d","--"],["re","mark"],["desir","e</w>"],["some","what</w>"],["mi","gr"],["tal","king</w>"],["husb","and</w>"],["0","17"],["th","ank</w>"],["davi","d</w>"],["night",".</w>"],["22","4"],["al","ter"],["rep","li"],["l","ying</w>"],["t",":</w>"],["s","wi"],["6","17"],["u",",</w>"],["br","iti"],["or","i"],["se","e,</w>"],["de","gre"],["wom","an,</w>"],["k","i"],["m","ere</w>"],["65","4"],["it","able</w>"],["pgla","f."],["lear","n</w>"],["oc","k</w>"],["over",",</w>"],["gutenberg","."],["ad","ministr"],["spec","i"],["d",",\"</w>"],["him","self.</w>"],["know","s</w>"],["ex","er"],["0","8</w>"],["foo","t"],["doct","or</w>"],["14","4"],["y","?\"</w>"],["ad","ded</w>"],["g","ain"],["w","ol"],["ig","n"],["p","ati"],["isra","el</w>"],["cr","it"],["end","s</w>"],["piec","e</w>"],["8","18"],["er","g"],["2","19"],["thing","s,</w>"],["mar","y</w>"],["ke","eping</w>"],["spec","ial</w>"],["l","ac"],["brea","k</w>"],["mar","ried</w>"],["lea","ving</w>"],["0","4</w>"],["doub","t"],["fi","ght"],["ne","ver"],["o","s</w>"],["vi","ous</w>"],["usu","al</w>"],["w","ra"],["pl","at"],["pe","ace</w>"],["exec","u"],["indi","c"],["re","st"],["de","pend"],["minut","es</w>"],["me","d,</w>"],["suppor","t</w>"],["6","18"],["val","u"],["se","a"],["p","tion</w>"],["war","ds</w>"],["b","la"],["ing","s.</w>"],["so",".</w>"],["pres","ently</w>"],["do","or,</w>"],["89","4"],["wor","king</w>"],["pp","ing</w>"],["low","er</w>"],["ber","t</w>"],["wind","ow</w>"],["vis","it</w>"],["(1990",")</w>"],["dor","o"],["0","18"],["princi","p"],["equi","p"],["dro","pped</w>"],["mer","ch"],["ar","e"],["v","es.</w>"],["gr","an"],["dis","covered</w>"],["k","no"],["gr","ad"],["bel","ong"],["clo","sed</w>"],["col","on"],["ch","em"],["sai","th</w>"],["b","ag"],["pleas","ure</w>"],["fig","ure</w>"],["w",".</w>"],["m","ing</w>"],["sp","read</w>"],["85","4"],["morn","ing,</w>"],["g","all"],["ou","s.</w>"],["1.","3"],["simp","ly</w>"],["tem","per"],["thre","w</w>"],["ci","l</w>"],["y","er</w>"],["67","4"],["enti","rely</w>"],["h","at"],["ar","t"],["[obs3]",";</w>"],["midd","le</w>"],["we","b</w>"],["ha","bit"],["r","us"],["trou","ble</w>"],["fl","am"],["adv","ant"],["63","4"],["or","ed</w>"],["c","oo"],["co","tt"],["a","y"],["pleas","ant</w>"],["ing","u"],["brea","k"],["jan","u"],["wa","iting</w>"],["0.","7"],["47","4"],["49","4"],["produc","ed</w>"],["o","h"],["co","ver</w>"],["f","il"],["it","ch"],["s","-"],["dr","ag"],["ni","fic"],["lar","g"],["fell","ow</w>"],["1","00</w>"],["wi","s"],["0","6</w>"],["ac","y</w>"],["b","s</w>"],["fl","es"],["sure","ly</w>"],["read","ing</w>"],["men",".</w>"],["all","owed</w>"],["ex","clu"],["comp","let"],["briti","sh</w>"],["o'","clo"],["ter","nal</w>"],["work","s.</w>"],["2","86"],["er",";</w>"],["8","8</w>"],["cor","n"],["si","mil"],["ever",".</w>"],["be","ast"],["sch","ool</w>"],["s","es.</w>"],["pur","po"],["r","y,</w>"],["as","sist"],["year","s,</w>"],["re","ven"],["ple","a"],["con","sist"],["do","es"],["lif","ted</w>"],["ol","d,</w>"],["c","el"],["li","br"],["capit","al</w>"],["................................","........"],["is","su"],["ceed","ed</w>"],["agre","ement,</w>"],["sur","face</w>"],["comp","ly</w>"],["cont","ro"],["volunte","ers</w>"],["wi","shed</w>"],["_","_"],["v","it"],["ma","in</w>"],["part","ner"],["gd","p</w>"],["phili","p</w>"],["l",".</w>"],["8","26"],["r","ul"],["25","4"],["a","d,</w>"],["99","9"],["qui","et"],["gl","as"],["43","4"],["li","ps</w>"],["r","ying</w>"],["eff","ect</w>"],["quick","ly</w>"],["45","4"],["fi","ght</w>"],["k","er</w>"],["der","s</w>"],["mo","ther,</w>"],["65","9</w>"],["h","oo"],["d","ance</w>"],["star","t</w>"],["pa","st"],["c","e.</w>"],["disc","us"],["\"","there</w>"],["sac","ri"],["dr","y</w>"],["6","4</w>"],["lat","ter</w>"],["\"","she</w>"],["23","4"],["o","a"],["c","ity,</w>"],["05","4"],["87","4"],["vir","tu"],["if","ic</w>"],["ask","ed.</w>"],["27","4"],["0","19"],["t","s.</w>"],["u","li"],["a","i"],["tal","ked</w>"],["09","4"],["03","4"],["ri","ght,</w>"],["ple","s</w>"],["perf","ect</w>"],["6","10"],["hom","e,</w>"],["ac","tion</w>"],["me","ad"],["atten","tion</w>"],["th","es"],["spo","ken</w>"],["si","de"],["s","?\"</w>"],["roy","al"],["sur","r"],["fre","sh</w>"],["fell","ow"],["reg","ul"],["br","own</w>"],["island","s</w>"],["(","18"],["rema","in</w>"],["aff","ec"],["c","lim"],["forc","es</w>"],["st","ic"],["mar","k</w>"],["8","10"],["(199","2)</w>"],["comm","er"],["at","ed,</w>"],["69","4"],["fi","sh"],["nephi","</w>"],["re","cor"],["civi","l</w>"],[".",";</w>"],["e","th"],["di","ly</w>"],["com","for"],["tr","ad"],["mor","e,</w>"],["j","ew"],["r","ang"],["divi","sion"],["19",":"],["exc","ell"],["i","i.</w>"],["f","er</w>"],["bo","ard</w>"],["dd","en</w>"],["app","lic"],["du","e</w>"],["8","19"],["shi","p"],["1.","5"],["si","de.</w>"],["i","a,</w>"],["befor","e,</w>"],["c","y</w>"],["sym","pa"],["appear","</w>"],["w","oo"],["te","en</w>"],["father","'s</w>"],["il",".</w>"],["pres","ence</w>"],["ar","g"],["indi","an</w>"],["re","qu"],["gh","ted</w>"],["chang","ed</w>"],["al","ex"],["an","t.</w>"],["re","d,</w>"],["(19","93</w>"],["i","i</w>"],["wat","ched</w>"],["run","ning</w>"],["usu","ally</w>"],["la","p"],["ent","er</w>"],["under","stand"],["2","44"],["tarz","an</w>"],["it",",\"</w>"],["l","un"],["cor","ner</w>"],["not","e:</w>"],["con","sul"],["sp","ent</w>"],["sub","st"],["anci","ent</w>"],["ma","st"],["a","v"],["3",".</w>"],["mem","bers</w>"],["land",".</w>"],["it","?\"</w>"],["at","tered</w>"],["r","on"],["bl","ack"],["par","ti"],["husb","and"],["re","ver"],["sm","all"],["83","4"],["tw","el"],["l","a</w>"],["hor","ri"],["scar","cely</w>"],["me",",\"</w>"],["satis","fac"],["cont","act</w>"],["pur","pose</w>"],["duc","ed</w>"],["00","4"],["ma","ster"],["though","ts</w>"],["do","or.</w>"],["o","'</w>"],["6","19"],["0","2</w>"],["gr","am"],["i","z"],["toge","ther,</w>"],["0","-"],["what","'s</w>"],["l","ength</w>"],["ho","t</w>"],["tra","v"],["0.","4"],["perfect","ly</w>"],["mor","e.</w>"],["t","an"],["v","ed,</w>"],["ent","ed</w>"],["de","st"],["aff","air"],["g","il"],["cr","y</w>"],["wro","te</w>"],["fi","xed</w>"],["le","f"],["proper","ty</w>"],["do",".</w>"],["equ","al</w>"],["\"","is</w>"],["you",",\"</w>"],["ster","n</w>"],["los","op"],["em","o"],["draw","n</w>"],["we","al"],["h","ang"],["ro","o"],["was","n't</w>"],["there","fore,</w>"],["i","st</w>"],["phi","losop"],[".","--"],["commo","diti"],["them",";</w>"],["industri","al</w>"],["wash","ing"],["99","7"],["(199","1)</w>"],["bo","y"],["abil","ity</w>"],["tou","ch</w>"],["suc","cess"],["worl","d.</w>"],["hi","story</w>"],["di","c"],["coun","cil</w>"],["shu","t</w>"],["sp","ar"],["adv","ent"],["lo","g"],["tion","s,</w>"],["an","s,</w>"],["www.","gutenberg."],["ves","sel"],["di","g"],["for",",</w>"],["gol","den</w>"],["uni","on</w>"],["ha","ven"],["se","cur"],["--","that</w>"],["2","88"],["d","est</w>"],["janu","ary</w>"],["0","84"],["mis","er"],["gr","y</w>"],["legis","l"],["bro","o"],["op","pos"],["8","4</w>"],["1",":0"],["re","plac"],["se","p"],["j","ap"],["inclu","des</w>"],["f","f</w>"],["53","5"],["hear","t,</w>"],["us","al"],["ti","red</w>"],["ed","ge</w>"],["wat","ch</w>"],["53","7"],["per","sons</w>"],["bil","ly</w>"],["k","er"],["07","4"],["f",",</w>"],["is","land</w>"],["sim","ple</w>"],["po","sted</w>"],["pa","y"],["fi","er"],["does","n't</w>"],["c","ep"],["lead","er"],["om",",</w>"],["exc","it"],["ton","gu"],["r","al"],["dec","ember</w>"],["ex","plan"],["w","all</w>"],["mom","ent,</w>"],["perman","ent</w>"],["y","m"],["gener","ally</w>"],["po","li"],["fir","st,</w>"],["priv","ate</w>"],["qui","et</w>"],["jer","usal"],["min","d,</w>"],["ri","ver"],["de","fin"],["c","iti"],["th","u"],["division","s:</w>"],["c","oul"],["do","g"],["fi","le</w>"],["sel","y</w>"],["charac","ter"],["st","op</w>"],["for","gott"],["offici","al</w>"],["ch","an"],["p","e,</w>"],["our",",</w>"],["ap","pe"],["fin","ally</w>"],["sp","a"],["christi","an</w>"],["on","line</w>"],["al","ed</w>"],["on","s.</w>"],["beg","in</w>"],["long",",</w>"],["m",";</w>"],["own","er</w>"],["g","ate</w>"],["pres","sed</w>"],["ju","dge</w>"],["gl","ass</w>"],["pas","sing</w>"],["hes","it"],["additi","onal</w>"],["6","8</w>"],["deci","ded</w>"],["8","24"],["8","6</w>"],["wat","er,</w>"],["ran","g</w>"],["t","or</w>"],["le","ct"],["death","s/1,000</w>"],["bel","ow</w>"],["6","26"],["6","2</w>"],["6","6</w>"],["wr","ong"],["or","s,</w>"],["way","s:</w>"],["au","gu"],["53","3"],["al","ma</w>"],["ment",":</w>"],["dist","ance</w>"],["wh","</w>"],["bil","li"],["minist","er</w>"],["quir","e</w>"],["hea","ven</w>"],["no","t.</w>"],["\"","then</w>"],["cle","ar"],["em","per"],["foll","ow"],["lo","cal</w>"],["off","ered</w>"],["sub","jec"],["op","en"],["spr","ing</w>"],["v","ent</w>"],["'",",</w>"],["democr","atic</w>"],["y","?</w>"],["th","om"],["is","m</w>"],["tru","st</w>"],["e","!\"</w>"],["mem","ber</w>"],["k","wh</w>"],["sle","ep</w>"],["st","ep</w>"],["for","ce"],["ti","s</w>"],["be",".</w>"],["wonder","ful</w>"],["popul","ation:</w>"],["n","on</w>"],["profess","or</w>"],["2","06"],["\"","this</w>"],["2","00</w>"],["girl","s</w>"],["89","),</w>"],["lab","or"],["particul","arly</w>"],["be","d,</w>"],["lik","ely</w>"],["93","5"],["che","er"],["y","ea,</w>"],["gather","ed</w>"],["\"","why</w>"],["terri","ble</w>"],["disa","pp"],["l","ing"],["su","pre"],["pro","pri"],["cent","ur"],["6","44"],["s","ite</w>"],["exac","tly</w>"],["r","ant</w>"],["it","al"],["person","al</w>"],["wor","ked</w>"],["mon","ths</w>"],["pa","ir</w>"],["2","84"],["ma","id"],["so","lic"],["dre","ad"],["ur","ed</w>"],["physi","cal</w>"],["w","re"],["tr","ade</w>"],["2","04"],["indu","str"],["a","vo"],["93","3"],["for","get</w>"],["a","unt</w>"],["up","per</w>"],["o","be"],["th","ed</w>"],["w","ag"],["r","ou"],["est","im"],["ta","u"],["fre","ely</w>"],["buil","t</w>"],["ing",":</w>"],["exp","en"],["mar","ry</w>"],["pe","ter</w>"],["li","ked</w>"],["pla","in"],["73","7"],["colle","ction</w>"],["com","mon"],["wa","it"],["po","st"],["s","on.</w>"],["eg","yp"],["sig","n</w>"],["pa","ir"],["ag","ue</w>"],["oc","to"],["93","9"],["countri","es</w>"],["j","ect"],["c","and"],["w","oul"],["slight","ly</w>"],["hol","ding</w>"],["prom","o"],["----","\"</w>"],["z","ation</w>"],["cap","ac"],["con","fu"],["l","y;</w>"],["re","public</w>"],["per","cent</w>"],["drin","k</w>"],["ag","o</w>"],["wor","ds,</w>"],["gre","ss</w>"],["\"","don't</w>"],["at","ta"],["con","duc"],["por","tion</w>"],["it","e,</w>"],["a","ver"],["ch","oo"],["fore","ign</w>"],["centr","al</w>"],["c","ut"],["ic","e,</w>"],["ast","oni"],["execu","tive</w>"],["lea","d</w>"],["n","u"],["om","atic</w>"],["e","ight</w>"],["ge","o"],["e","di"],["ob","li"],["through","out</w>"],["m","ut"],["per","form"],["gu","ar"],["ed",".\"</w>"],["fall","en</w>"],["geor","ge</w>"],["k","ing.</w>"],["ob","ject</w>"],["we","'ll</w>"],["1","-"],["on","y</w>"],["le","m"],["de","vo"],["o","h</w>"],["\"","that's</w>"],["sh","es</w>"],["gar","den"],["ed","--"],["8","2</w>"],["found","ation,</w>"],["gr","ace</w>"],["s","ong"],["ta","kes</w>"],["ri","se</w>"],["step","s</w>"],["g","ab"],["2",":"],["am","oun"],["co","st</w>"],["bo","x</w>"],["der","i"],["gu","il"],["ear","th"],["s","and"],["hun","g</w>"],["expres","sion</w>"],["66","4"],["enc","ed</w>"],["53","9"],["cri","min"],["bre","thr"],["batt","le</w>"],["inter","rup"],["a",";</w>"],["en","vir"],["g","ing</w>"],["en","d.</w>"],["stat","es.</w>"],["mom","ent"],["sil","ence</w>"],["73","3"],["di","d"],["deli","ver"],["replac","ement</w>"],["ha","u"],["c","a</w>"],["par","ties</w>"],["w","inter"],["loc","ated</w>"],["sa","int</w>"],["inst","ant</w>"],["w","ant"],["destro","y</w>"],["\"","they</w>"],["at","ter"],["for","d</w>"],["so","ft</w>"],["\"","project</w>"],["consci","ous</w>"],["twent","y-"],["summ","er</w>"],["gre","g"],["fir","m"],["consider","ed</w>"],["thir","ty</w>"],["di","spo"],["cau","sed</w>"],["vic","tor"],["10","."],["u","."],["fa","st"],["wee","k</w>"],["8","44"],["deli","ght"],["jo","y</w>"],["haven","'t</w>"],["prepar","ed</w>"],["exclaim","ed</w>"],["c","ow"],["ex","per"],["telep","hon"],["55","7"],["found","ation"],["ob","</w>"],["expendit","ures</w>"],["happ","en"],["stru","gg"],["origin","al</w>"],["93","7"],["resul","t</w>"],["ac","comp"],["ob","tain</w>"],["resul","ts</w>"],["p","uni"],["di","pl"],["influ","ence</w>"],["mor","e"],["ain","'t</w>"],["0","26"],["0","24"],["ar","my</w>"],["55","5"],["reg","ard</w>"],["har","d"],["you","th</w>"],["f","ea"],["soci","ety</w>"],["b","ent</w>"],["bu","s</w>"],["moder","n</w>"],["h","e.</w>"],["sh","are</w>"],["x",".</w>"],["hun","dre"],["war","m</w>"],["roy","al</w>"],["tain","s</w>"],["langu","ag"],["bo","ys</w>"],["peop","le.</w>"],["phr","ase</w>"],["befor","e.</w>"],["opportun","ity</w>"],["o","il</w>"],["pec","uli"],["fa","ul"],["che","e"],["ing",".\"</w>"],["ke","y</w>"],["smi","le</w>"],["bar","r"],["an","a</w>"],["0","86"],["in","cid"],["pi","er"],["fi","sh</w>"],["voic","e,</w>"],["a","ch</w>"],["tre","at"],["per","cei"],["j","um"],["plac","e.</w>"],["ap","ri"],["is","ing</w>"],["8","06"],["sa","g"],["0","44"],["know","ing</w>"],["s","."],["0","88"],["day","s,</w>"],["gr","own</w>"],["go","es</w>"],["ke","ep"],["nam","ed</w>"],["ed","ly</w>"],["\"","not</w>"],["tell","ing</w>"],["un","d</w>"],["sir",",</w>"],["beaut","y</w>"],["envir","on"],["re","jo"],["em","ent"],["73","5"],["shi","ps</w>"],["fac","t,</w>"],["tre","as"],["d","a</w>"],["disa","p"],["in","a</w>"],["cal","cul"],["neigh","bour"],["8","04"],["str","eng"],["produ","ct"],["con","ce"],["ear","th,</w>"],["as","ing</w>"],["sep","tem"],["75","9"],["bo","t</w>"],["pet","ro"],[",","000"],["\"","'"],["l","est</w>"],["wh","en"],["p","es</w>"],["plac","es</w>"],["1",":00"],["har","v"],["t","ol"],["f","y"],["star","t"],["'","ve</w>"],["e","z"],["direct","ly</w>"],["77","5"],["fed","eral</w>"],["suffici","ent</w>"],["determin","ed</w>"],["believ","ed</w>"],["ous","ness</w>"],["her","e.</w>"],["fif","ty</w>"],["77","3"],["rus","si"],["to-","mor"],["c","in"],["stru","ction</w>"],["gar","den</w>"],["h","ood</w>"],["dom","in"],["you'","d</w>"],["ic",",</w>"],["bro","ad"],["disapp","ear"],["al",";</w>"],["i","el"],["la","st,</w>"],["6","04"],["ter","s,</w>"],["hand","s,</w>"],["com","e.</w>"],["l","ess,</w>"],["6","24"],["no","body</w>"],["6","88"],["st","y"],["sil","ver</w>"],["sho","t</w>"],["accoun","ts</w>"],["il","y.</w>"],["spea","king</w>"],["off",",</w>"],["co","ff"],["g","un"],["ser","i"],["ari","ly</w>"],["b","ank</w>"],["er","-"],["gu","ess</w>"],["55","9"],["jes","us</w>"],["]",";</w>"],["char","d</w>"],["e","at"],["ar","e,</w>"],["th","-"],["off","er"],["6","06"],["77","9"],["dra","w</w>"],["nov","ember</w>"],["ste","ad"],["t","ac"],["forc","ed</w>"],["pri","me</w>"],["de","v"],["ash","ed</w>"],["lin","es</w>"],["dire","ction</w>"],["st","ea"],["i",
[...]
