{"vocabulary":["4","keep ","knowed ","straight ","i’ve ","till ",". so ","anything ","well","un ","over","fl","oul","ectly ","us","before","what it ","ebook",";","wa","can’t ","a good ","hain","fu",". he said ",", and the ","work","ir","may be ","ac","try","ree ","sta","trea","el","is","there was ","po","rec","the ","wel","ts of ","ons ","se","z","ustration","prin","though ","hum","sai","give ","oh","pu",": ","th ","stor","own","ross ","1","de ","ed ","he said ","sub","literary archive found","come ","eng","vol","time, ","of ","you’ll ","tell","tion","les ","the way ","es ","ang","as","est","d. ","dat’s ","goo","ph ","now ","sor","sec","om ","thou","fi","was","says, ","many ","gho","d, ","them","dd","three ","didn’t know ","whi","went ","make ",", and you ","ed by ","trademar",". jim ","done ","if ","<","tax ","par","want ","y ","man ","su",". it was ","section ","out","rai","q","out of ","sted ","have ","about","other","jim ","res","thought ","tom ","ing and ","nor","wor","to see ","on, and ","a long ","re ","uten","oin","sel","people ","just ","foo","s in ","must ","any other ","'s ","camel-","att","ce ",",","gh",". you ","first ","low","united stat","five ","supp","ght ","camel","able ","look","going to ","t","by the ","seen ","bro","h","with","” “","very ","to go ","kept ","we ","it?” “","rea","much ","tre","ong ","$","lec","congres","mean","there warn’t ","ind ","that was ","a re","and the ","down and ","ag","up","stri","dn’t ","wr","this agreem","per","back","i don’t ","eb","y’s ","big ","tom sa","offi","nobody ","cha","here ","he would ","pr","him ","minut","what","he ","was. ","ere ",") ","orn","still","away ",", too","together ","look at ","ear","back ","took ","e ","ve ","information ","illustration","long ",". and ","wh","ite ","lor","oo","<unk>","g ","her ","vice ","just as ","self ","und","on the ","brea","sl","ghty ","times ","t to ","thing ","project gutenberg","ing, and ","laid ","ke","electronic ","—","ini","know ","respec","eas","ma","add","head","dervi","pi","agree ","chapter ","erary archive found","el ","shall ","constitu","reason ","ref","a ","stat","ed him ","mis","es, ","ing the ","up and ","sun","would ","abilit","ju","of","r ","in’ ","we","and ","do ",", and he ","see ","every","spe","far ","of the united stat","he","turn","power","ber","as the ","litt","ati","i","sha","t and ","arm","re","lo","ary ar","ser","close ","ed, ","dut","c","lt ","ss ","of a ","da","st","ze ","people","couldn’t ","ye","ad ","m","s, and ","est ","!","tal","ment ","\" ","sw","const","see, ","ject ","against ","ally ","cu","mars tom","vo","bu","we was ","come to ","satis","within ","animal","es and ","[illustration","out the ","li","ing, ","it’s a ","ough ","don","wea","sli","looking ","it’s ","ll ","hi","ing","own ","la","hun","good ","fron","hold ","getting ","’t","’ll ","jud","to git ","form","age ","ch ","bli","’s ","reas","end ","talk ","most ","y, and ","it made ","ev","d, and ","es. ","ul","mone","ger","could ","deser","tri","as i ","shall not ","ough","no, ","among ","ation of ","*","#","another ","s of ","ck ","y and ","! ","jo","self","woul","can ","look ","the same ","says ","seem ","cla","men ","sca",", i ","electroni","so","es, and ","ord","those ","both ","is ","sle","came","tive ","tain","ir ","go","ar","ap","ted ","half ","ce, ","them, and ","ess","ying ","shi","con","act ","ameri","dn’t","shall be ","president ","uck ","fell","s and ","for","ses ","on a ",".” jim ","qui","sk","ver ","gutenberg","ble","pretty soon ","does ","na","vi","all the ",". well, ","we see ","'","ment","ro","turn ","e, and ","pt ",", or ","oni","each ","er to ","was ","gutenber","fe","wan","ess ","im","ong","ei","ent","er, and ","inter","dat ","ti","other ","ten ","disc","gres","y to ","\"","wasn’t ","tom sawyer ","al ","hel","mp","senat","it was ","qu","s for ","i’s ","dow","bir","prett","across ","try to ","h ","tru","”","ed up ","reck","partic","being ",".","ever ","perfectly ","befo","pa","ha","ked ","he was ","en ","your ","right","states ","ary ","huck","nex","y. ","sh","nat ","ge","ched ","maybe ","chive ","a big ","org","dur","in and ","er ","n",", but ","ant ","we couldn’t ","ain","they was ","k","1 ","ci","be ",", and we ","on his ","fort","while ","particul","project gutenberg ","there ain’t no ","ho","prof","sof","wher","last ","der ","dn","y of ","ge ","so ","inn","time ","hear ","coul","ain’t ","[","tter ","sion","he’s ","cra","or","i ","not ","ex","near","publi","cle","hour ","lif","d ","we’ve ","clu","at’s ","char","t. ","’t ","for ","wanted ","ations ","believe ","ra","project gutenberg-tm ","begun to ","gen","a body ","around and ","ch","ed it ","a c","ding ","hand","ces","next ","more ","bi",", and so ","land","unless ","g","s ","fee","cont","to do ","cop","bla","took a ","something ","ck","1.","car","down","things ","when they ","it ","gg","5","dis","bo","find ","miles ","on","project ","ov","carav","ful","ook","s—","ant","sin","ds ","tho","am","agre","</s>","knows ","sma",". now ",">","way","don’t ","law","s: “","his own ","co","tim","ount ","ut","to find ","cr","err","presid","more","ef ","oun","then he ","tain ","auth","coming ","when ","use ","sid","long","along",", the ","medi","to","don’t",": “","foll","—and ","ole ","erary ar","pow","him, and ","you can ","seem","they","gla","house ","dder ","president","tom sawyer","der","sir","ven","ll, ","project gutenber","let ","t of ","uni","tra","enough ","tell ","app","never see ","o","after ","donations ","reckon ","lieve ","call","provide ","las","le of ","world ","paid ","produ","fin","* ","ent ","@","then ","even ","sure","them ","/","v","pla","night ","is, ","elect","ar ","w","]","sa","tic","o’ ","years ","9","at","as ","’ ","me ",", because ","et","y, ","inclu","hundred ","1.e.","more than ","“",". [illustration: “","clock","less ","itiz","mat","read","up ","fif","ect ","air ","night","two ","mi","down ","lear","rest ","chi","but ","f ","ers ","never ","paragra","might ","will ","”] ","set ","want to ","ji","er","sever","tr","e","ound","ation ","ing to ","every ","a, ","r","on ",". it ","their ","den","through ","legislat","shall, ","tom sawy","ful ","0","coun","ran","how ","ad","’a’ ","sed ","only ","take ","il","profess","parag","say","a mi","i ever ","ga","num","in the ","been ","hal","jum","te ","may","one, ","my","lan","--","cat","wi","ow ","toge","ke ","l ","he couldn’t ","by and ","ed and ","e. ","lon","an hour","to ","soci","ed, and ","ed","no","8","? ","ball","bac","comm","ling ",", so ","consider","lit","ep","day ","x","﻿","this ","tw","head ","from ","ble ","fo","ain’t no ","ballo","copy","soon ","mar",". “","ght, ","represent","ld ","b "," ","project gutenberg literary archive found","vill","ff","at last ","piec","ward ","sen",". if you ","col","se. ","see","out and ","sion ","n ",", ","cer","hom","these ","; ","star","(","com","a-","that the ","in a ","dead ",". we ","s, but ","how to ","satisfi","over the ","pped ","i had ","ty ","member","any ","pres","warn’t ","~","tu","shall have ","found ","which ","ine ","everything ","the li","sou","er, ","best ","ly ","out, ","her","hol","str","inform","ot ",", and then ","found","hor","under ","hour","le ","a little ","side ",", en ","led","where ","shed ","for a ","tur","some","off","ation","tom","ght","as a ","s that ","king ","di","mil","said ","public ","when you ","a’ ","pter ","er and ","without ","still ","desert ","together","and","ous ","several ","’most ",":","bod","a f","thir","dey ","nothing ","red","ster",".” ","may ","one ","des","ph","out ","eri","leg","we had ","ed the ","dat","sho",". tom ","_ ","making ","<mask>","red ","way, ","do not ","ry ","fr","hadn’t ","by ",", you ","ence ","the glas","pp",", and said ","of the ","exec","ing ","any","from the ","such ","nothing","es of ","ww","can","gre","’","wonder","light ","ca","than ","man","pl","pri","with the ","thousand ","hain’t ","our ","stre","ec","representati","tter","dama","term","av","ure ",". if ","ste","us ","yes, ","kind of ","nec","scri","law ","stop","atis","sur","p ","ebook ","-t","project gutenberg-t","indi","enty ","a l","br","d","jim","he had ","?” “y","do","they’re ","again","whole ","requi","around ","diff","l","[illustration: “","n’t ","u","money ","200","near ","too","him and ","an","dro","driver ","of cour","way ","put ","ated ","a person ","stand","answ","si","” ","gr","s of the ","ll","state ","se, ","aw","exce","0 ","minute ","think ","gi","countr","ure","un","an ",", and ","un to ","thr","professor ","hou","legisl","sand","ity ","everybody ","guten","fir","ab","the united stat","sti","bur","ever","trade",".” “","erary archive ","about the ",".” “well, ","it, and ","?","mo","new ","fre","at ","gu","ther ","id ","of them ","thing","lic","distri",". the ","on, ","his ","land ","’re ","me and ","now, ","that we ","7","time","6","ber ","war","tom was ","som","ved ","i was ","port","en","dervish ","place","o ","raight ","awful ","ne","de","for the ","gra","had ","like ","pre","be","sc","off ","tion of ","sent ","ru","b","same","at the ","all","such a ","’d ","op",",” ","reckon","its ","sure ","who ","what ","told ","dr","it","work ","doll","this ebook ","ce","te","worl","has ","that’s ","lim","won","e.","four ","pen",", it ","distribute ","office ","lie","if you ","e’s ","end","made ","says: “","comp","one","en, ","then","heard ","led ","ill","du","<pad>","2","ance ","there’s ","wine ","number of ","place ","top ",". ","it. ","cre","about ","resp","get ","s; ","would be ","cl",". . ","him","cause ","ink","is. ","you ","hu","itu","again ","dri","me",", and i ","_, ","no ","or ","they ","kes ","min","what’s ","somebody ","left ","rais",". . .","acc","st ","my ",". but ","know","peop","old ","the s","k ","00","ey","um ","where the ","lea","zing ","t, ","por","nor ","?” “","agreem","secon","standing ","tting ","works ","lli","ep ","looked ","did ","fac","?” “yes","; so ","didn’t ","t ","-","balloon ",". it’s ","m ","pretty ","ound ","ou","now","licen","ain ","cei","; but ","ter","provi","hear","project gutenberg-tm electronic ","gisl","gul","except ","ood ","do you ","e, ","!” ","oce","elec","x ","license ","y","mars tom, ","stand ","trou","ded ","nation","he could ","high","owed ","pers","high ","could see ","started ","ching ","c ","ol","gener","ways ","ped ","pe","are ","into ","little ","before ","ow","day","mem","au","form ","them. ","cannot ","fet","present","the g",")","w ","sh ","thin",". i ","always ","abi","same ","mu","le","with a ","ted","anim","you","ri","tion ","?” ","def","feel ","including ","ving ","pro","it, ","help ","number ","um","like a ","when he ","watch ","person ","j","ef","with ","kin","year","direc","huck ","hund","in ","united ","git ","%","ea","along ","got to ","consi","over ","bl","cri","vel","ed to ","ven ","forth ","abo","f","ter ","says, “","+","ta","p","free ","lease ","perf","es","enough","there","it warn’t ","that","dar","s, ","ed in ","ves ","_","se ","why, ","fa","sp","th","em","kind ","full ","ect","har","better ","al",", he ","that ","happ","ook ","ts ","our","go ","wy","able","wat","copyright ","iti","gwine ","sand ","ting ","camel-driver ","**","recei","cial ","a","ate ","ni","the","nat","wouldn’t ","going ","t, and ","cour","up in the ","jim was ","ii","af","gone ","all ","tt","because ","to be ",". he ","distribu","differ","dea","; and ","ve","om",". then ","right ","ur","s tom","s","clo","’ve ","ig","congress ","mon","ver","there ","ther","ack","in","then we ","electr","ged ","got ","say ","beg","ited ","she ","poor ","] ","happen","some ","s. ","stration","3","</w>","to the ","well, ","lef","shu","when we ","disa","body "],"merge_rules":[["t","h"],["a","n"],["th","e"],["i","n"],["an","d"],["e","r"],["o","u"],["o","n"],["a","t"],["r","e"],["e"," "],["t"," "],["s"," "],[","," "],["and"," "],["d"," "],["the"," "],["o"," "],["y"," "],["."," "],["e","n"],["o","r"],["f"," "],["l","l"],[", ","and "],["g"," "],["w","a"],["t","o "],["a"," "],["o","f "],["e","d "],["s","t"],["a","r"],["i","t"],["in","g "],["o","m"],["at"," "],["ll"," "],["er"," "],["i","t "],["in"," "],["o","w"],["h","a"],["on"," "],["s","e"],["h","i"],["or"," "],["h","e "],["y","ou"],["wa","s "],["’","t "],["e","s"],["s","a"],["m"," "],["w","e "],["c","h"],["o","o"],["b","u"],["l","e"],["w","h"],["l","i"],["i"," "],["t","i"],["r"," "],["re"," "],["you"," "],["k"," "],["u","n"],["th","at "],["r","o"],["r","i"],["en"," "],["g","h"],["”"," "],["a","l"],["b","e"],["d","i"],["l","a"],["s","t "],["’","s "],["w","i"],["ou","l"],["n"," "],["m","a"],["bu","t "],[";"," "],["v","e "],["e","s "],["i","s "],["n","’t "],["s","e "],["an"," "],["o","t "],["th"," "],["p"," "],["om"," "],["b","e "],["s","i"],["l","e "],["f","or "],["e","c"],["ch"," "],["of ","the "],["p","ro"],["ou","t "],["a","c"],["k","e "],["n","ow"],["m","e"],["a","s "],["a","ll "],["d","e"],["s","h"],["a","in"],["at","i"],["c","a"],["e","v"],["d","e "],["s","o "],["s",", "],["w","e"],["c","om"],["s","ha"],["” ","“"],["a","b"],["in","g"],["ou","n"],["m","o"],["d","n’t "],["a","g"],["d","on"],["c","oul"],["m","e "],["s","u"],["the","y "],["f","i"],["m","i"],["u","t"],["wi","th "],["st","at"],["en","t "],["the","r "],["en","t"],["o","p"],["c","on"],["b","y "],[":"," "],["gh","t "],["sha","ll "],["r","a"],["hi","s "],["w","or"],["an","y "],["j","u"],["e","d"],["h","e"],["b","o"],["n","o "],["t","om "],["l","y "],["e",", "],["in ","the "],["p","re"],["u","p "],["n","o"],["o","l"],["th","is "],["se","e "],["p","er"],["k","now"],["sa","y"],["c","k"],["v","i"],["s",". "],["c","e "],["p","e"],["i","f "],["ha","d "],["the","re "],["j","i"],["n","e"],["sa","i"],["y",", "],["b","er"],["g","ot "],["l","o"],["a","s"],["l"," "],["the","n "],["a","d"],["o","f"],["d","ow"],["th","ing "],["o","ther "],["al"," "],["t","t"],["ec","t "],["’"," "],["n","ot "],[": ","“"],["s ","and "],["f","r"],["c","e"],["it ","was "],["w","oul"],["oo","k "],["o","v"],["f","e"],["t","r"],["on","e "],[", ","but "],["ev","er "],["u","r"],["e","x"],["li","ke "],["ju","st "],["s ","of "],["ain","’t "],["f","or"],["wh","en "],["w","hi"],["m","ar"],["ut","en"],["g","uten"],["guten","ber"],[".","” “"],["hi","m "],["t","ed "],["wa","y "],["j","ect "],["ji","m "],["s",", and "],["d","er"],["t","a"],["ati","on"],["to ","the "],["the","m "],["a","ll"],["p","p"],["t","o"],["sai","d "],["it","’s "],["pro","ject "],["ou","r"],["es",", "],["t",", "],["s","o"],["g","e"],["oo","k"],["s","om"],["d","a"],["t","om"],["project ","gutenber"],["q","u"],["dow","n "],["in","d "],["fr","om "],["f","u"],["_"," "],["t","er"],["wh","at "],["u","se "],["coul","d "],["i","r"],["on","g "],["; ","and "],["com","e "],["ar"," "],["ou","r "],["wa","r"],["don","’t "],["it","ed "],["oun","d "],["ab","out "],["ow"," "],["un","d"],["th","at"],["l","it"],["d","o "],["t","e"],["p","o"],["ll",", "],["coul","dn’t "],["?","” “"],["p","la"],["on ","the "],["woul","d "],["d","o"],["he ","was "],["ha","ve "],["g","oo"],["g","i"],["y","e"],["s",": “"],["a","d "],["ev","er"],["k","e"],["wa","y"],["f","o"],["u","m"],[".","” "],["i","r "],["ati","on "],[". ","the "],["say","s: “"],["g","o "],["ri","ght "],["ou","gh"],["er","e "],["un","ited "],["united ","stat"],["the","r"],["bo","d"],["!"," "],["u","s "],["th","ing"],["c","k "],["hi","m"],["c","an "],["c","i"],["whi","ch "],["ov","er "],["w"," "],["per","s"],[". ","we "],["b","ac"],["a","m"],["p","ar"],["ti","on "],["ma","de "],["i","m"],["e","m"],["v","er"],["p","u"],["know"," "],["shall ","be "],["t","er "],["b","i"],["re","d "],["an","y"],["ol","d "],["di","dn’t "],["pe","op"],["s ","tom"],[". ",". "],["g","o"],["a","re "],["su","ch "],["bod","y "],["ca","use "],["gh","t"],["mo","re "],["we","ll, "],["es","t "],["mar","s tom"],["p","i"],["p","a"],["re","s"],["m","in"],["m","u"],["project gutenber","g"],["be","cause "],["st","r"],["n","i"],["be","en "],["the","ir "],["d",", "],["the","m"],["the","re"],["ma","y "],["s","c"],["?"," "],["-","t"],[", and ","the "],["a ","c"],["ou","t"],["v","e"],["re","e "],["g","r"],["e","b"],["l","ook"],["ag","ain"],["wor","k"],["you","r "],[". ","i "],["ar","ound "],["w","an"],["re","a"],["c","an"],["goo","d "],["un"," "],["pers","on "],["war","n’t "],["ma","ke "],["to ","be "],["on","e"],["it",", and "],["ti","on"],["project gutenberg","-t"],["h","ow "],["st","i"],["es","s"],["w","ent "],["t","ur"],["that","’s "],["mo","st "],["a","f"],["be","g"],["som","e "],["oun","d"],["se","l"],["bac","k "],["ing ","the "],["ough"," "],["in ","a "],["ti","me "],["d","d"],["peop","le "],["project gutenberg-t","m "],["st","ri"],[". ","he "],["; ","but "],["the ","s"],["of ","a "],["t","oo"],["be","fo"],["c"," "],["es","s "],["wi","th"],["d","es"],["m","y "],["g","e "],["lit","t"],["th","an "],["t","w"],["n","ever "],["f","a"],["of","f "],["se","e"],[". ","but "],["on","g"],["it","i"],["si","d"],["wh","ere "],["by ","the "],["sa","me "],["le","c"],["it",", "],["sh"," "],["es",", and "],["ed ","to "],["ing ","to "],["i","s"],["u","p"],["ti","me"],["c","op"],["som","e"],["litt","le "],["th","ou"],["h","ar"],["c","lo"],["fu","l "],["l","ook "],["on","ly "],["if ","you "],["c","our"],["t","al"],["th","in"],["re","ck"],["now"," "],["s","en"],["g","it "],["le","a"],["b","l"],["e","lec"],["e","a"],["mars tom",", "],["l","ong "],["0","0"],["at","e "],["h","und"],["t","y "],["k","ing "],["’","t"],["ca","me"],["w","at"],["don","e "],["pre","s"],["c","re"],["there ","was "],["w","y"],["a","-"],["und","er "],["u","l"],["it","s "],["p","r"],["we ","was "],["for ","the "],["s","and "],["ov","er"],["c","o"],["t","ing "],["b","all"],["p","l"],["d","ing "],["gi","ve "],["s ","of the "],["st","ar"],["f","f"],["c","hi"],["ta","ke "],["le","t "],["ever","y"],["wor","k "],["h","ou"],["a","way "],["ac","c"],["h","u"],["it",". "],["p","ow"],["wa","s"],["e","p "],["way","s "],["g","g"],["ti","ll "],["t","ook "],["’","ve "],["wi","ll "],["m","ent "],["’","ll "],["at","ed "],["di","stri"],["befo","re "],["p","t "],["on",", "],["m","an "],["r","u"],["came","l"],["d","u"],["stat","e "],["the ","g"],["ne","w "],["da","y"],["la","w"],["des","er"],["of","fi"],["u","s"],["mi","s"],["pro","f"],["ain’t ","no "],["es ","and "],["all ","the "],["c","ar"],["pre","tt"],["f","ind "],["t","ra"],["qu","i"],["al","ong "],["the","y"],["c","l"],["’","d "],["ed",", "],["project gutenber","g "],["bi","g "],["pre","sid"],["l","and "],["t","ri"],["wor","l"],["fi","r"],["distri","bu"],["se","c"],["tom ","sa"],[", and ","he "],["d",". "],["a ","f"],["tom sa","wy"],["t","s "],["al","ways "],["]"," "],["at","’s "],["h","er"],["te","ll "],["ge","t "],["prett","y "],["ar","y "],[". . ","."],["min","ut"],["in","e "],["i","ll"],["m","ent"],["of the ","united stat"],["woul","dn’t "],["d",", and "],["ha","pp"],["on","i"],["er ","and "],[", ","or "],["es",". "],["k","ind "],["ball","o"],["fe","e"],["i","d "],[", ","i "],["t ","to "],["tw","o "],["st","e"],["ed ","and "],["hund","red "],["1","."],["k","in"],["pu","t "],[". ","and "],["ye","ar"],["ever","y "],["i","l"],["d","at "],["y","ing "],["li","m"],["eb","ook"],["c","ha"],[". ","you "],["wh","y, "],["la","st "],["l","and"],["!","” "],["for","m"],["e","i"],["t ","of "],["ation","s "],["dow","n"],["s","s "],["c","er"],["that ","was "],["with ","the "],["ing",", "],["an","ce "],["a","v"],[". ","tom "],["s","he "],["g","res"],["ow","n "],["p","h"],["d","s "],["k","ed "],["wh","o "],["th","ir"],["le","s "],["li","c"],["an","other "],["ti","c"],["sa","y "],["can","’t "],["prof","ess"],["n","or "],["ec","t"],["b","le "],["e",", and "],["un ","to "],[", ","you "],["h","er "],["ke","ep "],["ing ","and "],["com","p"],["o","ther"],["b","rea"],["si","on "],["de","y "],[", ","the "],["know","ed "],["p","or"],["y ","and "],["wh","er"],["f","ound"],["p","ed "],["in","n"],["se",", "],["ab","le "],["mu","ch "],[". ","then "],["pla","ce "],["of ","them "],["pro","vi"],["s","k"],["g","a"],["ver","y "],["di","d "],["a","’ "],["elec","tr"],["he","ad "],["y ","to "],["ag","e "],["beg","un to "],["s","l"],["re","ad"],["ch","ed "],["electr","oni"],["th","ree "],["s","in"],["ti","m"],["d","ri"],["it","u"],["e","p"],["c","oun"],["’","re "],["v","ed "],["th","r"],["re","c"],["look","ed "],["con","gres"],["s","p"],["bo","th "],["l","ed "],["ji","m"],["com","m"],["en","d "],["b","li"],["with","out "],["n","a"],["b","er "],["o","le "],["se","s "],["di","ff"],[")"," "],["to","ge"],["hi","gh"],["cl","u"],[", and ","then "],["x"," "],["ce","i"],["on","s "],["at ","the "],["s","and"],["h","un"],["b"," "],["ed",", and "],["er","s "],["ea","ch "],["i ","was "],[", ","because "],[". ","so "],["diff","er"],["hou","se "],["pres","ent"],["der","vi"],["t","ain"],["m","an"],["eb","ook "],["l","ing "],["b","ir"],["like ","a "],[",","” "],["er","i"],["any","thing "],["’","a’ "],["h","our"],["se","t "],["sec","tion "],["d","en"],["out ","of "],["got ","to "],["ballo","on "],["mo","re"],["t","u"],["tt","er "],["re","cei"],["the ","same "],["t","en "],["str","ation"],["ri","ght"],["he","ad"],["e",". "],["er",", and "],["w","on"],["j","o"],["s","hi"],["fir","st "],["u","stration"],["di","s"],["ill","ustration"],["cop","y"],["f","re"],["es ","of "],["presid","ent "],["f","l"],["a ","little "],["electroni","c "],["me ","and "],["v","o"],["a ","person "],["l","ong"],["y","es, "],["*","*"],["f","oo"],["was","n’t "],["t ","and "],["af","ter "],["y",", and "],["v","er "],["fu","ll "],["s ","in "],["m","one"],["he","ar"],["da","y "],["h","ere "],["t","e "],["[","illustration"],[", ","too"],["thou","ght "],["ing",", and "],["ch","ar"],["p","ter "],["no",", "],["ha","s "],["h","old "],["f","ac"],["b","r"],["i ","don’t "],["pr","in"],["of ","cour"],["he","l"],["h","om"],["it","y "],[". ","it "],["ra","i"],["ou","s "],["tur","n"],["si","de "],["e","st"],["s","or"],["en","d"],["con","si"],["thin","k "],["r","y "],["tt","ing "],["”","] "],["re","d"],["re","as"],["in","’ "],["ne","x"],["e","t"],["\""," "],["m","on"],["he ","couldn’t "],["sel","f"],["he ","could "],["and ","the "],["[illustration",": “"],["cha","pter "],["the","n"],["no","thing "],["p","ri"],["en","g"],["in","to "],["le","g"],["st","and"],["happ","en"],["we","l"],["they ","was "],["c","e, "],["an","g"],["thou","sand "],["h","or"],["i","g"],["ar","m"],["wan","ted "],["go","ing "],["in","clu"],["*"," "],["s","w"],["b","le"],["la","w "],["sh","ed "],["d","ro"],["pu","bli"],["or","n"],["so","on "],["0"," "],["s","pe"],["o","’ "],["the ","way "],["a","in "],["kind ","of "],["t",", and "],["la","s"],["l","ow"],["en","ough "],["th","o"],["shall ","have "],["for ","a "],["he ","had "],["li","e"],["c","ri"],["you ","can "],["ju","d"],["a","w"],["d","at"],["we ","had "],["ab","i"],["he","ar "],[". ","“"],["now",", "],["i","s, "],["d","n"],["thing","s "],["with ","a "],["it","e "],["may ","be "],["the","se "],["ag","re"],["n","or"],["ter","m"],["profess","or "],["gh","t, "],["stat","es "],["wh","at’s "],["copy","right "],["st","a"],["tur","n "],["there","’s "],["tal","k "],["st","and "],["le","ar"],["d","ar"],["a",", "],["con","st"],["over ","the "],[", and ","so "],["thr","ough "],["we","a"],["go","ing to "],["an","t "],["ha","l"],["per","f"],["ow","ed "],["h","and"],["tim","es "],["a ","re"],["s","ed "],["sti","ll "],["w","w"],["don","ations "],["h","o"],["ex","ce"],["er ","to "],["e","y"],["di","sc"],["st","or"],["shall ","not "],["wh","ole "],["lic","en"],["reck","on"],["know","s "],["t",". "],["in","di"],[", ","so "],["ma","y"],["ed ","in "],["o","h"],["g","re"],["?","” "],["a ","good "],["ve","l"],["er",", "],["me","m"],["n","um"],["re","present"],["g","en"],["se","e, "],["publi","c "],["y",". "],["s","; "],["a","pp"],["in","ter"],["e","ar"],["ow","n"],["e","."],["ad","d"],["dervi","sh "],["do","es "],["s","ca"],["st","re"],["fe","t"],["ha","dn’t "],[", and ","we "],["sel","f "],["he ","would "],["con","t"],["la","id "],["agre","em"],["star","ted "],["wan","t to "],["from ","the "],["out ","and "],["tom sawy","er "],["le","f"],["on ","a "],["b","la"],["fi","ve "],["ent","y "],["mu","st "],["say","s "],["u","ck "],["to ","go "],["c","r"],["a","u"],["say","s, "],["m","p"],["nex","t "],["se","en "],["a ","mi"],["l","d "],["w","r"],["ll","i"],["or","d"],["v","ing "],["reck","on "],["he ","said "],["work","s "],["consi","der"],["1.","e."],["g","ra"],["in","i"],["up ","and "],["si","r"],["we","ll"],["f","ound "],["u","re "],["v","es "],["of","f"],["ect","ly "],["sh","u"],["de","ad "],["s","le"],[". ","it was "],["to ","see "],["ha","in"],["en","ce "],["sh","o"],["just ","as "],["hu","ck"],["g","u"],["could ","see "],["it ","warn’t "],["ro","ss "],["every","thing "],["fi","f"],["?” “","y"],["ti","ve "],["e","f "],["bac","k"],["hain","’t "],["s","li"],[". ","well, "],["a ","l"],["wa","y, "],["then ","he "],["peop","le"],[", and ","i "],["a","p"],["res","p"],["by ","and "],["p","en"],["su","re"],["perf","ectly "],["again","st "],["hal","f "],["l","ess "],["c","at"],["jim ","was "],["sen","at"],["we ","couldn’t "],["do ","not "],["fu","l"],["vi","ce "],["ed ","the "],["down ","and "],["su","pp"],["a ","body "],["se","em"],["t","ed"],["su","b"],["tion ","of "],["li","f"],["any ","other "],["k","es "],["on","e, "],["su","re "],["tra","de"],["mi","les "],["chi","ve "],["ary ","ar"],["er","ary ar"],["erary ar","chive "],["st","op"],["trade","mar"],["un","i"],["mi","l"],["we ","see "],[", ","en "],["de","f"],["erary archive ","found"],["coun","tr"],["st","er"],["ab","o"],["pla","ce"],["project gutenberg-tm ","electronic "],["more ","than "],["r","an"],["you","’ll "],["on ","his "],["g","la"],["al","ong"],["lit","erary archive found"],["u","m "],["minut","e "],["that ","the "],["represent","ati"],["const","itu"],["for","t"],["project gutenberg ","literary archive found"],["ati","s"],["vi","ll"],["some","thing "],["z","ing "],["le","d"],["be","tter "],["at ","last "],["lea","se "],["ed ","it "],["’","most "],["them",", and "],["tr","ou"],["s","atis"],["come ","to "],["f","ree "],["l","on"],["pow","er"],["see","m "],["e","’s "],["it ","made "],["b","ro"],["s","er"],["ac","ross "],["st","ed "],["an","im"],["the ","united stat"],["g","ed "],["ab","le"],["ac","t "],["'","s "],["mone","y "],["c","la"],["every","body "],["am","eri"],["v","en "],["on",", and "],[". ","if "],["whi","le "],["they","’re "],["look ","at "],["me","di"],["don","’t"],["congres","s "],["such ","a "],["s, ","but "],["g","one "],["i","i"],["ne","ar"],["with","in "],["?” “y","es"],["fee","l "],["when ","you "],[". ","it’s "],["t","old "],["this ","agreem"],["di","rec"],["f","our "],["didn’t ","know "],["l","t "],["to ","do "],["deser","t "],["m","en "],["pi","ec"],["b","est "],["v","ol"],["ag","ain "],["h","our "],["t","re"],["a ","long "],["ght","y "],["ev","en "],["ca","ll"],["aw","ful "],["toge","ther "],["hu","ck "],["por","t"],["around ","and "],["num","ber "],["in","k"],["ke","pt "],["en","ough"],["s ","for "],["would ","be "],["inclu","ding "],["y","’s "],["2","00"],["anim","al"],["—","and "],["no","body "],["s","un"],["re","qui"],["wa","s. "],["tho","se "],["tom sawy","er"],["v","en"],["car","av"],["when ","we "],["when ","he "],["wh","at"],["d","ed "],["s","ma"],["how ","to "],["hear","d "],["reas","on "],["d","r"],["n","ation"],["1"," "],["ou","t, "],["par","tic"],["year","s "],["to ","find "],["gi","sl"],["lie","ve "],["h","um"],["le","gisl"],["rai","ght "],["do","ll"],["ta","in "],["may","be "],["an","t"],["dd","er "],["com","ing "],["satis","fi"],["re","f"],["this ","ebook "],[".” “","well, "],["iti","z"],["o","ce"],["up ","in the "],["bu","r"],["an ","hour"],["me","an"],["no","thing"],["camel","-"],["partic","ul"],["; ","so "],["th","ough "],["u","re"],["high"," "],["l","an"],["where ","the "],["ne","ar "],["n","ec"],["ni","ght "],["s","of"],["dri","ver "],["never ","see "],["fo","ll"],["e","as"],["sc","ri"],["re","st "],["te","ll"],["g","ul"],["gen","er"],["st","raight "],["se","con"],["s","ent "],[", ","it "],[". ","now "],["s","—"],["er","r"],["s ","that "],["ag","ree "],["war","d "],["look","ing "],[", and ","said "],["toge","ther"],["presid","ent"],["d","at’s "],["exce","pt "],["at","t"],["can","not "],["pretty ","soon "],["him",", and "],[", ","he "],[". ","if you "],["da","ma"],["par","ag"],["him ","and "],["c","es"],[", and ","you "],["m","any "],["it","?” “"],["e","l "],["w","ine "],["c","ol"],["ge","tting "],["provi","de "],["z","e "],["ph"," "],["tom ","was "],["h","ol"],["there ","ain’t no "],["be","ing "],["a","ir "],["se",". "],["pp","ed "],["n","at "],["c","le"],["t","rea"],["le ","of "],["ni","ght"],["oo","d "],["worl","d "],["about ","the "],["in","form"],["to","p "],["all","y "],["ac","k"],["as ","a "],["do ","you "],["parag","ra"],["m","at"],["po","or "],["ch","ing "],["sa","me"],["ab","out"],["says, ","“"],["or","g"],["we","’ve "],["o","in"],["si","on"],["lef","t "],["am","ong "],["distribu","te "],["ed ","by "],["licen","se "],["e","l"],["a ","big "],["f","ar "],["out ","the "],["tr","y to "],["mi","ght "],["it’s ","a "],["ed ","up "],["ci","al "],["e","f"],["gh","o"],["sti","ll"],["his ","own "],["t","s of "],["as ","the "],["wat","ch "],["stand","ing "],["offi","ce "],["d","er "],["g","wine "],["inform","ation "],["-","-"],["when ","they "],["ma","king "],["befo","re"],["dn","’t"],["for","m "],["the g","las"],["that ","we "],["d","ur"],["i ","ever "],["then ","we "],["y ","of "],["to ","git "],["in ","and "],["i ","had "],["su","r"],["some","body "],["be","lieve "],["fe","ll"],["for","th "],["un","less "],["them",". "],["number ","of "],["n","at"],[". ","[illustration: “"],["de","a"],["he","’s "],["so","ci"],["the ","li"],["gutenber","g"],["en",", "],[". ","jim "],["legisl","at"],["m","y"],["ation ","of "],["s","ou"],["wan","t "],["time",", "],["clo","se "],["_",", "],[".” ","jim "],["ex","ec"],["i","s. "],["i","’ve "],["g","er"],["h"," "],["oun","t "],["won","der"],["what ","it "],["f","in"],["clo","ck"],["d","ut"],["se","ver"],["c","u"],["ju","m"],["i","’s "],["fr","on"],["an","sw"],["tt","er"],["tr","u"],["took ","a "],["sever","al "],[". he ","said "],["as ","i "],["abi","lit"],["c","ra"],["tr","y"],["resp","ec"],["mem","ber"],["l","or"],["ed ","him "],["li","ght "],["hel","p "],["pa","id "],["there ","warn’t "],["camel-","driver "],["elec","t"],["ta","x "],["di","sa"],["ra","is"],["au","th"],["pro","du"],["sha","ll, "]],"token_to_index":{"respec":253,"disc":485,"raight ":1160,"if you ":1208,"ha":516,"down":625,"chi":772,"illustration":224,"ly ":926,"at ":1130,"es ":74,"k ":1269,"just as ":235,"away ":214,"sli":351,"for a ":945,"id ":1133,"err":664,"fre":1129,"sp":1431,"dat":989,"t":160,"might ":778,"elect":735,"00":1270,"see":887,"body ":1521,"right ":1485,"before":15,"took ":220,"copyright ":1450,"abi":1361,"fr":999,"mem":1347,". well, ":458,"still ":964,", the ":678,"est":77,"pla":732,"ght, ":872,"0 ":1096,"of a ":312,"ts of ":41,"’t":364,"ons ":42,"dat ":481,"pl":1024,"much ":173,"br":1056,"la":358,"law":655,"told ":1188,"nobody ":200,"this ebook ":1193,"cei":1304,"act ":436,"may ":980,"together ":216,"vel":1404,"ther ":1132,"ts ":1444,"ghty ":241,"ook":640,"oh":51,". tom ":991,"into ":1342,"ed to ":1405,"ess ":474,"pr":204,"es, ":272,"thou":86,"take ":811,"next ":607,"many ":90,"happen":1509,"huck ":1391,"up":187,"comp":1213,"night":766,"cla":409,"rais":1259,". we ":903,"dur":535,"more":666,"6":1148,"even ":727,"day":1346,"bl":1402,"+":1412,",":147,", and the ":25,"pu":52,"—and ":684,"h ":504,"seem":690,"ed and ":838,"the ":39,"ed ":60,"gg":629,"~":915,"stand":1085,"right":521,"’re ":1142,"a re":183,"s, ":1424,"ni":1461,"look at ":217,"out of ":118,"?":1126,"di":955,"p":1414,"straight ":3,"ves ":1426,"ant":642,"over the ":907,"see ":286,"last ":559,"being ":510,", i ":412,"ty ":910,"ot ":932,"dey ":975,"money ":1072,"ged ":1501,"up ":762,"and":967,"so":414,"d, and ":380,"l":1068,"there warn’t ":180,"ll, ":700,"know":1265,"men ":410,"ig":1491,"him, and ":688,"ir":27,"0":803,"ching ":1334,"a":1459,"time ":566,"he’s ":573,"together":966,"prett":501,"ther":1496,"ball":849,"op":1181,"across ":502,"ke":248,"says ":407,"fif":763,"would ":276,"comm":851,"awful ":1161,"lieve ":714,"const":328,"thousand ":1027,"wher":558,"say":815,"sai":49,"resp":1233,"mar":870,"consi":1400,"out the ":344,"all ":1473,"?” “yes":1290,"hou":1108,"ough ":348,"disa":1520,"we couldn’t ":541,"uten":134,"how ":806,"ep ":1286,"bro":163,"eri":985,"es of ":1014,"da":313,"look ":405,"mars tom, ":1322,"abo":1408,"minute ":1097,"eas":254,". now ":651,"y’s ":196,"les ":72,"de ":59,"ect":1436,"us":14,"es and ":342,"<":106,"prof":556,"9":743,"s in ":140,"lit":855,"does ":454,"dn":561,"rest ":771,"this ":860,", ":891,"ure ":1037,"ed by ":101,"project gutenberg-t":1052,"won":1200,". but ":1264,"tra":705,"little ":1343,"without ":963,"got to ":1399,"says, ":89,"; ":895,"ood ":1313,"3":1513,"dead ":902,"tho":645,"﻿":859,"ti":482,"along":677,"requi":1065,"ac":29,"sin":643,"’a’ ":808,"about ":1232,"ro":462,"ff":879,"know ":252,"ved ":1153,"fell":442,".” “":1121,"y and ":399,"hold ":362,"five ":153,"he couldn’t ":836,"thr":1106,"gres":486,"set ":781,"project gutenberg":245,"project ":636,"ped ":1339,"ch":601,"red":977,"bi":609,"r":793,"fin":722,"that we ":1145,"house ":693,") ":211,"s":1488,"ber":294,"nec":1043,"poor ":1507,": “":682,"on ":794,"ul":382,"left ":1258,"ces":606,"ad ":319,"new ":1128,". ":1229,"gul":1311,"it, and ":1125,"se ":1428,"fo":865,"ut":661,"d ":584,"tre":174,"ze ":315,"tom sawyer":696,"t to ":243,"f ":774,"one ":981,"no ":1251,"hour ":582,"times ":242,"ole ":685,"these ":894,"paid ":720,"foll":683,", because ":748,"pp":1005,"prin":46,"with the ":1026,"place ":1227,"min":1255,"high ":1331,",” ":1182,"thin":1358,"ter ":1410,"reas":373,"everything ":921,"tu":916,"seen ":162,"sof":557,"tax ":107,"back":193,"information ":223,"guten":1113,"owed ":1329,"tom":950,"stration":1512,"pen":1203,"e, ":1315,"he said ":61,"age ":369,"on a ":446,"vol":66,"wh":227,"ment ":325,"the li":922,"present":1353,"provide ":716,"didn’t know ":96,"a’ ":960,"desert ":965,"so ":564,"camel-driver ":1455,"going ":1465,"jud":366,"most ":376,"i’ve ":4,"goo":80,"with ":1387,"sand ":1453,"el ":263,"lec":177,"shall not ":389,"air ":765,"ag":186,"big ":197,"going to ":159,", too":215,"re ":133,"vi":456,"hear ":567,"fe":472,"sou":923,"und":237,"do not ":997,"in ":1393,"it warn’t ":1421,"no, ":391,"tion ":1370,"the way ":73,"ref":267,"those ":417,"ab":1115,"ir ":424,"pretty soon ":453,"ed him ":270,"pped ":908,"ated ":1083,"q":117,"gra":1165,"tt":1474,"sted ":119,": ":53,"did ":1288,"att":145,"that ":1441,"na":455,"ble ":864,"ed the ":988,"pa":515,"it’s a ":347,"a l":1055,"low":151,"trademar":102,"las":717,"diff":1067,"ite ":228,"legisl":1109,"anim":1367,"them":93,"inn":565,"i ":576,"ed up ":507,"7":1146,"hi":355,"col":885,"s ":614,"turn ":463,"section ":114,"just ":138,"ji":783,"may":825,"u":1071,"dar":1423,", and so ":610,"year":1389,"'s ":143,"him ":205,"ject ":330,"stre":1030,"something ":621,"ss ":311,"such ":1012,"gre":1017,"dis":631,"of the ":1007,"would be ":1236,"the s":1268,"carav":638,"?” ":1371,"sed ":809,"to see ":130,"un":1102,"led ":1218,"ate ":1460,"top ":1228,"project gutenberg-tm ":596,"zing ":1275,"paragra":777,"still":213,"bo":632,"f":1409,"car":624,"the same ":406,"un to ":1105,"place":1158,"more ":608,"2":1222,"get ":1234,"4":0,"literary archive found":63,"it’s ":353,"ver":1494,"senat":494,"qui":448,"begun to ":597,"gla":692,"ation of ":393,"est ":322,"publi":580,"s that ":953,"ll":1091,"another ":396,"years ":742,"ally ":332,"ran":805,"ow ":832,"gu":1131,"lli":1285,"as ":745,"it, ":1377,"done ":104,"when they ":627,"some":947,"king ":954,".” ":979,"ta":1413,"perf":1417,"president":695,"ain’t no ":866,"t and ":300,"[illustration":343,"jim ":123,"whi":97,"read":761,"member":911,"light ":1020,"pri":1025,"driver ":1079,". he ":1477,"from ":863,"<unk>":231,"add":256,"un ":9,"came":421,"y to ":487,"av":1036,"1":58,"way":653,"differ":1479,"them ":729,"will ":779,"licen":1302,"abilit":277,"s—":641,"oun":668,"it":1190,"best ":925,"s: “":656,"clo":1489,"ch ":370,"has ":1197,"president ":440,"y, ":750,"1 ":545,"ers ":775,"mon":1493,"ll ":354,", and then ":933,"z":44,"mars tom":334,"ce ":146,"mone":383,"“":755,", it ":1204,"there":1420,"po":37,"_ ":992,"sid":675,"<mask>":994,"nothing":1013,"c":309,"sma":650,"man ":111,"y. ":526,"elec":1318,"de":1163,"where the ":1273,"gho":91,"are ":1341,"pt ":465,"dama":1034,"to git ":367,"trea":33,"don’t ":654,"any ":912,"as":76,"a ":268,"gutenberg":451,"any":1010,"ke ":834,"good ":360,"like ":1167,"pers":1330,"mu":1363,"when he ":1382,"we had ":987,"a c":603,"kin":1388,"beg":1504,"atis":1047,"tom was ":1151,"a long ":132,"and ":283,"200":1073,"lo":303,"acc":1261,"/":730,"dat’s ":79,"ing to ":790,"tr":786,"wr":190,"ent":478," ":876,"en":1156,"’d ":1180,"gr":1089,"i ever ":817,"lear":770,"cha":201,"ount ":660,"ad":807,"than ":1022,"project gutenberg ":553,"now, ":1144,"time":1147,"s; ":1235,"self":402,"e. ":839,"arm":301,"animal":341,"make ":99,"for the ":1164,"ga":818,"a f":973,"it was ":495,"four ":1202,"s tom":1487,"camel-":144,"ill":1219,"while ":551,"to do ":617,"think ":1098,", and you ":100,"pretty ":1298,"inter":480,"ant ":540,"b":1175,"fac":1289,"among ":392,"e.":1201,"m ":1297,"was. ":209,"people":316,"couldn’t ":317,"auth":671,"str":930,"nex":525,"is":35,"to go ":168,"close ":306,"ere ":210,". [illustration: “":756,"never see ":709,"sa":739,"off":948,"of cour":1080,"g":613,"found ":918,"he would ":203,"ity ":1111,"on, ":1139,"high":1328,"le":1364,"help ":1378,"stat":269,"ary ":523,"on":635,"this agreem":191,"sure":728,"cial ":1458,"several ":969,"st":314,"ati":297,"then":1216,"ef":1386,"s and ":443,"one, ":826,"law ":1045,"i was ":1154,"reason ":266,"i":298,". you ":149,"wanted ":592,"]":738,"th":1432,"ea":1397,"as i ":388,". if ":1038,"al":1439,"go":425,"bla":619,". . .":1260,"sir":698,"; and ":1481,"then we ":1499,"long":676,"legislat":799,"ci":546,"well":8,"ways ":1338,"t. ":589,"tain ":670,"was":88,"inform":931,"ne":1162,"didn’t ":1292,"ver ":450,"st ":1262,"fu":23,"lea":1274,"ted":1366,"der":697,"a person ":1084,"ger":384,"ving ":1375,"him and ":1076,"head":257,"ol":1336,"you":1368,"that’s ":1198,"!” ":1316,"in’ ":281,"s of ":397,"of ":68,"never ":776,"” “":166,"am":646,"es. ":381,"orn":212,"ment":461,"perfectly ":513,"t, ":1276,"ong":476,"mean":179,"ey":1271,"again ":1246,"ing, ":346,"electr":1500,"is, ":734,", so ":853,"hundred ":752,"pres":913,"try to ":503,"ju":278,"lt ":310,"works ":1284,"ii":1470,"say ":1503,"can ":404,"tic":740,"through ":798,"now ":82,"your ":520,"rea":172,"hadn’t ":1000,"fir":1114,"do ":284,"we ":170,"er, and ":479,"including ":1374,"he had ":1059,"sw":327,">":652,"why, ":1429,"ei":477,"uck ":441,"wea":350,"it ":628,"dervish ":1157,"all the ":457,", en ":941,"te":1195,"dri":1247,"-t":1051,"person ":1384,"ph ":81,"k":544,". it ":795,"such a ":1179,"h":164,"own ":357,"’":1018,"ying ":433,"always ":1360,"er and ":962,"ec":1031,"doll":1192,"dro":1078,"trou":1324,"making ":993,"in a ":901,"x ":1319,"my":827,"which ":919,"—":250,"ous ":968,"dr":1189,"tter ":571,"com":898,"def":1372,"hum":48,"pi":259,"app":708,"war":1150,"tell":70,"said ":957,"no":846,"port":1155,";":18,"coming ":672,"profess":813,"” ":1088,"who ":1186,"where ":943,"congress ":1492,"soci":843,"stri":188,"it?” “":171,"ten ":484,"spe":288,"jum":823,"enough":1419,"il":812,"trade":1120,"gwine ":1452,"eb":195,"sel":136,"coul":568,"see, ":329,"to find ":662,"mi":768,"his ":1140,"t ":1293,"happ":1442,"very ":167,"electroni":413,"is ":419,"at last ":880,"better ":1438,"ink":1241,"a mi":816,"ited ":1505,"ho":555,"] ":1508,"pow":687,"ed in ":1425,"supp":154,"mat":760,"want to ":782,"ation ":789,"cat":830,"shed ":944,"state ":1092,"near ":1074,"fi":87,"to":680,"long ":225,"soon ":869,"toge":833,"ded ":1325,"out, ":927,", he ":1440,"office ":1206,"stand ":1323,"ations ":593,"vice ":234,"after ":711,"reckon":1183,"peop":1266,"iti":1451,"enty ":1054,"ing ":1009,"head ":862,"try":30,"m":320,"nor ":1278,"call":715,"looked ":1287,"thing ":244,"looking ":352,"gener":1337,"bac":850,"scri":1044,"along ":1398,"by ":1001,"her":928,"’t ":590,"\" ":326,"ste":1039,"_":1427,"$":176,"what":207,"ses ":445,". “":871,"nat":1463,"ebook":17,"ation":949,"tur":946,"by the ":161,"si":1087,"as a ":952,"represent":873,"want ":109,"w ":1356,"! ":400,"a body ":599,"ep":856,"me":1248,"night ":733,"less ":758,"satis":339,", and he ":285,"or":575,"tim":659,"aw":1094,"ord":416,"den":797,"nat ":528,"let ":702,"pre":1168,"went ":98,"tom sa":198,"ds ":644,"me ":747,"he was ":518,"con":435,"anything ":7,"may be ":28,"foo":139,"talk ":375,"ked ":517,"1.":623,"sion":572,"reckon ":713,"le of ":718,"hol":929,"oin":135,"\"":488,"nothing ":976,"heard ":1217,"kept ":169,"secon":1281,"(":897,"is. ":1242,"maybe ":531,"lon":840,"sta":32,"ter":1306,"united stat":152,"other ":483,"se":43,"how to ":905,"under ":936,". the ":1138,"me and ":1143,"own":56,"o ":1159,"says: “":1212,"nation":1326,"es, and ":415,"medi":679,"cri":1403,"other":122,"in and ":536,"dervi":258,"license ":1320,"seem ":408,"go ":1446,". then ":1484,"ur":1486,"ov":637,"brea":239,"recei":1457,"et":749,"clock":757,"ar ":736,"laid ":247,"tion of ":1172,"every":287,"</s>":648,"you can ":689,"* ":723,"al ":491,"tom sawyer ":490,"led":942,"agre":647,"against ":331,"erary ar":686,"shi":434,"’ ":746,"le ":938,"ini":251,"im":475,"yes, ":1041,"n’t ":1070,"tal":324,"erary archive found":262,"ful":639,"se, ":1093,"sl":240,"people ":137,"wasn’t ":489,"uni":704,"congres":178,"them. ":1350,"oul":12,"ma":255,"te ":824,":":971,"world ":719,"<pad>":1221,"ting ":1454,"ing":356,"leg":986,"ye":318,"re":302,"hu":1244,"with a ":1365,"you’ll ":69,"sle":420,"could ":385,"ent ":724,"er ":537,"y of ":562,"camel":156,"side ":940,"knows ":649,"kind of ":1042,"_, ":1250,"sh":527,"ww":1015,"distri":1137,"ound ":1299,"ev":379,"--":829,"sh ":1357,"all":1178,"like a ":1381,"hund":1392,"well, ":1516,"come ":64,"in the ":820,"way, ":996,"sure ":1185,"fa":1430,"sur":1048,"s of the ":1090,"; so ":1291,"ong ":175,"tion":71,"i don’t ":194,"ed it ":602,"fee":615,"piec":881,"he":291,"star":896,"jo":401,"bu":336,"thir":974,"worl":1196,"don":349,"cr":663,"somebody ":1257,"char":588,"ou":1300,"united ":1394,"sub":62,"ble":452,"everybody ":1112,"wy":1447,"ameri":437,"countr":1100,". and ":226,"lease ":1416,"tom ":126,"near":579,"cl":1237,"distribute ":1205,"fron":361,"because ":1475,"out ":984,"whole ":1064,"c ":1335,"turn":292,"come to ":338,"dder ":694,". it was ":113,"some ":1510,"time, ":67,"term":1035,"itiz":759,"him":1239,"wel":40,"sever":785,"her ":233,"qu":496,"down ":769,"a-":899,"er, ":924,"’ll ":365,"shall, ":800,"a, ":792,"the united stat":1116,"sti":1117,"ance ":1223,"sca":411,"same":1176,"made ":1211,"s, and ":321,"copy":868,"with":165,"hand":605,"up and ":274,"’most ":970,"p ":1049,"at the ":1177,"ure":1101,"jim":1058,"back ":219,"sha":299,"ward ":882,"sen":883,"mo":1127,"that the ":900,"forth ":1407,"wor":129,"t, and ":1466,".":511,"oo":230,"ary ar":304,"oni":467,"sc":1170,"down and ":185,"public ":958,"rai":116,"woul":403,"[":570,"work":26,"1.e.":753,"ree ":31,"says, “":1411,", and i ":1249,"sun":275,"hal":822,"kind ":1434,"they was ":543,"again":1063,"be ":547,"hor":935,"professor ":1107,"mis":271,"indi":1053,". if you ":884,"wat":1449,"lie":1207,"dd":94,"cu":333,"er":784,"started ":1333,"what’s ":1256,"vo":335,", and said ":1006,"form":368,"over ":1401,"ack":1497,"der ":560,"wan":473,"hom":893,"litt":296,"a little ":939,"look":158,"ce, ":430,"um ":1272,"tive ":422,"erary archive ":1122,"num":819,"his own ":657,"at’s ":587,"fort":550,"g ":232,"ld ":874,"befo":514,"bli":371,"sho":990,"hain’t ":1028,"land ":1141,"be":1169,"number of ":1226,"at":744,"itu":1245,"or ":1252,"ook ":1443,"she ":1506,"d. ":78,"rec":38,"e ":221,"i had ":909,"man":1023,"out and ":888,"kes ":1254,". he said ":24,"dut":308,"dn’t":438,"o’ ":741,"pe":1340,"ck":622,"ap":427,"land":611,"’s ":372,"believe ":594,"consider":854,"an ":1103,"e, and ":464,"they ":1253,"same ":1362,"distribu":1478,"he ":208,"an":1077,"nor":128,"ustration":45,"what it ":16,"ang":75,"d, ":92,"er to ":469,"took a ":620,"we’ve ":585,"then ":726,"two ":767,"ence ":1003,"ca":1021,"bod":972,"end":1210,"d":1057,"wine ":1225,"n ":890,"ched ":530,"gh":148,"there ain’t no ":554,"ge":529,"jim was ":1469,"do":1061,"ted ":428,"its ":1184,"gutenber":471,"tru":505,"and the ":184,"sand":1110,"electronic ":249,"; but ":1305,"on his ":549,"ber ":1149,"au":1348,"ra":595,"we see ":459,"day ":857,"en ":519,"deser":386,"”":506,"co":658,"answ":1086,"thought ":125,"ve ":222,"x":858,"till ":5,". it’s ":1296,"fet":1352,"*":394,"ear":218,"ge ":563,"must ":141,"hain":22,"ectly ":13,"things ":626,"du":1220,"that":1422,"self ":236,"they":691,"produ":721,"5":630,"cont":616,"tell ":707,"of":279,"their ":796,"around ":1066,"[illustration: “":1069,"too":1075,"thing":1135,"lic":1136,"cause ":1240,"tting ":1283,"wi":831,"now":1301,"provi":1307,"project gutenberg-tm electronic ":1309,"use ":674,"an hour":841,"par":108,"y, and ":377,"'":460,"sion ":889,"form ":1349,"tw":861,"reck":508,"som":1152,"constitu":265,"up in the ":1468,"cop":618,"to the ":1515,"#":395,"sent ":1173,".” “well, ":1124,"ross ":57,"them, and ":431,"cannot ":1351,"dow":499,"pter ":961,"three ":95,"ding ":604,"when ":673,"hour":937,"they’re ":1062,"feel ":1373,"</w>":1514,"v":731,"dn’t ":189,"donations ":712,"give ":50,"ck ":398,"-":1294,"to ":842,"dea":1480,"eng":65,"first ":150,"wonder":1019,"to be ":1476,"bur":1118,", you ":1002,"presid":665,"there’s ":1224,". . ":1238,"don’t":681,"more than ":754,"exec":1008,"for":444,"of the united stat":290,"minut":206,"representati":1032,"agree ":260,"but ":773,"sk":449,", and ":1104,"%":1396,"full ":1435,"in":1498,"mil":956,"n":538,"ess":432,"partic":509,"then he ":669,"project gutenberg literary archive found":877,"was ":470,"l ":835,"ed":845,"the glas":1004,"way ":1081,"not ":577,"lan":828,"by and ":837,"you ":1243,"ain ":1303,"j":1385,"ain":542,"git ":1395,"af":1471,"he could ":1327,"as the ":295,"r ":280,"tter":1033,"clu":586,"o":710,"b ":875,"ow":1345,"ever ":512,"find ":633,"lor":229,"res":124,"knowed ":2,"only ":810,"cle":581,"ough":390,"project gutenber":701,"from the ":1011,".” jim ":447,"t of ":703,"oce":1317,"inclu":751,"ght":951,"bir":500,"ever":1119,"ebook ":1050,", and we ":548,"shall ":264,"our ":1029,"the":1462,"huck":524,"fl":11,"lim":1199,"**":1456,"every ":791,"parag":814,"ine ":920,"lef":1517,")":1355,"ing and ":127,"ballo":867,"one":1214,"could see ":1332,"tom sawy":801,"ef ":667,", or ":466,"en, ":1215,"wa":19,"ght ":155,"do you ":1314,"any other ":142,"hun":359,"@":725,"here ":202,"cer":892,"ser":305,"gen":598,"w":737,"mp":493,"about the ":1123,"um":1380,"free ":1415,"able":1448,"ri":1369,"cra":574,"su":112,"per":192,"my ":1263,"our":1445,"getting ":363,"om ":85,"end ":374,"enough ":706,"red ":995,"?” “y":1060,"miles ":634,"satisfi":906,"put ":1082,"about":121,"ru":1174,"pro":1376,"we was ":337,"each ":468,"around and ":600,"hear":1308,"power":293,"”] ":780,"ar":426,"org":534,"shall have ":917,"both ":418,"had ":1166,"the g":1354,"es":1418,"se. ":886,"keep ":1,"gone ":1472,"ful ":802,"agreem":1280,"ind ":181,"old ":1267,"!":323,"though ":47,"? ":848,"li":345,"a good ":21,"ven":699,". so ":6,"har":1437,"it. ":1230,"shu":1518,"ound":788,"ve":1482,"there ":1495,"warn’t ":914,"e’s ":1209,"direc":1390,"have ":120,"when we ":1519,"a big ":533,"able ":157,"we":282,"cre":1231,"out":115,"unless ":612,"ry ":998,"it made ":378,"can":1016,"of them ":1134,"number ":1379,"stop":1046,"shall be ":439,"there was ":36,"found":934,"lif":583,"e":787,"balloon ":1295,"ling ":852,"gi":1099,"ing the ":273,"offi":199,"om":1483,"that was ":182,"ex":578,". jim ":103,"?” “":1279,"over":10,"if ":105,"stor":55,"half ":429,"when you ":959,"far ":289,"ing, and ":246,"wouldn’t ":1464,"vill":878,"hel":492,"standing ":1282,"on, and ":131,"except ":1312,"y":1321,"i’s ":498,"s. ":1511,"particul":552,". i ":1359,"ain’t ":569,"tain":423,"chapter ":261,"y ":110,"within ":340,"states ":522,"s for ":497,"coun":804,"por":1277,"for ":591,"on the ":238,"ed, ":307,"em":1433,"ph":983,"exce":1095,"el":34,"tri":387,"th ":54,"ce":1194,"’ve ":1490,"chive ":532,"des":982,"got ":1502,"before ":1344,"ster":978,"ect ":764,"8":847,"sor":83,"us ":1040,"off ":1171,"what ":1187,"can’t ":20,"work ":1191,"watch ":1383,"been ":821,"cour":1467,"ven ":1406,", but ":539,"gisl":1310,"sec":84,"ed, and ":844,"s, but ":904},"index_to_token":{"252":"know ","751":"inclu","1318":"elec","1006":", and said ","1196":"worl","1340":"pe","301":"arm","1516":"well, ","127":"ing and ","696":"tom sawyer","1257":"somebody ","592":"wanted ","678":", the ","1453":"sand ","519":"en ","1500":"electr","1075":"too","91":"gho","118":"out of ","806":"how ","129":"wor","1051":"-t","1456":"**","202":"here ","1379":"number ","732":"pla","824":"te ","356":"ing","1308":"hear","323":"!","928":"her","1042":"kind of ","1351":"cannot ","404":"can ","1414":"p","871":". “","1427":"_","1365":"with a ","1513":"3","1189":"dr","88":"was","220":"took ","986":"leg","936":"under ","731":"v","880":"at last ","262":"erary archive found","854":"consider","1124":".” “well, ","707":"tell ","209":"was. ","1303":"ain ","173":"much ","1320":"license ","1137":"distri","643":"sin","953":"s that ","639":"ful","605":"hand","1103":"an ","1399":"got to ","1296":". it’s ","906":"satisfi","8":"well","561":"dn","1488":"s","65":"eng","1147":"time","1271":"ey","224":"illustration","155":"ght ","771":"rest ","967":"and","239":"brea","1519":"when we ","363":"getting ","354":"ll ","549":"on his ","582":"hour ","1465":"going ","306":"close ","1136":"lic","577":"not ","213":"still","1277":"por","1291":"; so ","904":"s, but ","829":"--","30":"try","1043":"nec","1344":"before ","761":"read","437":"ameri","336":"bu","455":"na","698":"sir","716":"provide ","758":"less ","107":"tax ","242":"times ","38":"rec","493":"mp","1068":"l","1076":"him and ","69":"you’ll ","1008":"exec","1226":"number of ","1240":"cause ","913":"pres","1146":"7","1253":"they ","1319":"x ","133":"re ","923":"sou","1218":"led ","1017":"gre","901":"in a ","75":"ang","64":"come ","318":"ye","981":"one ","255":"ma","779":"will ","544":"k","1060":"?” “y","1168":"pre","792":"a, ","1179":"such a ","370":"ch ","1460":"ate ","795":". it ","386":"deser","479":"er, and ","203":"he would ","438":"dn’t","198":"tom sa","514":"befo","672":"coming ","813":"profess","926":"ly ","1142":"’re ","321":"s, and ","1376":"pro","449":"sk","1475":"because ","1454":"ting ","909":"i had ","200":"nobody ","1411":"says, “","1300":"ou","517":"ked ","1159":"o ","1220":"du","338":"come to ","957":"said ","0":"4","125":"thought ","1169":"be","1380":"um","366":"jud","103":". jim ","989":"dat","164":"h","191":"this agreem","29":"ac","197":"big ","963":"without ","1111":"ity ","1184":"its ","55":"stor","267":"ref","277":"abilit","298":"i","90":"many ","319":"ad ","677":"along","993":"making ","1335":"c ","1246":"again ","636":"project ","1301":"now","662":"to find ","1408":"abo","1238":". . ","1429":"why, ","229":"lor","969":"several ","1177":"at the ","1386":"ef","19":"wa","807":"ad","280":"r ","558":"wher","970":"’most ","1047":"atis","898":"com","33":"trea","1329":"owed ","584":"d ","1090":"s of the ","85":"om ","187":"up","210":"ere ","511":".","226":". and ","876":" ","480":"inter","195":"eb","405":"look ","126":"tom ","14":"us","567":"hear ","603":"a c","1269":"k ","628":"it ","1484":". then ","1490":"’ve ","1502":"got ","1046":"stop","1223":"ance ","726":"then ","878":"vill","932":"ot ","1234":"get ","1085":"stand","1233":"resp","551":"while ","140":"s in ","179":"mean","54":"th ","343":"[illustration","518":"he was ","654":"don’t ","675":"sid","728":"sure","863":"from ","258":"dervi","165":"with","1033":"tter","1117":"sti","427":"ap","1163":"de","1361":"abi","1392":"hund","788":"ound","583":"lif","188":"stri","351":"sli","67":"time, ","539":", but ","724":"ent ","785":"sever","790":"ing to ","145":"att","823":"jum","70":"tell","154":"supp","897":"(","60":"ed ","1172":"tion of ","1251":"no ","948":"off","1495":"there ","1405":"ed to ","1009":"ing ","820":"in the ","575":"or","28":"may be ","1492":"congress ","764":"ect ","473":"wan","497":"s for ","374":"end ","867":"ballo","436":"act ","942":"led","254":"eas","756":". [illustration: “","1280":"agreem","1307":"provi","6":". so ","461":"ment","1217":"heard ","489":"wasn’t ","194":"i don’t ","632":"bo","368":"form","540":"ant ","569":"ain’t ","688":"him, and ","753":"1.e.","314":"st","793":"r","66":"vol","1132":"ther ","1416":"lease ","1434":"kind ","1139":"on, ","1437":"har","4":"i’ve ","34":"el","638":"carav","446":"on a ","137":"people ","797":"den","833":"toge","849":"ball","334":"mars tom","335":"vo","1497":"ack","399":"y and ","858":"x","150":"first ","1424":"s, ","1292":"didn’t ","218":"ear","719":"world ","810":"only ","1279":"?” “","679":"medi","723":"* ","1366":"ted","1290":"?” “yes","1448":"able","92":"d, ","186":"ag","629":"gg","256":"add","708":"app","840":"lon","862":"head ","974":"thir","1053":"indi","222":"ve ","1512":"stration","42":"ons ","340":"within ","325":"ment ","846":"no","1235":"s; ","1165":"gra","864":"ble ","249":"electronic ","994":"<mask>","1150":"war","1464":"wouldn’t ","52":"pu","893":"hom","965":"desert ","1389":"year","1345":"ow","1074":"near ","87":"fi","1423":"dar","1438":"better ","175":"ong ","357":"own ","1141":"land ","703":"t of ","742":"years ","5":"till ","775":"ers ","999":"fr","1054":"enty ","128":"nor","313":"da","362":"hold ","713":"reckon ","500":"bir","816":"a mi","176":"$","219":"back ","655":"law","359":"hun","284":"do ","1071":"u","1447":"wy","1370":"tion ","1391":"huck ","1248":"me","430":"ce, ","333":"cu","979":".” ","1471":"af","1013":"nothing","79":"dat’s ","385":"could ","1328":"high","347":"it’s a ","961":"pter ","274":"up and ","153":"five ","1283":"tting ","1480":"dea","838":"ed and ","101":"ed by ","1093":"se, ","10":"over","485":"disc","920":"ine ","1104":", and ","1122":"erary archive ","1476":"to be ","400":"! ","1455":"camel-driver ","300":"t and ","630":"5","1302":"licen","1518":"shu","428":"ted ","859":"﻿","1089":"gr","1176":"same","51":"oh","156":"camel","332":"ally ","822":"hal","623":"1.","794":"on ","1000":"hadn’t ","282":"we","221":"e ","686":"erary ar","776":"never ","1056":"br","113":". it was ","749":"et","1024":"pl","1287":"looked ","1289":"fac","648":"</s>","1343":"little ","1164":"for the ","635":"on","1363":"mu","1415":"free ","1419":"enough","937":"hour","1444":"ts ","159":"going to ","1183":"reckon","115":"out","134":"uten","574":"cra","929":"hol","1152":"som","491":"al ","548":", and we ","633":"find ","169":"kept ","959":"when you ","295":"as the ","842":"to ","1390":"direc","141":"must ","1078":"dro","158":"look","581":"cle","593":"ations ","533":"a big ","542":"ain","547":"be ","1034":"dama","874":"ld ","1070":"n’t ","1268":"the s","1256":"what’s ","1295":"balloon ","1330":"pers","1346":"day","124":"res","7":"anything ","418":"both ","1092":"state ","1397":"ea","1015":"ww","1274":"lea","1375":"ving ","545":"1 ","1407":"forth ","1244":"hu","74":"es ","358":"la","376":"most ","488":"\"","712":"donations ","715":"call","951":"ght","564":"so ","1410":"ter ","704":"uni","985":"eri","1029":"our ","674":"use ","933":", and then ","1127":"mo","1433":"em","705":"tra","649":"knows ","122":"other","1387":"with ","157":"able ","1511":"s. ","279":"of","798":"through ","263":"el ","718":"le of ","1305":"; but ","1401":"over ","845":"ed","944":"shed ","1439":"al","152":"united stat","1469":"jim was ","486":"gres","1504":"beg","287":"every","208":"he ","439":"shall be ","331":"against ","416":"ord","681":"don’t","1499":"then we ","414":"so","606":"ces","388":"as i ","18":";","136":"sel","367":"to git ","1130":"at ","613":"g","1209":"e’s ","1359":". i ","831":"wi","441":"uck ","352":"looking ","204":"pr","669":"then he ","956":"mil","683":"foll","808":"’a’ ","589":"t. ","1326":"nation","711":"after ","1014":"es of ","1441":"that ","1012":"such ","755":"“","627":"when they ","62":"sub","475":"im","146":"ce ","361":"fron","1395":"git ","695":"president","1206":"office ","259":"pi","293":"power","342":"es and ","3":"straight ","341":"animal","1216":"then","1426":"ves ","216":"together ","106":"<","935":"hor","20":"can’t ","1001":"by ","834":"ke ","1201":"e.","1243":"you ","1347":"mem","1403":"cri","1229":". ","1096":"0 ","1069":"[illustration: “","950":"tom","1494":"ver","1506":"she ","1337":"gener","1199":"lim","851":"comm","535":"dur","435":"con","760":"mat","1317":"oce","496":"qu","911":"member","384":"ger","243":"t to ","702":"let ","725":"@","105":"if ","946":"tur","182":"that was ","273":"ing the ","1398":"along ","1404":"vel","670":"tain ","162":"seen ","304":"ary ar","148":"gh","423":"tain","401":"jo","796":"their ","811":"take ","1443":"ook ","812":"il","1477":". he ","383":"mone","458":". well, ","248":"ke","303":"lo","918":"found ","1258":"left ","246":"ing, and ","1286":"ep ","886":"se. ","927":"out, ","1354":"the g","528":"nat ","1473":"all ","645":"tho","562":"y of ","98":"went ","109":"want ","557":"sof","714":"lieve ","983":"ph","290":"of the united stat","1498":"in","1031":"ec","857":"day ","207":"what","283":"and ","350":"wea","982":"des","774":"f ","1119":"ever","1521":"body ","895":"; ","853":", so ","1412":"+","102":"trademar","302":"re","468":"each ","692":"gla","447":".” jim ","244":"thing ","1186":"who ","1503":"say ","422":"tive ","328":"const","1339":"ped ","1510":"some ","330":"ject ","1430":"fa","697":"der","21":"a good ","215":", too","597":"begun to ","768":"mi","1095":"exce","1445":"our","232":"g ","269":"stat","310":"lt ","748":", because ","40":"wel","44":"z","434":"shi","121":"about","747":"me ","349":"don","1115":"ab","411":"sca","721":"produ","1190":"it","803":"0","463":"turn ","499":"dow","848":"? ","1368":"you","57":"ross ","240":"sl","214":"away ","727":"even ","1005":"pp","1298":"pretty ","71":"tion","161":"by the ","426":"ar","1324":"trou","814":"parag","1342":"into ","372":"’s ","620":"took a ","879":"ff","1352":"fet","804":"coun","379":"ev","360":"good ","431":"them, and ","1384":"person ","1474":"tt","412":", i ","1171":"off ","46":"prin","1087":"si","288":"spe","247":"laid ","180":"there warn’t ","682":": “","50":"give ","604":"ding ","1182":",” ","445":"ses ","1374":"including ","1487":"s tom","1493":"mon","268":"a ","373":"reas","1202":"four ","1276":"t, ","1038":". if ","1016":"can","1025":"pri","1126":"?","1288":"did ","770":"lear","1348":"au","1417":"perf","184":"and the ","462":"ro","139":"foo","537":"er ","72":"les ","490":"tom sawyer ","1310":"gisl","1322":"mars tom, ","1396":"%","95":"three ","265":"constitu","538":"n","958":"public ","478":"ent","1406":"ven ","809":"sed ","241":"ghty ","971":":","466":", or ","294":"ber","608":"more ","580":"publi","217":"look at ","1083":"ated ","1452":"gwine ","664":"err","1227":"place ","292":"turn","977":"red","482":"ti","1066":"around ","1211":"made ","211":") ","236":"self ","1077":"an","1041":"yes, ","571":"tter ","1341":"are ","45":"ustration","988":"ed the ","902":"dead ","324":"tal","339":"satis","912":"any ","1478":"distribu","625":"down","1194":"ce","576":"i ","56":"own","166":"” “","189":"dn’t ","353":"it’s ","856":"ep","579":"near","1128":"new ","1321":"y","1355":")","996":"way, ","117":"q","559":"last ","624":"car","1422":"that","11":"fl","408":"seem ","1045":"law ","1219":"ill","1378":"help ","471":"gutenber","308":"dut","607":"next ","825":"may","97":"whi","225":"long ","415":"es, and ","1007":"of the ","86":"thou","378":"it made ","1125":"it, and ","1332":"could see ","1420":"there","754":"more than ","237":"und","329":"see, ","382":"ul","460":"'","930":"str","1138":". the ","765":"air ","663":"cr","1333":"started ","317":"couldn’t ","112":"su","1052":"project gutenberg-t","9":"un ","151":"low","278":"ju","1255":"min","1382":"when he ","924":"er, ","1413":"ta","830":"cat","611":"land","99":"make ","1112":"everybody ","665":"presid","786":"tr","1063":"again","1282":"standing ","1501":"ged ","515":"pa","93":"them","167":"very ","1517":"lef","465":"pt ","116":"rai","1222":"2","178":"congres","578":"ex","1143":"me and ","1167":"like ","827":"my","526":"y. ","815":"say","503":"try to ","1094":"aw","1315":"e, ","1028":"hain’t ","440":"president ","637":"ov","296":"litt","84":"sec","403":"woul","476":"ong","1372":"def","1195":"te","492":"hel","594":"believe ","420":"sle","1435":"full ","1200":"won","891":", ","1067":"diff","453":"pretty soon ","1079":"driver ","43":"se","1311":"gul","425":"go","536":"in and ","644":"ds ","531":"maybe ","163":"bro","487":"y to ","266":"reason ","228":"ite ","245":"project gutenberg","413":"electroni","975":"dey ","1121":".” “","369":"age ","506":"”","1065":"requi","1377":"it, ","391":"no, ","394":"*","847":"8","735":"elect","41":"ts of ","1193":"this ebook ","949":"ation","1105":"un to ","381":"es. ","1215":"en, ","31":"ree ","745":"as ","802":"ful ","472":"fe","452":"ble","661":"ut","850":"bac","23":"fu","671":"auth","89":"says, ","1027":"thousand ","521":"right","199":"offi","1135":"thing","275":"sun","365":"’ll ","534":"org","459":"we see ","392":"among ","685":"ole ","767":"two ","402":"self","943":"where ","1254":"kes ","1281":"secon","59":"de ","1299":"ound ","1350":"them. ","371":"bli","1451":"iti","135":"oin","1040":"us ","1003":"ence ","1228":"top ","1113":"guten","566":"time ","27":"ir","1097":"minute ","699":"ven","1463":"nat","507":"ed up ","826":"one, ","512":"ever ","320":"m","631":"dis","783":"ji","1520":"disa","442":"fell","143":"'s ","651":". now ","1062":"they’re ","1425":"ed in ","646":"am","53":": ","1458":"cial ","138":"just ","1091":"ll","1084":"a person ","1362":"same ","429":"half ","710":"o","108":"par","659":"tim","1191":"work ","1261":"acc","1278":"nor ","1316":"!” ","12":"oul","841":"an hour","1325":"ded ","931":"inform","1224":"there’s ","1450":"copyright ","877":"project gutenberg literary archive found","398":"ck ","980":"may ","1203":"pen","772":"chi","73":"the way ","201":"cha","1338":"ways ","556":"prof","736":"ar ","410":"men ","261":"chapter ","100":", and you ","621":"something ","550":"fort","762":"up ","505":"tru","919":"which ","24":". he said ","1162":"ne","238":"on the ","889":"sion ","1207":"lie","1508":"] ","58":"1","720":"paid ","910":"ty ","380":"d, and ","1102":"un","1323":"stand ","1192":"doll","527":"sh","968":"ous ","1249":", and i ","1468":"up in the ","560":"der ","634":"miles ","882":"ward ","954":"king ","1515":"to the ","377":"y, and ","484":"ten ","525":"nex","602":"ed it ","757":"clock","618":"cop","860":"this ","448":"qui","520":"your ","916":"tu","921":"everything ","1098":"think ","952":"as a ","1221":"<pad>","1294":"-","2":"knowed ","1230":"it. ","147":",","1064":"whole ","1446":"go ","193":"back","869":"soon ","992":"_ ","344":"out the ","77":"est","483":"other ","1108":"hou","144":"camel-","694":"dder ","1383":"watch ","1482":"ve","590":"’t ","741":"o’ ","1462":"the","307":"ed, ","1275":"zing ","706":"enough ","972":"bod","1259":"rais","789":"ation ","991":". tom ","744":"at","1479":"differ","516":"ha","1210":"end","1496":"ther","1313":"ood ","61":"he said ","524":"huck","130":"to see ","907":"over the ","1020":"light ","1262":"st ","784":"er","1055":"a l","1059":"he had ","498":"i’s ","1170":"sc","586":"clu","523":"ary ","691":"they","844":"ed, and ","1309":"project gutenberg-tm electronic ","502":"across ","1181":"op","717":"las","1457":"recei","626":"things ","1260":". . .","253":"respec","1239":"him","821":"been ","778":"might ","905":"how to ","763":"fif","168":"to go ","973":"a f","508":"reck","915":"~","554":"there ain’t no ","1021":"ca","1049":"p ","984":"out ","25":", and the ","1166":"had ","464":"e, and ","15":"before","177":"lec","660":"ount ","914":"warn’t ","640":"ook","1073":"200","16":"what it ","1197":"has ","80":"goo","1061":"do","504":"h ","119":"sted ","230":"oo","541":"we couldn’t ","615":"fee","1205":"distribute ","257":"head","289":"far ","417":"those ","1304":"cei","1173":"sent ","888":"out and ","546":"ci","114":"section ","543":"they was ","1266":"peop","1357":"sh ","76":"as","1373":"feel ","1470":"ii","174":"tre","1514":"</w>","1188":"told ","227":"wh","387":"tri","588":"char","83":"sor","111":"man ","1264":". but ","1349":"form ","456":"vi","1010":"any","622":"ck","733":"night ","917":"shall have ","172":"rea","181":"ind ","494":"senat","513":"perfectly ","299":"sha","522":"states ","183":"a re","364":"’t","1306":"ter","1072":"money ","1180":"’d ","481":"dat ","1331":"high ","1101":"ure","1242":"is. ","883":"sen","689":"you can ","1225":"wine ","32":"sta","1336":"ol","899":"a-","1428":"se ","852":"ling ","509":"partic","962":"er and ","591":"for ","1252":"or ","433":"ying ","297":"ati","1481":"; and ","337":"we was ","855":"lit","123":"jim ","444":"for","680":"to","1237":"cl","530":"ched ","818":"ga","1442":"happ","780":"”] ","346":"ing, ","1081":"way ","132":"a long ","326":"\" ","1467":"cour","881":"piec","251":"ini","1118":"bur","1026":"with the ","743":"9","570":"[","1267":"old ","1381":"like a ","1485":"right ","1145":"that we ","642":"ant","26":"work","190":"wr","1116":"the united stat","457":"all the ","1198":"that’s ","104":"done ","955":"di","1050":"ebook ","1144":"now, ","837":"by and ","1149":"ber ","903":". we ","1023":"man","938":"le ","990":"sho","998":"ry ","1273":"where the ","884":". if you ","474":"ess ","866":"ain’t no ","322":"est ","939":"a little ","1057":"d","868":"copy","650":"sma","1131":"gu","1312":"except ","828":"lan","171":"it?” “","750":"y, ","36":"there was ","234":"vice ","451":"gutenberg","467":"oni","206":"minut","896":"star","900":"that the ","940":"side ","947":"some","1019":"wonder","35":"is","276":"would ","966":"together","291":"he","667":"ef ","773":"but ","1022":"than ","1106":"thr","1129":"fre","1153":"ved ","142":"any other ","13":"ectly ","1204":", it ","1272":"um ","1356":"w ","1402":"bl","746":"’ ","1421":"it warn’t ","96":"didn’t know ","1394":"united ","1486":"ur","653":"way","791":"every ","656":"s: “","48":"hum","1449":"wat","1314":"do you ","355":"hi","1151":"tom was ","801":"tom sawy","37":"po","375":"talk ","734":"is, ","286":"see ","875":"b ","170":"we ","995":"red ","1114":"fir","1133":"id ","1353":"present","421":"came","641":"s—","1432":"th","565":"inn","270":"ed him ","1232":"about ","407":"says ","63":"literary archive found","316":"people","598":"gen","555":"ho","722":"fin","759":"itiz","885":"col","1265":"know","1388":"kin","1461":"ni","271":"mis","149":". you ","1293":"t ","945":"for a ","614":"s ","835":"l ","312":"of a ","595":"ra","501":"prett","470":"was ","1491":"ig","192":"per","887":"see","1099":"gi","1297":"m ","805":"ran","389":"shall not ","908":"pped ","409":"cla","1123":"about the ","1140":"his ","1213":"comp","934":"found","1371":"?” ","865":"fo","1":"keep ","1385":"j","1037":"ure ","1187":"what ","281":"in’ ","563":"ge ","573":"he’s ","738":"]","657":"his own ","309":"c","922":"the li","1120":"trade","709":"never see ","1400":"consi","1358":"thin","272":"es, ","587":"at’s ","532":"chive ","701":"project gutenber","327":"sw","817":"i ever ","1110":"sand","1393":"in ","777":"paragra","1004":"the glas","616":"cont","1058":"jim","1039":"ste","1158":"place","658":"co","894":"these ","1030":"stre","1431":"sp","666":"more","1160":"raight ","1036":"av","1270":"00","1086":"answ","231":"<unk>","424":"ir ","836":"he couldn’t ","1044":"scri","22":"hain","843":"soci","872":"ght, ","1100":"countr","110":"y ","397":"s of ","861":"tw","1409":"f","396":"another ","68":"of ","960":"a’ ","1032":"representati","185":"down and ","393":"ation of ","1364":"le","49":"sai","737":"w","1011":"from the ","1174":"ru","832":"ow ","668":"oun","609":"bi","1507":"poor ","39":"the ","599":"a body ","1109":"legisl","1080":"of cour","1459":"a","495":"it was ","17":"ebook","1327":"he could ","553":"project gutenberg ","345":"li","619":"bla","890":"n ","941":", en ","1107":"professor ","1155":"port","510":"being ","1002":", you ","819":"num","1263":"my ","1134":"of them ","78":"d. ","406":"the same ","873":"represent","730":"/","1157":"dervish ","1285":"lli","892":"cer","1505":"ited ","305":"ser","1250":"_, ","1472":"gone ","766":"night","529":"ge","568":"coul","212":"orn","205":"him ","552":"particul","348":"ough ","1175":"b","1178":"all","443":"s and ","1247":"dri","1284":"works ","1466":"t, and ","690":"seem","976":"nothing ","1048":"sur","1369":"ri","1148":"6","120":"have ","477":"ei","94":"dd","700":"ll, ","454":"does ","311":"ss ","1231":"cre","600":"around and ","1185":"sure ","1367":"anim","782":"want to ","1241":"ink","572":"sion","315":"ze ","1018":"’","1334":"ching ","647":"agre","839":"e. ","676":"long","925":"best ","799":"legislat","1509":"happen","432":"ess","1082":"put ","1208":"if you ","419":"is ","870":"mar","1236":"would be ","131":"on, and ","673":"when ","260":"agree ","160":"t","235":"just as ","596":"project gutenberg-tm ","687":"pow","450":"ver ","610":", and so ","1035":"term","612":"unless ","781":"set ","47":"though ","1436":"ect","1212":"says: “","285":", and he ","1440":", he ","264":"shall ","1214":"one","800":"shall, ","82":"now ","223":"information ","196":"y’s ","233":"her ","585":"we’ve ","601":"ch","987":"we had ","1245":"itu","769":"down ","652":">","617":"to do ","739":"sa","1360":"always ","1489":"clo","787":"e","1156":"en","250":"—","964":"still ","978":"ster","469":"er to ","997":"do not ","1088":"” ","1154":"i was ","1161":"awful ","1418":"es","1483":"om","752":"hundred ","395":"#","740":"tic","81":"ph ","729":"them ","693":"house ","684":"—and ","390":"ough"},"config":{"eow":{"value":"</w>","index":1514},"eos":{"value":"</s>","index":648},"space":{"value":" ","index":876},"pad":{"value":"<pad>","index":1221},"mask":{"value":"<mask>","index":994},"unknown":{"value":"<unk>","index":231}}}